{
  "ĠÙħØ±ÙĥØ²ÙĬ": 13873,
  "Ġbustle": 62183,
  "ĠBatt": 82179,
  "lined": 76680,
  "YA": 53948,
  "ĠØ§ÙĦØªØ¬Ø§ÙĨØ³": 25649,
  "ĠØ§ÙĦÙģØ±Ø¶": 24195,
  "asu": 48869,
  "ĠØ¨ØªÙĩÙħØ©": 39730,
  "ĠØ§ØªÙĤØªÙĦ": 29192,
  "ØµÙĤ": 29624,
  "anero": 78432,
  "ĠÙĦÙĬÙģÙĬØ©": 44537,
  "Fungi": 76068,
  "ĠØ§ÙĦÙħÙĥØ¹Ø¨": 32427,
  "Ġassessed": 91030,
  "Cyclones": 98477,
  "Ġavers": 48411,
  "ĠØ§ÙĦÙĨÙĩØ¬": 23078,
  "Ø§ÙĦØ§Ø¯Ø¨": 15105,
  "ĠØ§ÙĦÙħØªØ¹ÙĦÙħ": 20139,
  "ĠÙĬÙĨØ¨Ø¹Ø«": 68385,
  "ĠØ¯ÙĬÙħÙĪØºØ±Ø§ÙģÙĬØ©": 74186,
  "ØªØ´ÙĬÙħ": 82505,
  "ĠØ¨ÙħØµ": 84736,
  "ĠÙħØ¶Ø¨ÙĪØ·Ø©": 37941,
  "ĠÙĪØ§ÙĦÙĦÙĪØºØ§Ø±ÙĬØªÙħ": 92536,
  "roglyphs": 99082,
  "Ġcable": 20573,
  "Ġcasting": 13952,
  "ĠØ¨ØªÙĬØ³ÙĬØ±": 99667,
  "ĠThanks": 56968,
  "Ġserm": 65166,
  "ÙĥÙĩ": 29527,
  "ĠØ°Ø¨ØŃ": 82777,
  "ĠØ¨Ø§ÙĦØ¨Ø¯Ø§ÙĪØ©": 99856,
  "ĠØ§ÙĦÙħÙģØ§Ø¶ÙĦØ§Øª": 58222,
  "ĠÙĦÙĦÙĩÙĬÙĥÙĦ": 26577,
  "Ø§ÙĦØ§Ø³ØªÙĤØ¨Ø§ÙĦ": 88271,
  "ĠArabia": 27491,
  "ĠØ±ÙģÙĬØ©": 80778,
  "ĠØªÙĥØªÙĦØ§Øª": 87353,
  "ĠØ§ÙĦØ§ÙĪØ±Ø¬Ø§ÙĨØ²Ø§": 58900,
  "ĠØ§ÙĦØ³ÙĥØ±ÙĬ": 25361,
  "Ġquantitative": 35032,
  "ĠØ§ÙĦØ¬Ø±ÙĬ": 31685,
  "ĠÙĦÙĦÙĩÙĬØ¯Ø±ÙĪØ¬ÙĬÙĨ": 47050,
  "ĠØ§ÙĦØªØ§ÙĬÙģÙĪÙĨ": 65435,
  "ĠÙģØ¹Ø§ÙĦÙĬØ©": 12278,
  "ĠØ¬ØŃØ±": 43668,
  "Ġcooked": 29244,
  "EI": 53751,
  "ØºÙĬØ±": 639,
  "ĠÙĪÙħÙĪØ§Ø¹": 36891,
  "ÙģÙĬÙĥØªÙĪØ±": 49345,
  "ĠØ¬ÙĪÙĦØ¯ÙĬÙĦÙĪÙĥØ³": 94839,
  "ØŃØ³Ø§Ø¨": 43136,
  "ĠTe": 14919,
  "ĠØ§ÙĦØ§Ø±Ø´ÙĬ": 67421,
  "ÙĥÙĨÙĪØ§": 80308,
  "ĠØ§ÙĦØŃÙĤØ¨Ø©": 27232,
  "uman": 5978,
  "ĠÙĬÙĪÙĨÙĬÙĪÙĨ": 96011,
  "ĠÙħØ§Ø¬": 27864,
  "ĠMalthus": 56386,
  "Ø´ØŃØ§Øª": 36184,
  "ĠUncertainty": 50646,
  "Toronto": 74139,
  "ĠÙĦÙĦØªÙģØ±Ø¯": 86747,
  "ĠØ¨ØªØ³ÙħØŃ": 7019,
  "ptoms": 56356,
  "ÙĦÙĦØ±Ø¬Ø§ÙĦ": 86837,
  "Ġfelt": 38708,
  "ĠÙĨØ¯Ø±Ø³": 23064,
  "ĠÙĪØ§ÙĦÙĨÙĪØ±Ø§Ø¯Ø±ÙĬÙĨØ§ÙĦÙĬÙĨ": 100638,
  "ĠÙĪÙĨÙĤØ·Ø©": 95884,
  "Tag": 76384,
  "Ġconsist": 5137,
  "ĠØ¨ÙĥÙĦÙħØ§Øª": 52202,
  "Van": 27783,
  "ĠØ¬ÙĩØ§Ø²Ø§": 69496,
  "ĠTruths": 63208,
  "Ġproton": 30339,
  "ĠSingapore": 47003,
  "ĠÙĦÙĦØªÙħÙĬØ²": 69308,
  "ĠBay": 29986,
  "Ø¹ÙĨÙĤ": 77408,
  "ĠØ¨ÙĬØ±ÙĪØŃÙĪØ§": 95249,
  "ĠØ²Ø¬Ø§Ø¬": 16776,
  "Ø§ÙĦÙģØ±": 3629,
  "ĠÙħÙĤØ§ÙĪÙħØ©": 5000,
  "opatra": 96868,
  "Trade": 9069,
  "Ġarmed": 32008,
  "ĠÙĪÙĨÙĤÙĦ": 12040,
  "ĠØ«ÙĦØ¬ÙĬØ©": 16116,
  "Ø¶ÙģÙĩØ§": 72001,
  "Give": 35893,
  "to": 4426,
  "lyich": 55741,
  "ĠÙĪØ´Øº": 69574,
  "ĠØ§ØŃØªÙĬØ§Ø¬Ø§ØªÙĩÙħ": 18534,
  "Ġelectrochemical": 53510,
  "ributions": 85375,
  "ĠÙĬØ±ÙĬØ¯ÙĪÙĨ": 98062,
  "ĠÙĬØ§Ø¯ÙĬÙĨ": 78599,
  "IAU": 76137,
  "aggle": 62378,
  "icum": 33667,
  "Ġretrieving": 94910,
  "ĠÙĦÙĦÙħØ´ØªØ±ÙĬ": 57311,
  "ĠÙĪØ®ÙĦØ·Ùĩ": 71959,
  "ĠØ§ÙĦØ¨ÙĨØªØ§Ø¬ÙĪÙĨ": 58974,
  "Ġovergrazing": 63258,
  "ĠØ§ÙĦØ´Ø®Øµ": 1263,
  "Ġnavigate": 19706,
  "ĠÙĪØ§ÙĦØªØ§ÙħÙĬÙĨ": 40775,
  "ĠÙĨØ«": 55156,
  "ĠÙħØŃØ±ÙĥØ§Øª": 11469,
  "ĠØªØ®ÙĦÙĬÙĥ": 51552,
  "Ġbuttons": 52650,
  "ĠÙĦÙĩÙĨØ¯Ø³Ø©": 43240,
  "Promote": 38719,
  "áĦĴáħ¡áĨ«áĦĢáħ³áĨ¯": 75854,
  "ĠDaddy": 44423,
  "Albuterol": 87282,
  "Ġpracticed": 45419,
  "ĠØ§ÙĦØ±ÙĬØŃØ§ÙĨ": 61652,
  "Ġrob": 14331,
  "ĠÙĪÙĬØ¹ÙħÙĦ": 15612,
  "ØµÙĩØ§Ø±": 18147,
  "ĠÙħØ¶Øª": 88671,
  "ĠÙģÙĬØ±Ø³ØªØ§Ø¨ÙĨ": 90577,
  "Ø§ÙģØ³ÙĬ": 28101,
  "ÙĬØ±Ø³Ùĥ": 78731,
  "ĠØ¨Ø±ÙĬÙĬØ§": 28841,
  "ĠØªØ¬Ø±ÙĬ": 17826,
  "ĠÙĪØ§ÙĦØ§ÙĬÙĤØ§Ø¹ÙĬØ©": 47579,
  "etry": 2534,
  "ram": 1099,
  "ĠØ§ÙĦØ¬Ø±ØŃ": 49114,
  "ĠØ§ÙĦØ§Ø¬Ø¨Ø§Ø±ÙĬ": 82440,
  "ĠØªØ¹Ø§Ø¯ÙĦ": 67192,
  "ĠÙĦØ¯Ø±Ø§Ø³Ø§Øª": 54703,
  "ĠØ§ÙĦØ§ÙĪØ¯ÙĬØ§": 56683,
  "ĠØ§ÙĦØŃÙĦÙĪÙī": 51927,
  "ĠØ¶Ø®": 83273,
  "ĠØ§ÙĦØ²Ø§ØŃÙģ": 83417,
  "ĠÙĪØ§ÙĦØ§ÙĦÙĩ": 31464,
  "ĠØ§ÙĦØ±Ø³ÙĪÙħØ§Øª": 20251,
  "ĠÙĪÙĬØ´Ø§Ø±": 35275,
  "ĠØ§ØµÙĦÙĬÙĬÙĨ": 50225,
  "Strike": 86540,
  "Ġdisorders": 18335,
  "ĠÙģÙĪÙĤ": 2511,
  "ĠArch": 41016,
  "IMP": 73300,
  "acard": 49745,
  "Ġintends": 65367,
  "Ø§ÙĦØ§ØºØ§ÙħØ§": 93889,
  "ĠØ§ÙĦÙħØªÙĪØŃØ´": 77909,
  "ĠÙĬÙĪÙĨØ³": 38176,
  "Ø¯ÙĪØ§ÙĨØ§": 43016,
  "ĠÙĬØªÙĪØµÙĦ": 78597,
  "Indra": 71037,
  "national": 48168,
  "ÙĤØ°": 18118,
  "ĠØ§ÙĦÙħÙĨØŃØ±Ùģ": 46140,
  "ĠÙħØ¶Ø®Ø§Øª": 88673,
  "Ġredirect": 59684,
  "ĠØ§ÙĦÙĤØµØ¨Ø§Øª": 88624,
  "cious": 6858,
  "ĠÙĦØªØ®Ø«Ø±": 47076,
  "Fashion": 3811,
  "ĠComparison": 62639,
  "ĠTully": 49499,
  "Ø§ÙĦÙĨØ¨Ø§Ø¶": 83970,
  "Ġlattice": 75516,
  "Ġbuying": 23456,
  "Ø§ÙĦÙĥÙĪØ¨ÙĪÙĨØ§Øª": 96378,
  "ĠUrn": 84223,
  "ught": 6076,
  "ÙĦÙģÙĬÙĨ": 6880,
  "Ġdens": 7203,
  "Can": 31147,
  "ĠØ³ØªÙĬØºÙĦÙĬØªØ²": 39107,
  "ĠØ¨Ø±ÙħØ¬Ø©": 6527,
  "ĠØ¨ÙħÙĨ": 7948,
  "ulp": 14594,
  "Ø§ÙĦÙħØ±ÙħØ±": 46358,
  "olph": 29735,
  "Dietary": 75303,
  "ĠGharial": 82424,
  "Ġorbit": 6862,
  "ĠØ¨Ø§ÙĦØŃØ§ÙĦØ§Øª": 88771,
  "Ø§ÙĨØ·ÙĪØ§ÙĨ": 97127,
  "Ġjoined": 73277,
  "ÙħÙĬØªÙĩØ§": 29811,
  "Lead": 9642,
  "Ø¨Ø´Ø§ÙĬØ±": 77378,
  "ĠØ§ÙĦÙĦØ§Ø¹Ø¨": 8149,
  "ĠÙħØ³ØªØ®Ø¯Ùħ": 13451,
  "ĠØ§ÙĦØ¹Ø¯ÙĪØ§ÙĬÙĬØ©": 94083,
  "ĠThurman": 56969,
  "Ø°ÙĥØ±Ùī": 46341,
  "ĠÙĦÙĦØ§ÙĩÙħØ§ÙĦ": 79580,
  "Predict": 76293,
  "ĠØ¨Ø§ÙĨØ¬Ø§Ø²": 58142,
  "ĠÙĪØ§ÙĦÙĨÙħØ§Ø°Ø¬": 40811,
  "ja": 22014,
  "ĠØ§ÙĦØ§ÙĨØ«ÙĪÙĬ": 33041,
  "Ġpossessing": 72261,
  "crime": 96182,
  "ĠØ¨ÙħØ³Ø§ØŃØ§ØªÙĩØ§": 89797,
  "ĠÙĦØ¶Ø±Ø±": 78193,
  "Ġaffective": 59570,
  "Ø§ÙĦØ±ÙħØ²": 9755,
  "tech": 54107,
  "ĠØ§ÙĦØ§Ø¨Ø¬Ø¯": 85239,
  "Ġfinely": 69595,
  "ĠØ¯Ø§ÙĪÙĨÙĬ": 92540,
  "ĠØ§ØªØ¹ÙħÙĦØª": 11909,
  "Ġmaintainability": 41300,
  "ĠØ§ÙĦÙĤÙĬÙħ": 4044,
  "ĠØªÙĪÙħØ¨ÙĪ": 60268,
  "Ġdates": 31510,
  "rone": 37144,
  "ĠÙĪØ±ÙĥØ§Ø¨": 77684,
  "Ġ64": 17914,
  "Ġauthorship": 42465,
  "Ġlooks": 37789,
  "Chiropract": 74277,
  "Ġelectricity": 11716,
  "ĠÙĦØŃÙĥÙĪÙħØ§Øª": 85111,
  "Sneakers": 64137,
  "ĠÙĪØ§ÙĦÙħÙĬØ«Ø§ÙĨ": 33081,
  "ĠØ¨Ø§ÙĦÙħÙĦÙĥ": 80496,
  "ĠÙĦÙħØªØŃÙģ": 84554,
  "ĠØ±Ø§ÙģÙĦÙĬØ³": 96272,
  "ĠÙĦØ³Ø±Ø¹Ø©": 69511,
  "ĠØ§ÙĦØªÙĪØŃÙĬØ¯": 24527,
  "ĠÙģØ§ÙĬØ±ÙģÙĪÙĥØ³": 92461,
  "ĠØ¨ÙĬØªÙĪØµÙģ": 26547,
  "ĠÙĬØ¯ÙĪØ³": 46155,
  "ĠÙħÙĦØ§ÙĩÙĬ": 58339,
  "Ø§ÙĨØŃÙĨØ§Ø¡": 64905,
  "Max": 21206,
  "Ġliability": 26600,
  "ĠØ§ÙĦØ±ÙĥØ§Ùħ": 41573,
  "ĠØ¨ØµÙĬØ§Øº": 73566,
  "Spinosaurus": 86807,
  "ĠØ¨ØµÙģ": 19230,
  "ĠÙĪØ§ÙĦÙĥÙĪØ§ÙĥØ¨": 17927,
  "ĠÙħØ´Ø±Ùģ": 34166,
  "ĠØ§ÙĦÙĨÙģØ³ÙĬÙĪÙĨ": 70835,
  "ĠÙĦÙĦÙĥ": 3879,
  "ĠØ§ÙĦÙĥÙĪÙħÙĬÙĥØ³": 5545,
  "ĠØ§ÙĦØ«ÙħØ±Ø©": 14938,
  "Trad": 22905,
  "elding": 26593,
  "92": 14185,
  "acular": 31921,
  "ĠPlanetary": 52242,
  "ocative": 66942,
  "ĠPalme": 62486,
  "ĠØ§ÙĦØ¬ÙĨØ§Ø²Ø©": 50841,
  "Ø§ÙĦÙħÙĨØ§Ø·ÙĤ": 70318,
  "Ġtubular": 92270,
  "ĠÙĦØµØ§ØŃØ¨": 59176,
  "ĠØªØ®": 2220,
  "ĠØ¨ØªØ§ÙĦÙĬÙģ": 25275,
  "ĠØ±ÙĪØ¯ÙĨÙĬ": 52068,
  "ÙĤÙĬØ¯Ø©": 17235,
  "ĠØ§ÙĦØ¶ÙĩØ±": 40449,
  "Ø±ÙĪÙħÙĪØ³ÙĪÙħØ§": 71570,
  "ĠØ¬ÙĪÙĬØ§": 79670,
  "Ġexp": 1674,
  "ĠØ§ÙĦÙĨØŃØ§Ø³": 14740,
  "Filtering": 97043,
  "ĠGovern": 16822,
  "ĠØªÙģØ¹ÙĦ": 85389,
  "ÙħØ§Ø·": 2336,
  "erox": 43177,
  "Ġpallidum": 47699,
  "ustoria": 57069,
  "musical": 96438,
  "ĠÙĩÙĪØ¨Ø³Ø¨Ø§ÙĪÙħ": 91784,
  "ĠØ§ÙĦØ§ØªØ²Ø§ÙĨ": 50486,
  "ĠÙģØ±ÙĬØ¯Ø©": 8200,
  "Ġdiagnosis": 62335,
  "ĠSmithson": 72904,
  "ĠÙĪØ¨ÙĨÙĤØ¯Ø±": 63235,
  "ĠØ§ÙĦÙģØ¯ÙĬØ©": 31701,
  "ÙĦØ§ÙĬÙĨ": 15141,
  "ĠÙĪØ¶Ø¯": 70395,
  "ÙĬØ±ÙĬ": 3519,
  "ĠÙĨÙĬÙħÙĪ": 62699,
  "icate": 8119,
  "Carrie": 93491,
  "argentum": 87481,
  "nov": 5206,
  "ÙĪÙģØ§Ø¯ÙĪ": 49941,
  "Ø§ÙĦØªØ§Ø·ÙĬØ±": 84922,
  "ĠCPI": 56040,
  "ĠØ§ÙĦØ§ÙĨØªÙģØ§Ø¶Ø©": 99985,
  "Ġyielded": 74733,
  "ĠØªØ¨Ø¹": 29621,
  "Ġsolidifying": 51661,
  "Ø§ÙĦØ¹ÙĨØµØ±ÙĬØ©": 34643,
  "Ø§ÙĦÙģØ±ÙĬØ³ÙĥÙĪ": 85767,
  "ĠÙħØªÙĪØ²Ø¹": 59853,
  "jma": 54034,
  "ilation": 28148,
  "ĠØ§ÙĦÙĥÙħØ§ÙĦ": 55522,
  "ĠÙĦØ¨ÙĨØ¯": 70728,
  "rung": 35984,
  "ĠØ§ÙĦÙħÙĤÙĬØ¯Ø©": 77895,
  "ĠÙģØ®Ø§Ø±ÙĬ": 74467,
  "ĠØ°Ø§ØªÙĬØ©": 6824,
  "ĠØ§ÙĦØªÙĦÙĪÙĬÙĨ": 65432,
  "Ġlights": 24529,
  "ĠÙĦÙĦØ§Ø¬Ø§Ø¨Ø©": 92957,
  "ĠÙĪØ¨ØªØ³ÙħØŃÙĦÙĥ": 97805,
  "ĠÙĨØ§ÙģØ±Ø§ØªÙĬÙĦÙĪÙģØ§": 63703,
  "ĠÙĦØªØºÙĬØ±Ø§Øª": 50620,
  "Ø§ØªØµÙĪØ±Øª": 77811,
  "een": 952,
  "Ġpositive": 7764,
  "Ø¯Ø§ÙĨÙĬØ§ÙĦ": 23977,
  "ĠØªÙĥØªÙĪÙĨÙĬØ©": 33617,
  "Ġsusceptible": 21188,
  "ages": 1326,
  "ĠÙĨØ¨Ø§Øª": 3588,
  "average": 39225,
  "Ġequestrian": 45305,
  "Ġuniversity": 7299,
  "Ġvisibility": 21744,
  "Titan": 48049,
  "ĠØ§ÙĦÙģÙĩØ±ÙĬØ©": 80282,
  "Ġflushing": 69111,
  "ĠØ¨ÙħÙĪØ¬": 11490,
  "Ġstaple": 23140,
  "captain": 76532,
  "ĠØ¨ÙĬØ¹ÙĦÙĬ": 68669,
  "ĠÙħØ±ÙħÙĪÙĤØ©": 57108,
  "ĠFar": 37023,
  "ĠÙĬØ§ÙĨÙĥÙĬØ²": 62174,
  "ary": 789,
  "ĠØ§ÙĦØ§ÙĨØ´Ø§ÙĬÙĬØ©": 19731,
  "ÙħØ³Ø§Ø±": 49893,
  "ĠØ§ÙĦØ¨ÙĬÙĥØ³ÙĦØ§Øª": 67176,
  "borrow": 76496,
  "ĠÙĪÙħØ¬ÙħÙĪØ¹Ø§Øª": 26761,
  "Ġdreamlike": 42448,
  "ÙĪØ¶Ø§Ø¡": 16658,
  "ĠØ§ÙĦÙħØ§ÙĬØ§ÙĨÙĬ": 62447,
  ".*": 39118,
  "ĠComforts": 75742,
  "Ġhaiku": 52767,
  "ĠÙĪØ§ÙĦÙĬØ¯": 78626,
  "Ġfeeble": 95886,
  "ØªÙĩØ¯Ø§Ùģ": 25571,
  "ĠØ¨ÙħÙĨØŃØ¯Ø±Ø§ØªÙĩØ§": 91900,
  "emes": 49213,
  "ĠÙĬÙĪØ³ÙĬÙĨ": 92715,
  "ĠÙħØ±Ø³ÙĪÙħ": 34367,
  "ĠÙĪØ§ÙĦØ¹Ø¯Ùħ": 50538,
  "ĠØ¨ØªØ¯ÙĬÙĦÙĩ": 65636,
  "Ġreferents": 98351,
  "Ø§Ø´ØªØ±Ùĥ": 82475,
  "ĠÙĪØ§Ø®Ø±Ø¬": 51414,
  "ĠØ§ÙĦØºÙĬØªØ§Ø±": 62055,
  "Ser": 64118,
  "Beyonce": 99147,
  "Ġcoloration": 84577,
  "ĠEasily": 81765,
  "iol": 5532,
  "ĠGray": 26798,
  "ĠØ§ÙĦØ§ØŃØªØ¬Ø§Ø²": 93666,
  "Ø§ÙĦÙĩØ§ÙĬÙĥÙĪ": 41134,
  "ĠØ¨ÙĬÙĬÙĬ": 17952,
  "ĠØ§ÙĪÙĬØ³": 39736,
  "Ġresearched": 42038,
  "ĠÙĦÙĦØ²ÙĬØ§Ø¯Ø©": 65760,
  "ĠÙħÙĨÙĪØ±": 36323,
  "ĠÙĦØŃÙħØ§ÙĬØªÙĩ": 57843,
  "ÙħØ³ØªØ¬ÙħØ¹Ø§Øª": 92862,
  "ĠØ§ÙĬÙģØ±Ø³ÙĪÙĨ": 94062,
  "ÙĬØ³ÙĪØªØ§": 57128,
  "ĠÙĥÙħØ³": 78808,
  "Ø§ÙĦØªÙĦÙħÙĬØŃØ§Øª": 92034,
  "ĠØ¨ØªØ®ÙĦÙĬ": 3419,
  "Ġposes": 34857,
  "Ġrespected": 41746,
  "ĠØ§Ø±ÙĬØŃ": 91371,
  "ocal": 10571,
  "ĠÙĦÙĦØ¹ÙħÙĪØ¯": 39793,
  "ĠØ¬ÙĪØ§ÙĩØ§": 12686,
  "urst": 16746,
  "Etymology": 51862,
  "ĠÙĦØ§Ø¨Ø³Ùĩ": 97153,
  "Ġwere": 2378,
  "ĠÙĦØŃØ±ÙĬØ©": 68483,
  "Ġbel": 1653,
  "journ": 31213,
  "ĠÙĪÙĬØŃØ·": 88922,
  "Know": 53813,
  "ĠÙĦØŃØ¯ÙĪØ«": 51306,
  "forward": 51095,
  "ĠConservation": 21450,
  "Ġ1450": 59930,
  "ellis": 67628,
  "Ġkeeps": 94494,
  "ĠØ´Ø±ÙĪØ·Ø§": 61216,
  "ĠÙĪÙħÙħØªÙĦÙĥØ§Øª": 81856,
  "ĠØ§ÙĦØªÙĤØ§ÙĦÙĬØ¯": 10982,
  "DuckGo": 63324,
  "ÙĤØ§Ø±ÙĬØ§Øª": 29539,
  "Ġlonger": 11502,
  "ĠNin": 31970,
  "ĠEx": 2022,
  "ĠUnix": 58225,
  "Latin": 53821,
  "ĠØ¹ÙĦØ§ÙĤØªÙĩÙħ": 47467,
  "aat": 76473,
  "ngthen": 84846,
  "ĠØºÙĦØ·Ø©": 26692,
  "ĠØ±ÙĤÙħ": 6292,
  "Ġoffense": 34788,
  "Tung": 53918,
  "ĠØ´ÙĬØ·": 25384,
  "Ġangrier": 89414,
  "ĠØ§Ø³Ø±ÙĩÙħ": 96258,
  "ĠSpawn": 51016,
  "ĠÙĪØµÙĬØ§ÙĨØªÙĩ": 75102,
  "la": 12722,
  "ĠØ§ÙĦÙģØ³ÙĬÙĪÙĦÙĪØ¬ÙĬØ©": 13915,
  "Crocodylus": 73870,
  "ĠØ§ÙĦÙģÙĪÙĦØ¬Ø§ØªØ§": 89690,
  "ĠØ·Ø¹ÙħÙĩ": 38503,
  "Ġmuch": 7207,
  "Salsa": 53905,
  "ĠØ§ÙĦØºÙĪØ±ÙĪ": 40256,
  "ĠÙĦØ§Ø³ÙĨØ§ÙĨÙĩØ§": 88409,
  "Ġfemt": 89711,
  "Ø§ÙĦØ¸Ø±Ø§ÙĨ": 99332,
  "ĠÙĪÙĪØ§Ø¬ÙĩØ§Øª": 90418,
  "Ø¶ÙĬÙĦ": 19287,
  "Ġregulating": 13874,
  "ĠØ³Ø§ÙĬÙĦØ§": 51699,
  "ĠÙĤÙĬØ§Ø¯Ø©": 24526,
  "enter": 43557,
  "Ġtrophic": 22744,
  "ĠRunner": 95052,
  "Ø§ÙĦØ¹Ø¯Ø§ÙĦØ©": 34642,
  "xygen": 25074,
  "Ġesp": 31245,
  "ĠÙĦØ¯ÙĬÙĥ": 70249,
  "Ø§Ø¯ÙĤØ©": 33765,
  "ĠÙĬØ³ÙĬÙĦ": 43363,
  "ĠÙĨÙģØ³Ùĥ": 14349,
  "ĠÙĦÙĦÙħØ±ÙĥØ¨": 83873,
  "ĠTrial": 28309,
  "ĠEduc": 56393,
  "ĠØ§ÙĨØ¨Ø¹Ø§Ø«ÙĩØ§": 93348,
  "ĠÙħØ³ØªÙĨØ¯Ø§Øª": 34456,
  "ĠØ§ÙĦÙħÙĪØ³ÙħÙĬØ©": 18424,
  "ÙĪØªØ±ÙĥÙĬØ²": 84756,
  "Palindrome": 63335,
  "ĠØ§ÙĦØªØŃÙĬØ²Ø§Øª": 21091,
  "ÙĪÙĥÙĬÙĩ": 34191,
  "Ø§ÙĦØ¨Ø·ÙĦ": 44095,
  "gio": 54015,
  "anet": 78427,
  "ĠØ¨ØªØ§Ø¹Øª": 8505,
  "ĠÙĪØ§ØŃÙĪØ§Ø¶": 57114,
  "ĠÙĦØ§Ø³ØªØ®Ø¯Ø§ÙħÙĩØ§": 42012,
  "Ġcomic": 5132,
  "ĠÙĪØ«Ø§ÙĬÙĤÙĬ": 88328,
  "ĠØ§Ø®Ø¶Ø±": 34247,
  "Ø§ÙĦØ¬ÙĦØ¯": 53458,
  "ĠÙħÙĪÙĦÙģØ§Øª": 51469,
  "Ġdisadvant": 26877,
  "ĠØ§ÙĦØ¨Ø±Ø§Ø¡Ø©": 50077,
  "ĠØªÙĪØ¹ÙĪÙĬ": 98648,
  "thar": 66558,
  "ÙĦÙĪÙĥØ§Ø¬ÙĪÙĨ": 37273,
  "ĠÙĪÙĬÙĨÙģØ°": 32716,
  "entlemen": 53184,
  "Ġhospitality": 63135,
  "enny": 90392,
  "ilitarianism": 30572,
  "ĠØ§ÙĦØªØ§ÙħØ±": 78895,
  "ĠÙħÙĥØ§ÙĨØªÙĩØ§": 32293,
  "ØªØ±ÙĥÙĪØ§": 32559,
  "Ø³ÙĬÙĪØ³": 29846,
  "ĠØ§ÙĦØ§ÙĨØ¬Ø§Ø²": 26094,
  "apon": 67467,
  "ĠÙĦÙĦØ§ÙĦØ§Øª": 48903,
  "ĠCollapse": 96057,
  "ĠÙĪØ§ÙĦÙĦØºÙĪÙĬ": 98437,
  "Ġeaves": 55318,
  "Ġgeoengineering": 69505,
  "ĠØ§ÙĦÙĪØ³": 8546,
  "ĠÙħØ±Ø§ÙĬØ§": 83446,
  "ĠApril": 25947,
  "Ø§ÙĦØªØ¹Ø±ÙĬØ¶": 59190,
  "ĠØ¨ØªØ®ÙĦØµ": 39728,
  "ustic": 49950,
  "utions": 2357,
  "ĠØ§ÙĦÙħØªÙĥØ±Ø±": 22974,
  "rath": 39275,
  "ĠØ§ÙĦØ¹ÙĤÙĦØ§ÙĨÙĬÙĪÙĨ": 95916,
  "ĠÙĦÙĥÙĬ": 31393,
  "ØªÙģØ§Ø¸": 15290,
  "ĠØŃÙħØ§ÙĤØ©": 65736,
  "Ø§ÙĦØ§Ø³ØªØ¬Ø§Ø¨Ø©": 37880,
  "Ġsalicylic": 51317,
  "ĠObservations": 47627,
  "ĠØ¨ÙĬÙĨÙĪØªØ³": 49460,
  "ĠØ§ÙĦÙĬÙĥØ³": 83237,
  "ĠÙģÙĬÙĪÙĨØ§": 78257,
  "Ġtoe": 48852,
  "obiology": 83428,
  "Ġintelligent": 19793,
  "Deities": 10807,
  "Ġappro": 4049,
  "Ø§Ø±ÙĬÙĪÙĩØ§Øª": 26765,
  "ĠØ§ÙĦÙħØªØ³Ø§Ø±Ø¹": 51861,
  "ĠCosts": 35771,
  "ĠØ¶ÙĪÙĬÙĬ": 40490,
  "ÙĪØ§ØªÙĬ": 25680,
  "ĠØ§ÙĦÙħØ¯Ø¹ÙħØ©": 68324,
  "Technologies": 69060,
  "ÙħÙĪ": 757,
  "ĠØ¨Ø§ÙĦØ®Ø·Ø§ÙĬØ§": 62888,
  "ĠMagica": 93654,
  "ribution": 4257,
  "ĠÙĬÙĨØ§Ø³Ø¨Ùĥ": 98363,
  "Ø§ÙĦØ³ÙĬØªÙĪÙĥ": 59536,
  "ĠØ§ÙĦÙĤÙĦØ§ÙĬØ¯": 52607,
  "ĠØ¨ÙģØ§Ø±ÙĤ": 89180,
  "Avalanche": 75905,
  "Ġideal": 9376,
  "nar": 48165,
  "ĠÙĪÙĬØªØ§Ø¨Ø¹ÙĪØ§": 98449,
  "ĠÙĬØµØ§ØŃØ¨Ùĩ": 59880,
  "Ġsweaters": 52200,
  "ĠØ³Ø§Ø±ÙĥÙĪÙħØ§": 92492,
  "ÙĬØ´ÙħÙĦ": 58219,
  "ĠCaucasian": 47566,
  "ĠØªØ±ÙħÙĪØ¯": 85543,
  "Ø¨Ø§Ø±Ø¨ÙĬ": 87090,
  "eway": 50778,
  "creating": 69350,
  "Ġlocated": 2517,
  "ĠÙĪØ§ÙĦØ§Ø¹ÙħØ§ÙĦ": 29011,
  "ĠÙĪÙħÙĥÙĪÙĨ": 66862,
  "Ġsensation": 51268,
  "ĠNDA": 83016,
  "ĠÙĦØ³ÙĪÙģÙĪÙĥÙĦÙĬØ³": 69512,
  "ĠØŃØ§Øµ": 79481,
  "porarily": 60116,
  "ĠÙĪØ®ØµØ§ÙĬØµÙĩ": 60848,
  "ĠHits": 67031,
  "Ø³ÙĨØ§ÙĦ": 58001,
  "ĠHomo": 82235,
  "ĠØ§ÙĦÙģÙĩÙħ": 11089,
  "ĠØ³ÙĥØ§ÙĬ": 60748,
  "ĠØªØªØ±Ùĥ": 54642,
  "Ø¯Ø§ÙĨØ§": 77336,
  "ĠØ§ÙĦØ±ÙĬØ§Ø¶": 2156,
  "ĠFactor": 82689,
  "ĠØ§ÙĦÙħØªØºÙĬØ±Ø©": 9850,
  "ÙĥÙĬÙģ": 2235,
  "Ġbeams": 25447,
  "ĠÙĪØ®ÙĬØ§Ø·Ø©": 94081,
  "ĠÙĪØ§Ø´ÙĩØ±": 19649,
  "Ġgogg": 99806,
  "Ġsubphylum": 100358,
  "ÙĦØ§Ø¡": 23953,
  "ĠØ¨Ø§ÙĥØ¨Ø±": 13135,
  "volv": 1245,
  "ĠØ¨ØŃØ¬Ùħ": 17867,
  "ÙĪÙĥØ§ÙĦØ©": 66959,
  "ØºÙĨÙĩØ§ÙĬÙħ": 37631,
  "Ġvegetables": 16986,
  "asted": 67719,
  "Ø§ÙĦÙĦÙĥÙĨØ©": 59473,
  "Ġalpha": 56446,
  "Ġbars": 21343,
  "porous": 90469,
  "ĠÙĦÙĦØ´": 2481,
  "ĠÙĦÙĦÙħØŃÙģØ²Ø§Øª": 74417,
  "ĠTV": 56325,
  "Loph": 76185,
  "Ġretali": 59399,
  "ĠÙĪØªØ±Ø³ÙĬØ®ÙĩØ§": 100491,
  "ĠØ´Ø§Ø¹Ø±Ø©": 53406,
  "ĠÙĦÙĪØ±ÙĤ": 90569,
  "Hurricane": 53796,
  "ĠØªØ¹ÙĬÙĤ": 67193,
  "ĠÙĥØ®ÙĦÙģÙĬØ©": 39652,
  "ĠEmerald": 100025,
  "ĠØ¨Ø§ÙĦÙģÙĬ": 33968,
  "ĠØ§ÙĦÙħØµÙĦØŃ": 54548,
  "Ø±ÙĥØªÙĪØ²": 55745,
  "ĠØ§ÙĦØ¨ÙĬØ¶Ø§ÙĪÙĬ": 61702,
  "ĠØ§ÙĦØ¬ÙĬØ±Ø³ÙĬ": 38823,
  "ĠÙĪÙĬØ¸ÙĨÙĪÙĨÙĩØ§": 98856,
  "Ġexceeds": 30908,
  "ĠØºÙĪØ¯ÙĦ": 38847,
  "ĠÙĦØ¹ÙĤÙĦ": 69849,
  "ĠÙĪÙĤØµØµ": 28575,
  "Ġbromeliads": 75282,
  "ØªØ¨ØªÙĬÙĨ": 81285,
  "Ø§ÙĦÙĥÙĪÙĨØºØ±Ø³": 94386,
  "Ġspikes": 44771,
  "ĠØ§ÙĦØ¬ÙĪÙĩØ±ÙĬ": 46902,
  "ĠØ§ÙĦÙħØ³ØªÙĨØ¯": 44734,
  "ĠØ§ÙģÙĥØª": 50311,
  "ĠÙĬØ¹Ø¯": 12177,
  "wagen": 31236,
  "ĠOpportunity": 52240,
  "ĠØ¨ÙħÙĪÙĤÙģÙĩ": 57699,
  "ĠÙĪØ§ÙĦØ¹Ø·Ø´": 58039,
  "ĠØ§ÙĦØ´ÙĨØ·Ø©": 73331,
  "uca": 68221,
  "baulk": 76505,
  "ĠØ§ÙĦØ¶Ø±Ø¨Ø§Øª": 93247,
  "Mitosis": 31086,
  "ÙĤØ¯Ø±": 22052,
  "ÙĩØ¯": 1868,
  "Ġmother": 14860,
  "ĠØ±ÙĬÙĬØ³ÙĬ": 4763,
  "ĠÙĪØªÙĨØ³ÙĬÙĤ": 20257,
  "ĠØ§ÙĦÙĩÙĪÙĦ": 12185,
  "ĠÙĪØ§ÙĦØ§ÙĨØªØ®Ø§Ø¨Ø§Øª": 58450,
  "ĠØ§ÙĦØ²ÙĦØ§Ø¬Ø§Øª": 74718,
  "ÙĤØ·": 2953,
  "ĠStrait": 33117,
  "ĠMammatus": 98228,
  "Ġ98": 45878,
  "ÙĪØ²Ø§": 85376,
  "ĠØ§ÙĦØ¬Ø²Ø§ÙĬØ±ÙĬØ©": 61645,
  "Ġthermal": 14758,
  "ĠÙĪØ³Ø±ÙĬØ©": 45050,
  "ĠØ§ÙĦØªØ¨Ø³ÙĬØ·ÙĬ": 87616,
  "itian": 78483,
  "Ġkiller": 81988,
  "ĠØ§ÙĦÙħÙĩÙĨ": 50966,
  "ĠFlooding": 71777,
  "riptych": 69910,
  "ĠÙĪÙĤÙĬØ§ÙħØªÙĩ": 99428,
  "ĠØ§Ø¨ÙĦ": 16049,
  "ĠTimely": 30947,
  "Lynx": 74443,
  "ĠPenitent": 61522,
  "ĠØ§ÙĦØ«Ø¹ÙĦØ¨": 82651,
  "ĠØ§ÙĦÙĪØ¬ÙĪÙĩ": 23776,
  "Ø§ÙĦÙĨÙĤ": 18909,
  "ĠChrysler": 63625,
  "ĠÙģØ±Ø§ÙĬØ³": 84188,
  "ĠØ§ÙĦØ§ØŃÙĥØ§Ùħ": 11824,
  "ĠRight": 26802,
  "Ġtensile": 24928,
  "ĠØ´Ø¯": 43875,
  "Ø§ÙĦØ§ÙĤØ§ÙħØ©": 72742,
  "Ġresour": 2840,
  "ĠÙĪØ§ÙĦØ¨ÙĬØªÙĬÙĨ": 90665,
  "900": 75884,
  "ĠØ¨Ø§ØªØ±ÙĬØ³": 91092,
  "role": 28011,
  "ĠBoo": 82174,
  "BP": 53701,
  "ĠØ§ÙĦØ³ÙĬÙĨØ§Ø±ÙĬÙĪÙĩØ§Øª": 41578,
  "ĠÙĪÙĨØ§Ø®Ø¯": 44874,
  "aid": 7192,
  "Ġuniverse": 3177,
  "Violin": 75082,
  "natural": 13695,
  "Ġtrade": 3155,
  "Ġolives": 72531,
  "iation": 3045,
  "ĠÙħØªØ¬ÙĪÙĦ": 15770,
  "fuel": 76580,
  "ĠØ§Ø³ØªØºØ±ÙĤØªÙĩ": 100400,
  "ĠØ§ÙĦØ§ØŃÙħØ±": 4631,
  "Ġcourt": 4793,
  "Ġshells": 21930,
  "Mus": 31170,
  "beth": 35946,
  "Ġcastles": 52347,
  "Ġprayers": 39017,
  "ĠÙĪØŃØ±Ø§Ø±ÙĬ": 73729,
  "Ġrhyth": 11718,
  "ĠÙĪØ§ÙĦØ¬ÙĬÙĪÙĦÙĪØ¬ÙĬØ§": 97607,
  "ĠØ§ÙĦÙħØ³ØªØºØ±ÙĤ": 67901,
  "ĠØ§ÙĬÙĦØ§Ø³": 82044,
  "ĠØ¨ÙĤÙĦÙħ": 62845,
  "ĠØ§ÙĦØ¨Ø±ÙħØ¬ÙĬØ§Øª": 7429,
  "ĠÙĦÙĦØ²": 10235,
  "Ø¨ÙĪØ³ÙĬØ¯ÙĪÙĨ": 58881,
  "aurum": 69318,
  "ĠØ§ÙģØ¹Ø§ÙĦÙĨØ§": 26031,
  "ÙĪØ³ÙĬ": 4227,
  "Ġupdate": 38654,
  "Ø¹ÙĪ": 39373,
  "factor": 42282,
  "ĠØ§ÙĦØ§ØºÙģØ§ÙĦ": 69570,
  "ĠØ§ÙĤØ¯Ø§ÙħÙĩ": 94892,
  "ĠÙĪØ§ÙĦÙħØ°ÙĩØ¨Ø©": 100052,
  "ĠØ¨Ø²Ø±Ø§Ø¹Ø©": 77577,
  "ĠØ§ÙĨØ²ÙĬØ§ØŃ": 94683,
  "cence": 48091,
  "ĠØ²ÙĪØ³ØªØ§Ùĥ": 99948,
  "ÙħØ§Ø±Ø§": 84001,
  "odd": 36711,
  "umps": 17236,
  "Seeking": 75074,
  "ĠØ³Ø§ÙĦÙĬ": 79904,
  "Ġwastewater": 51850,
  "Sally": 53887,
  "ĠØ§ÙĦØ§Ø³ØªØ¹": 6698,
  "ĠØ§ÙĦÙĤÙĪÙĦ": 26632,
  "Ġhypot": 6938,
  "âģº)": 92995,
  "ĠØ´ÙĩØ±Øª": 24804,
  "Ġspent": 32098,
  "Ġweather": 4695,
  "ĠRosh": 72140,
  "Ø§ÙĦØ§ÙħØ¨Ø§Ø³ØªÙĪ": 90795,
  "ĠBal": 16396,
  "ĠÙĥÙĦÙĩ": 4784,
  "Ġpredatory": 51174,
  "cour": 26310,
  "ĠÙħØ¨ØªØ¯ÙĬ": 68111,
  "vert": 7337,
  "Ġ1906": 71095,
  "Ġmet": 1575,
  "ĠGener": 21861,
  "Ġcontemporaries": 93573,
  "ĠØ§ÙĦÙĥÙĦÙĪØ±ÙĪÙģÙĬÙĦ": 20430,
  "ĠØ¨ØªØ¹ÙĦÙĬÙĤÙĩ": 62640,
  "Ġfainter": 63407,
  "Ġdirects": 86185,
  "ĠRevolution": 12249,
  "ĠÙĦÙĦÙĩØ§ÙħØ³ØªØ±": 75512,
  "ĠØ§ÙĦØ¯ÙĪÙĦØ©": 3822,
  "ØªØŃ": 519,
  "Ġefficacy": 34931,
  "ĠColor": 21028,
  "ÙĪÙħØ©": 5346,
  "ĠÙĨØ§ÙĨ": 55154,
  "Ġreciprocal": 26187,
  "Ġcobal": 82785,
  "Ġvictorious": 99958,
  "Ġrandom": 16405,
  "ĠØ®Ø³Ø±": 34020,
  "ĠÙĪØ§ÙĦØª": 1332,
  "kens": 33448,
  "Ġnegotiations": 35727,
  "Ġbrew": 33763,
  "ĠØ§ÙĦØ§Ø¨Ø·ÙĬØ©": 85238,
  "independent": 44855,
  "Ġ68": 30487,
  "ĠØ§ÙĦÙĤØ§ÙĨÙĪÙĨ": 1244,
  "ĠØ§ÙĦØ¯ÙĬØ¬ÙĬØªØ§ÙĦÙĬØ³": 63649,
  "ĠØ§ÙĦØ¹Ùģ": 29737,
  "Ø§ÙĦØªØŃÙħÙĬÙĦ": 90026,
  "ĠÙħØ´ØªØ¨Ùĩ": 81783,
  "ĠØ§ÙĦÙħØµÙģÙĪÙģØ§Øª": 31130,
  "ĠÙĦØªØ´ØªØª": 90038,
  "ĠÙĪÙĥÙħÙĬØ§Øª": 68665,
  "Ø§ÙĦØŃÙħØ¶": 50397,
  "ÙĪØ³ÙĪØ³": 44069,
  "ĠØ§ÙĦØ¨ÙĪØ¯Ø±Ø©": 62281,
  "indu": 6107,
  "gal": 48122,
  "ĠÙĪØ§ÙĦØªÙĦØ§Ø¹Ø¨": 19771,
  "Ø§ÙĦØ¬Ø³Ø¯ÙĬ": 86180,
  "stand": 1556,
  "ÙĥØ§ÙĦØŃ": 77306,
  "ĠØ§ÙĦØªÙĪ": 1776,
  "ĠÙĤØ±Ø¨Ùĩ": 52548,
  "ÙĨÙĬÙģØ§Øª": 81221,
  "ĠØ±ÙĬØ¬ÙĬÙĪ": 57512,
  "ØŃÙĬØ§ÙĨ": 67574,
  "Ġfurniture": 39018,
  "ĠÙĪØªØ¹Ø§Ø·ÙģÙĩ": 86552,
  "anal": 65196,
  "ĠCrunch": 61179,
  "Ø§ÙĦÙĦÙħØ¹Ø§ÙĨ": 54226,
  "Ġblueshift": 96105,
  "Ġmeeting": 22453,
  "Ġstron": 18234,
  "ĠÙħÙĦÙĬØ§ÙĨ": 27306,
  "ĠÙĪØªØªØ±": 34024,
  "oset": 80592,
  "ĠÙĨØ§ÙħÙĥÙĪ": 95571,
  "ĠØŃÙĥÙĪÙħØ§Øª": 41772,
  "ĠØ³ÙĨÙĪÙĬØ§": 41427,
  "Ġsystem": 999,
  "oamer": 42875,
  "Ġsupport": 3076,
  "Ġarguing": 18538,
  "Ġfulfills": 94272,
  "Ġeigenstates": 95187,
  "Ġborrow": 13485,
  "ĠGian": 49696,
  "ĠØªØ±ÙĬÙĨÙĬØ¯Ø§Ø¯": 39004,
  "ØªØ±ÙĬÙħÙĪØ±ØªÙĬ": 87745,
  "ĠÙĪØ§ÙĦØŃØ§ÙĨ": 84953,
  "Ġprospect": 93744,
  "ĠÙĬØªØ¹ÙĦÙħÙĪÙĨ": 60655,
  "ĠØ§ÙĦØ¯ÙĩÙĪØ±": 81146,
  "Ø§ÙĦØ±ÙĪ": 7718,
  "Ø§ÙģØ§": 10721,
  "ĠÙĪØ§ÙĨØ¬Ø±ÙĬØ¯": 85516,
  "ĠØ§ÙĦÙħØ²ÙĬÙĨØ©": 87548,
  "rets": 48441,
  "ĠØ§ÙĦÙħÙĪÙĤØ¹": 3725,
  "ĠÙĬÙĪÙĦÙĬÙĪ": 34378,
  "ĠØ§Ø¯Ø¨": 37154,
  "ØªÙĪÙħØ§Ø³": 35683,
  "Ġbreakdown": 12475,
  "ĠØ¨ÙĬÙħØ²Ø¬": 19310,
  "Ġdisagree": 63062,
  "ĠØ¯Ø§ÙħÙĬØ§ÙĨ": 99640,
  "ĠØ¨ÙĦÙĪÙģØ±": 84403,
  "ĠØ§ÙħØ±Ø§Ø¶": 15739,
  "ĠØ§Ø¬ÙĨØ¯Ø©": 62067,
  "ĠØ²ÙĪØ§ÙĬØ§": 20015,
  "Ġblade": 57879,
  "ĠØ¨ÙĬØºÙĬØ±": 17147,
  "Ġprof": 3758,
  "ĠØ§ÙĪØ²Ø¨": 36431,
  "ĠØ§ÙĦØ´Ø±ÙĬØ·": 12801,
  "Ø§ÙĦØ±ÙĪÙħØ§ÙĨØ³ÙĬØ©": 18550,
  "Ġsophisticated": 23881,
  "ĠØªØ®ÙĦØµÙĩØ§": 94659,
  "ĠÙĦÙĪØ³": 11571,
  "ĠÙĨÙĤØ§Ø¨Ø©": 40807,
  "Ġinstitution": 6618,
  "ĠÙĨØ§ÙĬØ¨ÙĪÙĦ": 98111,
  "ĠÙĦÙĦØ§Ø¹Ø¶Ø§Ø¡": 41615,
  "ĠØ§ÙĬÙģØ±Ø³Øª": 23873,
  "perture": 14937,
  "ĠØ¯ÙĬÙĨØ§ØµÙĪØ±Ø§Øª": 19632,
  "ĠÙĥÙĩØ±ÙĪÙĥÙĬÙħÙĬØ§ÙĬÙĬØ©": 99081,
  "aporization": 71122,
  "Ġdiagn": 28999,
  "ingway": 43373,
  "ĠØ¨ØªÙĦØ¹Ø¨": 6902,
  "Ø§ÙĦØªØ¶Ø§Ø±ÙĬØ³": 84948,
  "ĠØ§ÙĦØºÙĦØ§Ùģ": 2777,
  "Ġmiss": 29714,
  "ĠØ®Ø§ÙħØ§Øª": 18252,
  "ĠØŃÙĤÙĨØ©": 89216,
  "ÙĤÙĩ": 29536,
  "Consum": 52906,
  "Financial": 51581,
  "ĠÙĦÙĨØµ": 68943,
  "Ø¨ÙĥØ©": 2113,
  "museum": 76704,
  "ĠMinerva": 93235,
  "ĠÙħÙĥØ´ÙĪÙģÙĬÙĨ": 100465,
  "ĠÙģÙĦÙĥÙĨØ©": 25996,
  "ĠØ§ØªÙĩÙħÙĪØ§": 96917,
  "ĠØ¨ØªØ³ÙĨØ¯": 41319,
  "ĠAlberta": 94760,
  "Ġarmature": 47029,
  "Sociology": 3235,
  "Ø§ÙĦØµÙģØµØ§Ùģ": 97094,
  "Ġchromosphere": 52551,
  "Ø§ÙħÙĬÙħ": 14240,
  "ÙĥÙĬÙħÙĪÙĨÙĪ": 82994,
  "ĠÙĦÙĦØ§Ø²Ø¯ÙĩØ§Ø±": 93727,
  "Ġsericulture": 86461,
  "ĠØ¬Ø±ÙĬÙĬØ©": 23096,
  "ĠGodowsky": 89785,
  "ĠÙħØ¹ÙĩØ¯": 20665,
  "ĠØ¨ÙģØ±Øµ": 96199,
  "hena": 27043,
  "ĠÙĬØ«Ø¨ØªÙĪÙĩØ§": 73899,
  "LB": 13925,
  "ØªØ¬ÙħÙĬØ¹": 30058,
  "Ġsoaps": 82278,
  "Sidereal": 97060,
  "Ġpulls": 61462,
  "ĠÙģØ§ÙĦÙĨØªÙĬÙĨÙĪ": 61729,
  "Carbon": 18066,
  "ĠØ¸ÙĦÙĬ": 86140,
  "ĠØ§ÙĬÙħØ§Ø¡Ø§Øª": 66966,
  "ĠÙĪØ§ÙĦØ§ÙĨÙĤØ³Ø§Ùħ": 41028,
  "Ø§ÙĦÙĥÙĪÙĥ": 37758,
  "ĠØ§ÙĦØªØ¬ÙħÙĬØ¹": 10778,
  "ĠGraham": 35706,
  "ĠÙĪÙģØ±ÙĪØ¹": 50908,
  "steen": 49010,
  "ĠØ¨ØªØ§Ø¬Ø±": 79314,
  "ĠÙĪØ¨Ø§ÙĦÙĦÙĬÙĦ": 88654,
  "ĠÙĪØ§ÙĦØªØ±ØªÙĬØ¨Ø§Øª": 37843,
  "aut": 4938,
  "Ġtravelers": 28965,
  "Ø®ÙĬÙģØ©": 89296,
  "ĠØ§ÙĦØªÙĦÙĪÙĨ": 59031,
  "Ġoppressive": 53285,
  "charted": 66085,
  "ĠThorn": 83149,
  "ĠÙĪØªØŃØ·": 57995,
  "ĠØ§ÙĨØ¬ÙĦÙĪ": 16593,
  "ĠBrotherhood": 73991,
  "ukopen": 60718,
  "ĠÙĦÙĪØ³ÙĬ": 40586,
  "ĠØ³ÙĪÙģ": 39859,
  "Ganymede": 76093,
  "ĠÙĦÙĦØ¹Ø§Ùħ": 69213,
  "Ġlandforms": 87649,
  "ØŃÙĤÙĤØª": 77793,
  "Ø§ØŃÙĬØ§Øª": 19375,
  "Ø§ÙĦØ¹Ø¯ÙĬØ¯": 32270,
  "Ġphilosopher": 11184,
  "ĠÙĪÙĬØªÙģØ§Ø¹ÙĦ": 28417,
  "Silverthorne": 74594,
  "ĠØ¨ÙĤØ§Ø¡": 17856,
  "Ġscriptures": 38210,
  "ÙĥÙĪØ¨": 5707,
  "ptych": 40181,
  "Ġideogram": 87324,
  "ĠEquations": 72462,
  "ĠÙĪØ§ÙĦÙĨØŃØ§Ø³": 45061,
  "Metal": 35911,
  "ĠØ§ÙĦÙĥÙĪ": 43725,
  "ĠØ¨ÙĬØ¸Ø¨Ø·": 48808,
  "amacare": 99746,
  "ĠØ¨ÙĬØ¹Ø§ÙĨÙĬ": 45098,
  "ĠØ§ÙĦÙħØ³ÙĥÙĨ": 57048,
  "ĠØªØªØŃÙĪÙĦ": 11402,
  "ĠÙĪØ§ÙĦÙħÙĪØ³ÙĬÙĤÙĬØ©": 37775,
  "Ġvig": 66529,
  "ĠØ¨ÙĬØ¨Ø·ÙĬ": 79260,
  "ĠÙĦÙħÙĨØªØ¬": 19695,
  "ĠØ¨ÙĬÙħØªÙĦÙĥ": 26013,
  "ĠÙĦÙĦÙħØ³ØªÙĤØ¨ÙĦ": 38220,
  "ÙģÙĬØ´Ø±": 29891,
  "Ġblanching": 85176,
  "ÙĨÙĬÙĩ": 12816,
  "ellow": 17294,
  "Ġchip": 67097,
  "Ø§ÙĦØ§ÙĨÙĤØ³Ø§Ùħ": 28786,
  "iman": 49086,
  "Ġrapid": 5741,
  "ÙħÙĬØ§": 18221,
  "ÙĬÙĨÙĬØ©": 2424,
  "ĠÙĪÙĬØ±ÙĥØ²": 22722,
  "chi": 14277,
  "ĠØ§ÙĦØªØ®ÙĦØµ": 23037,
  "Ġflights": 86334,
  "Habitat": 8451,
  "iod": 1867,
  "averse": 34180,
  "higher": 76634,
  "ĠÙĪØ§ÙĥØ«Ø±ÙĩØ§": 23647,
  "Yggdrasil": 53951,
  "Ġgigabits": 66051,
  "ÙĩÙĬØ¯ÙĬ": 81052,
  "Ġnonverbal": 51480,
  "Ø³ÙħØ©": 8209,
  "ĠÙĪØ§ÙĦØ§ÙħØ±ÙĬÙĥÙĬØ©": 89392,
  "ĠØ±ÙĬÙĬØ³ÙĬÙĬÙĨ": 51374,
  "ĠØŃØ§ÙĦØ©": 2566,
  "ĠÙĪÙĬØ³Øª": 7620,
  "ĠØ¨ÙĬØªØºÙĨÙī": 83847,
  "Ġcredible": 69383,
  "ĠØ´Ø¹Ø¨ÙĬØ©": 13019,
  "Ø¨ÙĬØ±ÙĬ": 13041,
  "ĠPaleolithic": 52636,
  "ĠÙĦØªÙĦØ§ØªØ©": 97463,
  "ĠÙħÙĬÙĦÙĬÙĨØ¬ØªÙĪÙĨ": 100383,
  "ĠÙĪØ±Ø¨Ø·ÙĩØ§": 73312,
  "ĠØªÙĥÙĦÙħ": 39523,
  "ĠØŃÙĬÙĨ": 3644,
  "ĠØ§ÙĦØ¬ÙģØ§Ùģ": 11603,
  "ĠØ§ÙħØ¨Ø§ÙĬØ±": 57366,
  "ĠHampton": 72714,
  "irie": 49217,
  "ÙĨÙĬØ§Ø¡": 24261,
  "Ġmisdemean": 41648,
  "Ġcourts": 12065,
  "ĠØ§ÙĦØ¯ÙĬÙĨØ§ÙħÙĬÙĥÙĬØ§Øª": 59863,
  "Ġamulet": 50602,
  "NUS": 64031,
  "ĠØ¨Ø±ÙĨØ§ÙħØ¬Ø§": 88567,
  "ĠMan": 4840,
  "ĠØ§ÙĦØ§ÙĥØ±Ø³ØªÙĬÙĥÙĬØ©": 63252,
  "ĠÙĪØ§ÙĦØ§Ø¹ÙĦØ§ÙħÙĬÙĬÙĨ": 93106,
  "ĠÙĪØªÙĪØ³Ø¹": 34032,
  "ĠØ§ÙĦÙĥÙĩØ±ÙĪØ³ØªØ§ØªÙĬÙĥÙĬ": 33185,
  "ughts": 67620,
  "ĠÙħØªØ²Ø§ÙĬØ¯Ø©": 50310,
  "Ġpaleomagnetism": 94269,
  "Ġreciprocity": 29267,
  "Ø³Ø§Ø³ÙĬØ©": 20540,
  "Ø§ÙĨØ³ÙĦ": 32568,
  "Hamb": 76124,
  "Smoking": 94502,
  "Ġtrem": 34905,
  "ĠTransformers": 90520,
  "ĠØ¨ØªÙĤØ¯Ùħ": 10449,
  "Ġantioxidant": 33262,
  "BOL": 29413,
  "ĠÙĦØ§ÙĥØ«Ø±": 24704,
  "ĠØ§ÙĦØ³ÙĦÙħÙĬØ©": 73692,
  "ĠØ§ÙĦØ§Ø±Ø¬ÙĨØªÙĬÙĨÙĪØµÙĪØ±": 51979,
  "Kevin": 42727,
  "ĠØ§ÙĦØ¹Ø§ÙĬÙĦØ§Øª": 22172,
  "ĠBry": 82165,
  "ĠÙĦÙĦÙĬÙĪØºØ§": 99482,
  "ĠØ§ÙĦÙĦÙī": 8806,
  "Ġut": 8974,
  "ĠØ¯ÙĨÙħØ§Ø±ÙĥÙĬ": 38844,
  "Ġtrilogy": 29353,
  "ĠÙĬÙĤØ¶ÙĬÙĩ": 85359,
  "ÙĤÙĬÙģØ©": 49445,
  "Ø¨Ø°ÙĪØ±": 64730,
  "Ø§ÙĦØŃÙĤØ¨Ø©": 85050,
  "ØªØ¶Ø®Ùħ": 77235,
  "ª": 107,
  "ĠØ¨ÙĬØªÙĤØ§ÙĦ": 4397,
  "ĠØ¨ØµÙħØ§Øª": 59249,
  "ĠØ§ÙĦØ§ÙĪÙĦÙħ": 7826,
  "Ø§ÙĦÙħØ¯ÙħØ±": 43930,
  "Ø¨ØªØªØ¹Ø±Ùģ": 86397,
  "Ġprogram": 5340,
  "ĠÙĬØªØ®ØµØµ": 94277,
  "ĠÙĪØ§ÙĦÙħÙĬØ²Ø©": 78643,
  "ĠÙĦØ«ÙħØ±Ø©": 95536,
  "ĠÙģÙĩØ°Ø§": 39489,
  "Ġmathematicians": 45976,
  "ĠØ¬ÙĬÙĪÙĦÙĪØ¬ÙĬØ§": 6395,
  "ĠØªØ¬ÙħÙĬØ¹": 9855,
  "ĠÙĪÙħÙģØªÙĪØŃ": 60860,
  "ĠØ¹Ø²Ø±Ø§": 77996,
  "ĠØ§ÙĦÙĤØ¶Ø§Ø¡": 25353,
  "ĠØ§ÙĦØ§ØŃØªØ¬": 16841,
  "ĠÙĨÙĪÙģ": 18722,
  "Ġpromote": 5492,
  "ĠÙĪØ§ÙĦØªÙĦÙĤÙĬØŃ": 92617,
  "Ġfre": 3088,
  "ĠØ§ÙĦØ§Ø¨Ø¯Ø§ÙĦ": 85237,
  "Ø¯Ø§Ø¹ÙĬ": 48321,
  "Ġtest": 6007,
  "ĠÙĪÙħÙĪÙģØ±Ø©": 81858,
  "ĠØ¨ÙĬØ¹ÙħÙĦÙĩØ§": 16937,
  "ĠÙĦØ®ÙĦÙĬØ©": 78206,
  "ĠÙĪØ§ÙĦØ¬Ø§Ø¨Ø±ÙĪ": 86103,
  "akey": 26838,
  "ÙĩØ§Ø±Ø¯": 77260,
  "ĠØ¯ÙĪØ±ÙĪ": 83365,
  "ĠØ¨ÙĩØ·ÙĪÙĦ": 45552,
  "Ø§ÙĦØ§ÙĨÙĬ": 76993,
  "Ø§ÙĦÙĨØŃØª": 14070,
  "speed": 32859,
  "Ġsubstantive": 52819,
  "ĠÙĩÙĪØª": 55051,
  "ĠØ§ÙĦØ±Ø§ÙĩØ¨": 62380,
  "ĠØ§ÙĦØ¯ÙģØ§Ø¹Ø§Øª": 90380,
  "Ġmobilize": 42405,
  "Ø¬Ø¯ÙĬØ©": 7259,
  "Ġloads": 11166,
  "ĠÙĪÙĥÙĪÙĦÙĪÙħØ¨ÙĬØ§": 100368,
  "ĠØ§ÙĦØªÙĪØ¨": 78877,
  "Ġstent": 80364,
  "ĠØ§ÙĦÙĬÙĪÙĨÙĬ": 83240,
  "ĠØ§ÙĦØªØ¶Ø®ÙħÙĬØ©": 47731,
  "ĠKannada": 63605,
  "ĠÙĪØ§ÙĦØ±ÙĬØ°Ùħ": 95797,
  "ĠØ§ÙĦÙħØ§ØªØ±ÙĩÙĪØ±ÙĨ": 75443,
  "ĠØ§ÙĦØ§ØºØ§ÙĨÙĬ": 11686,
  "ĠÙĦØ¬ÙĪØ§ÙĬØ²": 32378,
  "ĠÙĪØ§ÙĦØªØ·ÙĪÙĬØ±": 21629,
  "Ġgradu": 8086,
  "ĠÙĦÙĦÙħÙħÙĦÙĥØ©": 40574,
  "Ġtraining": 10636,
  "ĠPortal": 35493,
  "Evaluating": 76049,
  "Ġerected": 62705,
  "iano": 26957,
  "41": 23906,
  "ĠØ§ÙĦØ±ÙĤÙħÙĬÙĨ": 34718,
  "ĠÙĪØ§ÙĦÙħØ¬Ø§Ø¹Ø©": 81943,
  "Ġaction": 5598,
  "Ø§ÙĦØ§Ø¶ÙĦØ§Ø¹": 77070,
  "ĠÙĪØ§Ø´Ø®Ø§Øµ": 88885,
  "Ø¨ÙĬØ±ÙĪØ³": 44175,
  "ĠØ§ÙĦØªÙĪÙĨ": 36336,
  "ĠEn": 4671,
  "Mary": 21997,
  "gra": 26316,
  "ĠÙĪØ§ÙĦÙĥÙĪØ§Ø±Ø«": 78721,
  "ØªØ±Ø§ÙĨÙĬÙħ": 80030,
  "ĠÙĪÙħØ§Ø±Ø§": 81833,
  "ĠØ¨Ø§ÙĪÙĩØ§ÙĪØ³": 39414,
  "Ø«ÙĤØ§ÙģØ§Øª": 28792,
  "ĠÙĪØªÙħÙĪØª": 59638,
  "Ġunrest": 25586,
  "ĠØ§ÙĦØ¶ÙĪÙĬÙĬ": 4979,
  "ĠØ¨ÙĨØŃØ¯Ø¯": 51636,
  "Ġpacked": 52371,
  "ĠØ´ÙģØ§ÙĬØªØ²Ø±": 92214,
  "ĠÙĪØ¬Ø±Ø§ÙĬÙħ": 50220,
  "Kentaro": 75328,
  "ÙĬØ³ÙĪØ³": 28488,
  "ymns": 32268,
  "ĠÙĥØ¨ÙĬ": 39644,
  "degree": 53301,
  "Ø§ÙĦØ¯Ø±": 22926,
  "Ø§ÙĦÙħØ±Ø§Ø¬": 40004,
  "Ġwhat": 2331,
  "ĠØ§ÙĦÙħØŃÙĬØ·Ø§Øª": 6043,
  "ĠÙĨØŃÙĪÙĬØ©": 18982,
  "ÙĨØ³ÙĬØ¬": 22932,
  "ĠØ¨Ø®Ø·ÙĪØ©": 47073,
  "Ø§ÙĦØ§Ø°ÙĨ": 64618,
  "Ġosmosis": 78035,
  "ĠÙħÙĤØ¯Ø³Ø§": 91723,
  "ĠApp": 18502,
  "indrop": 23383,
  "ĠEffect": 14030,
  "ĠÙĦÙĦØªÙĬØ±Ø§ÙĨÙĪØµÙĪØ±": 86749,
  "Ø·Ø´": 54627,
  "folio": 27647,
  "ĠØ§ÙĦØ¹Ø¯Ø§Ø¯": 41066,
  "Ø§ÙĦÙħÙĪØ¬Ø§Øª": 29862,
  "Biodiversity": 35881,
  "ĠÙĪÙĦØ§ÙĬØ©": 7106,
  "ĠØ§ÙĦÙħÙĦØŃÙĬ": 58277,
  "ĠÙĦÙĬÙĪÙĨ": 15617,
  "ĠÙħÙħØ«ÙĦ": 9923,
  "Ø§ÙĦØ³ØªØ±Ø§ØªÙĪØ³ÙģÙĬØ±": 63129,
  "ĠØ§ÙĦØ²ÙĨ": 44613,
  "ĠÙħØ²Ø¯ÙĪØ¬Ø©": 25922,
  "Ġnaked": 55710,
  "Ġreadership": 71109,
  "Ġaltruistic": 47205,
  "Paradise": 72117,
  "astics": 23321,
  "ĠÙħØ¹ÙĨÙĪÙĬØ§Øª": 42150,
  "ĠÙģØªÙĬÙĦØ©": 77964,
  "ĠØ¨ÙĬØ´ØªÙĩØ±": 25271,
  "Ġhominin": 73695,
  "ĠÙĪØªØ®ÙĦÙĬÙĤ": 61079,
  "ĠÙĦÙĦØ¨ÙĬØ¹": 65762,
  "ĠÙĪØ§ÙĦØ§ÙĤÙĦ": 88825,
  "Ø§Ø¯Øª": 43490,
  "ÙĨÙĬØªÙĩØ§": 40094,
  "ĠEstabl": 72554,
  "Ġdevelopers": 11125,
  "ĠÙħØ¯Ø§Ø±Ùĥ": 84516,
  "Ġexecutable": 41831,
  "ĠCases": 10561,
  "ĠÙĦØŃØ¸Ø±": 68486,
  "ĠØ§ÙĦÙħØ±ÙĪØ±ÙĬ": 40542,
  "ĠÙĤÙħ": 19964,
  "ĠØ§ÙĦØµÙĦØ§Ø¨Ø©": 28904,
  "ÙħØ¹Ø±Ø¶": 50518,
  "ĠÙħØ´Ø¨": 81779,
  "Oscar": 25043,
  "ĠÙĪØ§ÙĦÙħØ´ØºÙĦØ§Øª": 89829,
  "Ø§ÙĦØ§Ø®": 6252,
  "ĠRevival": 24622,
  "ĠBono": 82186,
  "osh": 28209,
  "Ġpapyrus": 74043,
  "Ø§ÙĬØ§ÙĨØ§": 43273,
  "ĠØ³ÙĨØ¯Ø§ÙĨ": 62197,
  "ĠØ¨ÙĪØ§Ø¬Ø¨Ø§ØªÙĩÙħ": 100410,
  "ĠÙħØ¶ÙĬÙģ": 51299,
  "Ġdestroying": 75011,
  "base": 33425,
  "Ġbrief": 33764,
  "ĠTwo": 36852,
  "ÙĪÙĦÙĪØ¬ÙĬ": 2659,
  "ÙĪÙĬÙĪØ±Ùĥ": 6326,
  "ĠØ§ÙĦÙģÙĤØ§Ø¹Ø©": 59834,
  "Ġlever": 25534,
  "Ø§ÙĦØ´ÙĪÙĥÙĪÙĦØ§ØªØ©": 69373,
  "ĠØ§ÙĦÙħØ§ØªØ±ÙĬÙĥØ³": 43164,
  "ĠEFEF": 35638,
  "ĠØªØŃÙĤÙĬÙĤÙĩ": 41509,
  "Ø±ÙĬØ·Ø©": 7798,
  "ĠØ¨ØªØ±Ø¨ÙĬØ©": 79301,
  "ĠØ³ÙĬØ±ÙĨÙĪÙĨ": 60295,
  "ĠÙĪØ§ÙĦØªØ³Ø§Ùħ": 57829,
  "ĠØ§ÙĦØ§Ø·ÙĦ": 9040,
  "Ø¨ØªØŃØ³ÙĨ": 98614,
  "ØŃØ§Ø¨": 6496,
  "ĠØªØŃØ±Ø³": 56510,
  "ĠØ§ÙħÙĪØ³": 84014,
  "ĠØ§ÙĦØ¯Ø§ÙĬØ±Ø©": 6376,
  "ĠÙĬÙħÙĦØ§": 26478,
  "ĠÙĬØªØªØ¨Ø¹": 37173,
  "ĠØ§ÙĦØ¨ØŃØ±ÙĬ": 14391,
  "ĠØ§ÙĦÙħØªÙĤØ§Ø·Ø¹Ø©": 70506,
  "ÙĬØ¹ØªØ¨Ø±": 7519,
  "Ġwav": 16717,
  "ĠBrain": 82168,
  "Ind": 6835,
  "ĠÙĦÙĦØ¹ÙĤÙħ": 86568,
  "ĠØ§ÙĦØ¨Ø¹ÙĬØ¯Ø©": 12346,
  "Koh": 76164,
  "ĠNational": 9224,
  "ĠØ³ÙģØ§Ø±ÙĬ": 65943,
  "ĠØ§ÙĦØ³ØŃØ§Ø¨ÙĬ": 17398,
  "ĠVehic": 25694,
  "ĠØ§ÙĦØ§ÙĬØ«Ø±ÙĨØª": 68522,
  "ĠÙĪØ¨ØªØŃØ¨": 91542,
  "ĠÙĦÙĦØ¯ÙĬÙĨØ§ØµÙĪØ±Ø§Øª": 19159,
  "ĠØ§ÙĦØªÙĬØ´ÙĬØ±ØªØ§Øª": 49484,
  "ĠÙħØµØ±": 5267,
  "Feel": 95121,
  "ĠØ¨ÙĦ": 1125,
  "ĠØ§ÙĦØ¨ÙĬØªÙĪÙħÙĬÙĨ": 60240,
  "rilateration": 92775,
  "ĠØ¨Ø¯ÙĬÙĦØ©": 15856,
  "Ġpillow": 73787,
  "Ø§ÙĦØ±ÙĪÙħÙĬ": 90748,
  "tiary": 76822,
  "house": 4823,
  "ĠBalkans": 98251,
  "esp": 6360,
  "Ġapparent": 15344,
  "ĠDespite": 63053,
  "Ġcoast": 8499,
  "Ø´ÙĨØ·Ø©": 90178,
  "ĠØ§ÙĨÙĥØ§Ø±Ùĩ": 99678,
  "ĠÙĪØ±Ø¬ÙĦ": 48406,
  "ĠÙĪØ§ÙĦÙħØ¬": 19430,
  "Ġdemanding": 46369,
  "Ø§ÙĦÙħÙģÙĪ": 80648,
  "ĠØ§ÙĦÙģØ±ÙĤ": 1566,
  "Ġignore": 92193,
  "cephal": 49035,
  "ĠÙĪØªØŃÙħÙĦ": 24504,
  "Ġcontin": 3778,
  "Ġ1897": 46947,
  "blockers": 74414,
  "ĠÙĪÙħÙĥØ§ÙģØ§Øª": 61368,
  "ĠØ§ÙĦÙħØªØ³Ø§ÙĤØ·Ø©": 46296,
  "ĠÎ±": 71993,
  "Ø§Ø·Ùģ": 4668,
  "Stat": 50771,
  "ĠØ§ÙĦØ§ØºØ±ÙĬÙĤÙĬØ©": 41161,
  "Ø¨Ø¯Ø§": 2449,
  "aris": 43407,
  "ĠÙĪÙĬØªÙĦÙĤÙī": 44484,
  "ĠØ§ÙĦØ¨Ø±ÙĪØªØ³ØªØ§ÙĨØª": 73434,
  "ĠØ§Ø®ØªÙģÙī": 63228,
  "Ġmanners": 68837,
  "Ġinappropriate": 35842,
  "ĠØ¨Ø§ÙĦÙĤØ¯Ùħ": 88331,
  "ĠÙĪØ§ÙĦÙħÙĪØ¶Ø¹ÙĬØ©": 81953,
  "Ø§ÙĦØ¬Ùħ": 76991,
  "ĠÙĪØ§ÙĦÙģÙĤØ¯Ø§ÙĨ": 50796,
  "ÙģÙĬÙĨÙĬØ³ÙĬØ§": 87810,
  "ĠÙĦØ¨Ø±ÙĤÙĪÙĤ": 94404,
  "ĠØ§ÙĦØ±ÙħØ²ÙĬØ©": 18544,
  "ĠØ§ÙĦØ¨ÙĬØ±Ø§ÙĨØ§": 61684,
  "ĠØªØ¹Ø±Ø¶ÙĩØ§": 52462,
  "ĠØ§Ø¯ÙĦÙħØ§ÙĨ": 83557,
  "Ġstormwater": 71890,
  "tintypes": 76827,
  "ĠÙĪØ§ÙĦØ³ÙĬØ§ØŃØ©": 51490,
  "Ġ1821": 72174,
  "ĠWend": 56784,
  "etude": 65960,
  "ulaines": 74684,
  "ĠMadison": 93752,
  "ÙĬØº": 27826,
  "Ġofficially": 16971,
  "ÙĪÙĨØ´Ùħ": 78992,
  "ÙĬØ§Ø®ØªØ²ÙĬ": 99322,
  "ĠØ®Ø·ÙĬØ±": 16890,
  "ĠScandinavian": 89153,
  "Ġimplement": 8414,
  "ĠÙĦÙĦÙģØ¹ÙĦ": 51248,
  "1834": 91129,
  "ĠØ§ÙĨØªØ§Ø¬": 3442,
  "Aurora": 75903,
  "TV": 18080,
  "ĠØ§ÙĦØ§ÙĨØ³ÙĬØ§Ø¨ÙĬ": 81438,
  "ĠØ´Ø±ØŃØªÙĦÙĥ": 92359,
  "ĠØ¨Ø¯Ø§ÙģØ¹": 69454,
  "Ø±ÙĪÙģØ§ØªÙĩØ§": 82701,
  "ĠØ¹ÙħØ§ÙĦØ©": 50932,
  "ĠÙĪØ§ÙĦÙħÙĦØ§ØŃØ¸Ø§Øª": 51737,
  "Ġhydrology": 88952,
  "Ø§ÙĦØŃØ¯ÙĬØ¯": 30265,
  "ĠØªØ¨Ø³ÙĬØ·": 41000,
  "pery": 82568,
  "ĠMid": 20044,
  "ĠÙħÙĨØ§ÙģØ³": 31483,
  "ĠØ¬Ø¨ÙĦÙĬØ©": 32584,
  "Southern": 47692,
  "ĠÙĪÙĬØ²Ø±Ø¹": 67393,
  "ĠÙĩÙĪØ§Ø±Ø¯": 19292,
  "ĠFuller": 62749,
  "ĠHunt": 67027,
  "ely": 1004,
  "ĠØ¹Ø§ÙĬØ²ÙĬÙĨÙĩ": 46651,
  "Ø¯ÙĩÙĪÙĨ": 29962,
  "ĠTreat": 26749,
  "ĠÙĦÙĦÙħØ¯ÙĬÙĨ": 50105,
  "ĠÙĦØ¬Ø§ÙħØ¹Ø©": 50880,
  "ĠØ§ÙĦØ³ÙĨØ³ÙĥØ±ÙĬØªÙĬØªÙĬÙĨ": 53359,
  "ĠÙħØªÙģÙĤØ¯Ø´": 91082,
  "ĠBaker": 82183,
  "Ø²ÙĩØ§": 78517,
  "Ġinflation": 13591,
  "ĠÙģÙĬØªØ²Ø¬ÙĬØ±Ø§ÙĦØ¯": 63394,
  "ĠØ§ÙĦØ¨ÙĦÙĪØº": 32937,
  "Ġtaboos": 94394,
  "ĠÙĥØ³ÙħØ§Ø¯": 99577,
  "ĠÙĦØ§Ø´Ø¨Ø§Ùĩ": 30880,
  "ĠÙģØ§Ø¶ÙĦ": 77942,
  "Ġsign": 1119,
  "Ġartificiality": 71418,
  "Leica": 71787,
  "ĠØ§ÙĦÙĦÙĪØ²": 21481,
  "ĠÙĪØ§ÙĦØ§Ø¶Ø·Ø±Ø§Ø¨Ø§Øª": 38609,
  "enstern": 43261,
  "ĠÙħØ³ØªØ®Ø¯ÙħØ©": 35476,
  "ĠEnigma": 70383,
  "ĠÙĬÙģØ¶ÙĦÙĪØ§": 35486,
  "ĠØ§ÙĦÙħØ·Ø±": 4181,
  "ĠØ§Ø·ÙĦØ§ÙĤÙĩØ§": 51660,
  "finder": 54008,
  "ĠÙĪØ§ÙĦØŃÙĪÙĥÙħØ©": 84973,
  "Ø§ÙĦÙĥØ±Ø¨ÙĪÙĩÙĬØ¯Ø±Ø§Øª": 37759,
  "Ø§ØŃØ¯Ø«": 49216,
  "ĠØ¹Ø´Ø¨ÙĬØ©": 54606,
  "ĠÙĦØ¯Ø®ÙĪÙĦ": 60430,
  "Ġprinted": 30683,
  "ĠØ¨ØªØªØ±Ø¬Ùħ": 60908,
  "Ġquadrupedal": 85417,
  "ÙģØ±Ø³ÙĬÙĦ": 56596,
  "rones": 25593,
  "IT": 15828,
  "ĠRussel": 91818,
  "ĠÙģÙĦÙĬØªÙĪØ§ÙĬ": 97468,
  "ĠØ§ÙĦÙħØ³ØªÙĩÙĦÙĥÙĪÙĨ": 37211,
  "ĠØ§ÙĦØªÙĥØ§ÙħÙĦ": 8848,
  "ĠPhoenix": 38802,
  "glacier": 60715,
  "MPG": 64008,
  "Ġdisco": 68770,
  "Tuba": 76410,
  "Constantine": 75000,
  "izon": 56175,
  "ĠØ³ÙĬØºØ±Ø§Ùħ": 84583,
  "Ġsecond": 5371,
  "ĠÙħØŃØ¯ÙĪØ¯Ø§": 88894,
  "ĠØ§ÙĦØ´Ø±ÙĪØ±": 51203,
  "Ø§Ø´ÙĬØ§Ø¡": 67170,
  "ĠBrouwer": 71210,
  "panel": 64416,
  "ĠØ¨Ø§ÙĦØºØ±ØºÙĪÙĦ": 99855,
  "PCR": 33399,
  "Ġcobalamin": 100175,
  "ĠÙĦØ§Ø¯Ø§Ø±Ø©": 12123,
  "ÙĬØ³ÙĬØ©": 1331,
  "ĠÙħÙĤØ§ÙĪÙħØ§": 84858,
  "Serious": 64139,
  "ĠØ¨ØªØŃØ³": 24478,
  "Ġtribes": 36099,
  "Ø§Ø³ÙĬØªÙĪ": 82965,
  "Ø§ÙĨÙĬØ´": 66723,
  "ĠØ±Ø§Ùĥ": 43955,
  "Ø§ÙĦØªÙĦØºØ±Ø§Ùģ": 71921,
  "Ġverification": 51826,
  "atoga": 77828,
  "ĠNation": 37070,
  "ĠØ§Ø±ÙĥØ§Ø¯ÙĬÙĪ": 83832,
  "ÙĬØ¨ÙĤÙī": 76972,
  "Biomathematics": 94929,
  "ĠÙĪÙħÙĥØªØ¸Ø©": 97710,
  "ĠÙĪØ°Ø±ØªÙĬÙĨ": 42562,
  "Ø§Ø®ØªÙĬØ§Ø±": 25452,
  "Ø±ÙĪÙĨ": 12521,
  "ĠØªÙĨØ³ÙĬÙĤ": 13586,
  "ĠNAT": 67447,
  "ĠÙĬØŃØ¯Ø¯ÙĪØ§": 24769,
  "ĠØ§ÙĦØ¬ÙħØ§ÙĦÙĬØ§Øª": 69165,
  "Ø³Ø¨Ø©": 17098,
  "ĠØ¨Ø§Ø¶Ø§Ø¡Ø©": 77612,
  "ĠØªØªÙĨØ§Ø³Ø¨": 18678,
  "ĠInnovations": 42518,
  "ØµÙĦØŃ": 10966,
  "ĠØ§ÙĦØ¬ÙĨÙĪØ¨ÙĬ": 12445,
  "Ġvisa": 69890,
  "ĠÙĥÙĪÙĨØ²": 59565,
  "Ø§Ø¯Ø±Ø§Øª": 11069,
  "Ø§ÙĦØ¨Ø±ÙħØ§ÙĬÙĬØ§Øª": 54222,
  "ĠØ§ÙĦØŃØ±Ùħ": 57145,
  "ĠØ§ÙĦÙħØªÙħØ±Ø¯": 92336,
  "ĠÙĦÙĦÙĤØ±": 26569,
  "ĠØ§Ø³ØªØºØ±ÙĤ": 86035,
  "ander": 8251,
  "represent": 21831,
  "ĠÙĪØ§ÙĦÙĦØ§Ùģ": 36303,
  "ĠÙĦÙĦØ³ÙĬÙĨØ§Ø±ÙĬÙĪ": 79570,
  "ĠØ§ÙĦÙħØ¶ÙĬÙģØ©": 77899,
  "Ø·Ø§ÙĨÙĬ": 54628,
  "ĠÙĦÙĤÙī": 88047,
  "Ø§ÙĪØ±ÙĬ": 76936,
  "ĠÙĦÙĦØ§ÙĨØ¸ÙħØ©": 24655,
  "rance": 6941,
  "ĠÙĪØ§ÙĦØŃÙĪØª": 84955,
  "ĠØ§ÙĦØªØ®ÙħÙĬØ±": 23039,
  "Baptism": 98543,
  "ĠTimor": 93311,
  "Ġinferences": 83922,
  "Ø§ÙĦØªÙĥÙĦÙģØ©": 57775,
  "ĠÙĪØŃØ³Ø§Ø³Ø©": 74737,
  "ĠØ§ÙĦØ§ÙĨØªØµ": 66645,
  "ĠØ§ÙĦÙħØ±ÙĥØ²ÙĬÙĨ": 88911,
  "ĠØ®ÙĦÙĬØ·": 14461,
  "ÙĪØ¨Ø¹Ø¯ÙĬÙĨ": 66698,
  "ĠÙĦØªØªØ¨Ø¹": 24532,
  "ryst": 76766,
  "Ġpertussis": 50228,
  "Ø´Ø±Ø¨Ø§Øª": 78023,
  "ĠÙĦÙĦÙħØªÙĤØ¯ÙħÙĬÙĨ": 100274,
  "ĠÙĪÙħØ¯Ø¨Ø¨Ø©": 97708,
  "ĠØ§ÙĬØ·Ø§ÙĦÙĬØ©": 30645,
  "ĠØªØ¬Ø§ÙĩÙĦÙĩØ§": 61888,
  "ĠÙħØ¹ÙĪØ¬Ø©": 79985,
  "ĠØ³ÙĪ": 39852,
  "ĠÙĪØ§ÙĦØ±Ø·Ø¨Ø©": 87641,
  "Ġcloses": 88683,
  "ĠÙĪØªÙĪØ²ÙĬØ¹ÙĩØ§": 30726,
  "Ø§ÙĦÙĤÙĪÙĤØ§Ø²ÙĬØ©": 58158,
  "ĠÙĪØ³ÙĦÙĪÙĥÙĬØ§ØªÙĩÙħ": 21918,
  "ĠÙħÙĤØ·Ø¹ÙĬ": 98361,
  "ĠØ¨ØªØªØ§Ø³Ø³": 85186,
  "ĠØ¨ÙĪÙĦØª": 59626,
  "successful": 76797,
  "Ø¨Ø·Ø©": 17092,
  "ĠØ§ÙĦØ§Ø±Ø¯ÙĨÙĬ": 82978,
  "ĠØ§ÙĦÙħØ§Ø¹Ø²": 54557,
  "ĠGlory": 35169,
  "ĠÙĪÙħØŃØ±ÙĥØ§Øª": 89719,
  "ĠØ§Ø·ÙĦÙĤÙĩØ§": 91975,
  "agher": 81164,
  "Ġthirst": 49659,
  "Ġ1987": 32611,
  "Ø§ÙĦÙĥÙĪÙĦÙĬÙĨ": 96455,
  "ĠØ¨ÙĨÙĤÙĦ": 19439,
  "ĠÙģØ®": 39482,
  "ĠØ§ÙĦØ¨ÙĪ": 4945,
  "jera": 48147,
  "ĠØ§ÙĦÙĪÙĦØ§ÙĬØ§Øª": 2951,
  "Ġincorporation": 100176,
  "ØºØ±ÙĤ": 10932,
  "Ġvested": 81247,
  "Ø§ÙĦÙĤØµÙĬØ¯Ø©": 9039,
  "ĠÙĪÙħØ¬Ø±": 81819,
  "ĠØ§ÙĦØ§ÙĤØªØ±Ø§ØŃ": 68021,
  "ĠØ¨ÙĪØ³Ø·ÙĨ": 20444,
  "Ġdominate": 38131,
  "ĠÙĪØ§ÙĦÙħØ¹ÙĬ": 56468,
  "ĠÙħÙĤØ§Ø³Ø§": 96940,
  "Choreography": 75994,
  "ĠÙĪØ§ÙĦØ§Ø·ÙģØ§ÙĦ": 38755,
  "ĠÙħØŃØ§ÙĥÙħØªÙĩ": 73411,
  "ĠÙĨÙĪØ¯ÙĬ": 79145,
  "Ġautocracy": 86442,
  "ĠØ§ÙĦØŃÙĪØ§Ø³ÙĬØ¨": 96827,
  "Ġsimplifies": 60781,
  "ilitary": 9510,
  "Ġsequence": 8024,
  "ØªØ±ØŃ": 3360,
  "ĠØªØ¨Ø±ÙĬ": 69104,
  "Ġgraphical": 24806,
  "ĠØ³ÙĥÙĪÙĦØ²": 79944,
  "Ġtrag": 14098,
  "Ġbrasili": 41071,
  "ĠÙĬØ¹ØªÙħ": 81467,
  "ĠÙĪÙĨÙĪØ¹Ùĩ": 94888,
  "Ġdivert": 32643,
  "ĠØªÙĩØ¯Ø¯": 51798,
  "Ø¯ÙĪØ±ÙĪØ«ÙĬ": 85305,
  "ĠØ¬ÙĬÙĪØ¨": 69476,
  "aguer": 24258,
  "Ġinteracting": 17472,
  "Ġbokeh": 86743,
  "ĠBuckingham": 36949,
  "ĠÙĪØ§ÙĦØªÙĤØ¯ÙĬØ³": 70456,
  "Ġenables": 19444,
  "ĠÙĥØ§Ø±ÙĬ": 26504,
  "ĠÙĦØ§Ø²Ø§ÙĦØ©": 20921,
  "Ġlighthearted": 68864,
  "avid": 8411,
  "ĠØ§ÙĦØ¶ÙĬ": 19468,
  "ĠComedy": 20916,
  "ÙħØ²ÙĬØ©": 32229,
  "ĠØ¨Ø³Ø¯ÙĬÙħ": 82999,
  "ĠØ¬ÙĦÙĪÙĥÙĪØ²": 36503,
  "ĠØ§ÙĦÙĥÙĬØ±ÙĬÙĬÙĦ": 79876,
  "ĠCarmack": 74902,
  "Ø§ÙħØ³Ø©": 65372,
  "ĠØªØªÙĨÙĩÙĬ": 92705,
  "Isra": 92990,
  "Ø§ÙĦØªÙĦÙħÙĪØ¯": 92032,
  "ĠØ§ÙĦÙĤØ¶Ø§Ø©": 24890,
  "ithiasis": 81251,
  "ĠØ§ÙĦØªÙģÙĥÙĬÙĥÙĬ": 85575,
  "ĠÙĪØŃØ´Ø±Ø§Øª": 84630,
  "Ø§ÙĦØ·Ø§Ø¹Ø©": 89840,
  "ĠØ§ÙĦÙĨÙĤØ¶": 86829,
  "Ġsclerosis": 100371,
  "Ġheritable": 58818,
  "ĠØªØ´ÙĬÙģØ²": 98290,
  "ĠÙħØªØ·Ø±Ùģ": 61404,
  "Zin": 76465,
  "ĠAssurance": 91924,
  "eteors": 95205,
  "ĠFrancis": 46224,
  "Ġopinio": 60193,
  "ĠØ§ÙĦØ§ØºØ±ÙĬÙĤÙĬ": 69571,
  "Ġdrink": 16528,
  "ĠØ§Ø¯ÙĪØ§Ø±Ø§": 38403,
  "Ġmodule": 85589,
  "ĠØŃØ±ÙĬÙĤ": 39762,
  "Ġperforming": 23541,
  "ĠØ§ÙĦØªÙĨØ¯Ø±Ø§": 26927,
  "ĠÙĪØ§ÙĦØ´Ø®ØµÙĬØ§Øª": 28760,
  "sensitive": 63350,
  "ĠLEDs": 93565,
  "ĠÙĤÙĨØ·ÙĪØ±": 60181,
  "ĠÙĤØ³Ø±ÙĬØ©": 73000,
  "songwriter": 74838,
  "ĠÙĦØ§Ø²ÙĤÙĬÙĨ": 86034,
  "ĠØ¨Ø§ÙĬØ¯": 64810,
  "ĠÙĥÙĦØ§Ø¨Øª": 82532,
  "ĠØ¨ØªØ±ÙĥÙĬØ¨": 26550,
  "Ø§ÙĦÙħØ¹Ø§Ø¯ÙĦØ§Øª": 88701,
  "ĠFormation": 20390,
  "Ø§ØŃÙĬÙĨ": 49215,
  "ĠØ§ÙĦÙĤÙĬØŃ": 68913,
  "Ø¨ÙĨØ§Ø¡": 21258,
  "Ø§ÙĦØ§Ø¨Ø¬Ø¯ÙĬØ©": 71861,
  "per": 644,
  "ĠØ§ØªÙħØ§Ø±Ø¶": 100240,
  "ĠÙĪÙħØ¸ÙĩØ±": 49571,
  "ĠØ¨ÙĬØ±ÙģØ¹ÙĪØ§": 73011,
  "Ø§ÙĦØ§Ø³ØªØ´Ø±Ø§ÙĤ": 88280,
  "chest": 35951,
  "ĠØ¨ÙĨØ±ÙĪØ²": 44342,
  "ĠÙĪÙħØ³ØªÙĪÙĬØ§Øª": 35131,
  "ĠÙĥØ§Ø¨ÙĬ": 78818,
  "ĠÙĪØ§ÙĦØµÙĨ": 23548,
  "Ø¯Ø¨ÙĦÙĬÙĪ": 94949,
  "ĠÙĪØ¯ÙĬÙĨØ§ÙħÙĬÙĥÙĬØ§Øª": 48409,
  "atia": 54515,
  "ĠÙĨØ²": 17144,
  "Ġdign": 43468,
  "Ø§Ø±ÙĥÙĬÙĨ": 14110,
  "rier": 15263,
  "Ġplasmas": 73709,
  "Ø§ÙĦÙģÙĨØªØ§Ø²ÙĬØ§": 85772,
  "ÙĦÙĬÙĪÙĨÙĬ": 54804,
  "ĠØ¨ÙĬØªØ®Ø¨Ø·": 38458,
  "Ġthere": 3134,
  "ĠØ§ÙĦØªØ³Ø§ÙħÙĬ": 32314,
  "ĠÙĪØªØŃØ¯ÙĬØ¯Ø§": 6881,
  "ĠÙĪØµÙĪÙħ": 69957,
  "ÙĨÙĬØ³Ø§Ø¨": 81223,
  "Ġelicited": 96984,
  "Ø§Ø³ØªØ±ÙĬ": 78389,
  "ĠØ¨Ø§ÙĦØ¹Ø²ÙĦØ©": 70136,
  "bugs": 39233,
  "ĠØ§ÙĦÙħÙģØµÙĦÙĬØ§Øª": 50643,
  "ĠÙĪØ§ÙĦÙħØ§Ø±Ø§ÙĥØ§Ø³": 97284,
  "ĠØ§ÙĦØ§Ø³ØªØ¬": 44004,
  "ĠØªÙĤÙĬÙĦØ©": 25171,
  "ĠAsteroids": 97684,
  "ĠØ¨Ø§ÙĦÙħØ·Ø±": 34867,
  "ĠØ§ÙĦØ´ÙĥØ±": 33961,
  "ĠÙĤÙĦØ¨": 9809,
  "ĠÙĥÙĪÙĨØ³ÙĬØ±": 89135,
  "ĠÙĪØªÙĦÙĬÙĨ": 80892,
  "ØªØºÙĬØ±Ø§Øª": 22043,
  "warm": 64490,
  "Ġdip": 65461,
  "Ø§ÙĦÙĪÙħØ¶Ø©": 97979,
  "ĠÙĪØ§ÙĦÙĨÙĬØªØ±ÙĪØ¬ÙĬÙĨ": 25220,
  "ĠØ§ÙĥØ§Ø¯ÙĬÙħÙĬØ©": 17237,
  "ĠLiquid": 67301,
  "ĠÙĬÙĥØªØ´Ùģ": 59779,
  "SVM": 53901,
  "ĠØ§ØªØ³Ø§ÙĤØ§": 100249,
  "fonso": 76589,
  "Ø§ÙĬØ±ÙĪÙĨ": 22554,
  "ĠTransmetropolitan": 71134,
  "Vipassana": 75374,
  "ĠÙĦÙĦÙħØ³ØªÙĪÙĬØ§Øª": 60192,
  "Ġcommercializing": 92754,
  "ĠÙĪØ§ÙĦØ¯Ø§ÙĬÙĨÙĬÙĨ": 38282,
  "ĠÙĥÙħØ¬Ø§ÙĦ": 58512,
  "ĠØªØ¬Ø±ÙĬØ¯": 57557,
  "ĠÙĥÙĤØ§ÙĦØ¨": 96803,
  "ĠØ§ØŃØ§ÙĦØ©": 83498,
  "artha": 50496,
  "ĠÙĦÙĦØŃØµÙĪÙĦ": 11334,
  "Ø§ÙħØ±ÙĬÙĥØ§ÙĨ": 78763,
  "ĠØ¯Ø±ÙĬØ¯": 36389,
  "Ø§ÙĦÙĩÙĬÙħØ§ØªÙĬØª": 92262,
  "Ġpray": 33676,
  "Ġhistor": 5188,
  "ĠØ¨ÙĬØªØ±Ø¯Ø¯": 92622,
  "ĠâĪ": 54153,
  "ĠÙħÙĤÙĪÙĬØ©": 68353,
  "Ġscale": 6341,
  "ĠØªØ«": 13466,
  "ĠØªØ¹Ø§ÙĦÙĬÙħ": 25527,
  "ĠØ§ÙĦØ¬Ø§Ø°Ø¨": 36614,
  "Ġfaked": 78542,
  "Ø±ÙĤØ§Ø¡": 12014,
  "ĠElders": 40197,
  "Ø±ÙĪÙĥ": 28153,
  "Khonsu": 75327,
  "ĠHotels": 93378,
  "ĠØ§ØªØŃØ·": 46858,
  "ĠÙĪØªØ³ÙĥÙĬÙĨ": 90188,
  "Ġcellular": 30508,
  "Ø·ÙĬÙĨØ§": 65021,
  "ÙĥØ±ÙĬØ©": 2994,
  "Ø§ÙĦÙħÙĪØµÙĦ": 55889,
  "ĠÙĤÙħÙĬØµ": 33886,
  "Kath": 76163,
  "ĠÙĪØºØ±Ø¨": 30699,
  "although": 85235,
  "arrative": 29688,
  "Impressionism": 52444,
  "ocum": 56500,
  "ĠØ§ÙģØ±Ø§Ø²Ø§Øª": 89900,
  "ÙģØ§ÙĬØ³ØªÙĪØ³": 53377,
  "ĠØ¨ØªØªØ´Ø§Ùģ": 79299,
  "ĠØ¨ØªØ±ÙĥÙĬØ²ÙĩØ§": 35455,
  "ÙģÙĬÙħØ§Øª": 81065,
  "Ø§Ø±Ø¨": 2479,
  "ÙĥØ³ÙĬ": 7445,
  "ĠÙĪÙĨØ¯": 31321,
  "ĠØµÙĬØ§ÙĨ": 40112,
  "ĠBird": 25507,
  "ĠØ¹ÙĬÙĦØªÙĥ": 74315,
  "ĠÙĪÙĤÙĪÙī": 44856,
  "ĠBrown": 17486,
  "ĠMec": 34154,
  "ĠØ§ØªÙĪØŃ": 83586,
  "ĠØµØŃÙĬØŃØªÙĬÙĨ": 89562,
  "ĠÙħØ·ÙĪÙĬØ©": 91329,
  "ĠØ¨ØªÙĨÙĥØ±": 58326,
  "ĠØ¯ÙĪØ±ÙĬÙĦ": 83366,
  "ĠÙĦØŃÙĨ": 85104,
  "Ġinterpre": 5279,
  "Selenicereus": 100678,
  "ĠØ§ØŃØªÙĬØ§Ø·ÙĬØ©": 38698,
  "arten": 48684,
  "ĠØ§ÙĦÙĪØ³Ø§ÙĪØ³": 60378,
  "Ġcreatures": 16849,
  "ĠØªÙĪØµÙĦÙĩÙħ": 89400,
  "ombe": 48895,
  "ĠÙĥÙĦØ§": 10121,
  "ĠÙĪØ§ÙĦØ§Ø¬Ø±Ø§Ùħ": 89528,
  "ĠØ¨Ø§ÙĦÙħØ®": 34866,
  "ĠØªØ¯Ø§Ø®ÙĦ": 58390,
  "Ġglutamate": 96624,
  "Ġprocedure": 23768,
  "ouses": 44259,
  "Ø°ÙĨØ¨": 6547,
  "Ø¹Ø¨Ø±ÙĪØ§": 49951,
  "ĠØ§ÙĦØ²Ø±ÙĨÙĬØ®ÙĬØ©": 88441,
  "ifier": 43995,
  "ĠÙħØ³Ø§ÙĪÙĬØ©": 57150,
  "ĠØ¨Ø§ÙĦØ³ØŃØ±": 27389,
  "ĠÂ°": 39303,
  "ĠÙĤÙĪØ§ÙĨÙĬÙĨ": 3789,
  "exact": 85341,
  "penses": 76750,
  "ÙĥØªØ§ÙĨ": 32120,
  "ĠØªØ±ÙĥÙĬØ²ÙĩÙħØ§": 90709,
  "achers": 30030,
  "ĠØ§ÙĦØ¬ÙĨÙĬÙĨÙĬ": 42151,
  "ĠSien": 66280,
  "Ġblending": 40789,
  "ĠØ§ÙĦØ¯ÙĬØ¨Ø§Ø¬Ø±": 53346,
  "ĠÙĪÙĥÙĦÙĩÙħ": 51326,
  "Mathematical": 21866,
  "rater": 15459,
  "Ġpaid": 27969,
  "osem": 31743,
  "ĠØ®ÙĬÙħÙĬÙĨ": 80877,
  "Ġcompares": 82948,
  "ĠØ¨Ø§ÙĦÙĪØ§Ø·": 80515,
  "ĠØ§ÙĦØ§ÙĨÙĪØ§Ø±": 34102,
  "ĠLove": 12835,
  "ØªØ³ÙĦØ³ÙĦ": 87572,
  "ĠØ§ÙĦÙĥÙĬÙħÙĬØ§Ø¡": 6882,
  "Ø±ØªÙĬÙĨ": 22041,
  "Ġtraps": 32889,
  "ĠÙħØ±ÙĥØ²ÙĬÙĨ": 88627,
  "ĠÙĪÙģÙĦ": 77632,
  "ĠØ§ÙĦØ´Ø§ÙĬØ¹Ø§Øª": 92067,
  "ĠCoordinated": 90562,
  "ĠØ§ÙĦØ¨Ø§Ùĩ": 39832,
  "Ø§ÙĦØ´ÙĩØ±Ø©": 86864,
  "ĠØ§ÙĦØªØŃØªÙĬØ©": 5352,
  "Ø§ÙĦØ¬ÙĬÙĨ": 39319,
  "Ø±ÙĦÙĬ": 54275,
  "Eukarya": 76046,
  "Ġgeology": 11872,
  "Ġcoelest": 67330,
  "Ġsin": 24043,
  "ĠÙħØŃÙģØ²Ø§Øª": 46885,
  "Ġpayoffs": 100547,
  "Ġdelicate": 41431,
  "ÙĦØ§Ø·ÙĪÙĨ": 23885,
  "ĠRadar": 52532,
  "ĠÙĦÙĦÙģÙĨØ§ÙĨØ©": 61916,
  "Ġupheld": 41059,
  "Trypanosoma": 99260,
  "ĠPanel": 49421,
  "Manuel": 59848,
  "Ġstrength": 7369,
  "ĠÙĨØ¹ÙĪÙħ": 87584,
  "ĠØªÙĨØªÙĩÙĥ": 50071,
  "ĠØ¹Ø±ÙģØª": 38583,
  "ĠEleuth": 94188,
  "ĠÙĪØ§ÙĦØªØ´Ø¬ÙĬØ¹": 91049,
  "ĠModernism": 35539,
  "ĠØ¨ÙĬØµÙĨØ¹": 46853,
  "Broth": 62960,
  "Ġwaterline": 85246,
  "ĠGug": 25515,
  "ĠØªÙĪ": 914,
  "Ø·Ø§Ø±Ø§Øª": 17604,
  "Ø§ÙĦØ¬ÙĬ": 26341,
  "inald": 59439,
  "Goodfellas": 47277,
  "ĠØµÙĪÙģÙĬØ©": 56189,
  "ĠØ¨ÙħÙĪÙĨÙĪÙĦÙĪØ¬Ø§ØªÙĩ": 63610,
  "diff": 39242,
  "Green": 33366,
  "ĠÙĪØªØ³Ø¨Ø¨ÙĦÙĥ": 94852,
  "ĠGodfather": 30653,
  "ĠØ§ÙĤÙĦÙĬØ©": 45391,
  "ĠØ¨ØªØŃØ·ÙĩØ§": 68436,
  "Henri": 19192,
  "Rationalism": 53370,
  "ĠDanseuse": 46926,
  "ĠØ§ÙĦÙĤÙĪ": 13755,
  "ÙĦÙĬØ¬Ø±": 43317,
  "Ø¹ÙħÙĦÙĬØ©": 2761,
  "ertarianism": 68303,
  "Ġunsolvable": 92299,
  "ĠØªÙĪÙĬ": 22984,
  "Ġwat": 39669,
  "Napoleon": 63333,
  "ĠØ§ÙĦÙħØ´Ø§Ø±ÙĥØ§Øª": 62921,
  "Ġheavier": 13306,
  "ĠÙĪØ§ÙĦØªØ¹Ø²ÙĬØ²": 69715,
  "ĠØ¨ØªÙĨÙĪØ¹ÙĩØ§": 73529,
  "ĠØ®Ø¯Ø¹Ø©": 51871,
  "iter": 1636,
  "ĠØ¨Ø§ÙĦØ§ØŃØ³Ø§Ø³": 92733,
  "ĠHa": 29993,
  "Ġmelancholy": 96140,
  "Ġgase": 80146,
  "ĠØ¨ØªØµÙĪÙĬØ±Ø§ØªÙĩ": 71704,
  "GMO": 53772,
  "Ø§ÙĦÙĦÙĬ": 2183,
  "onsored": 74312,
  "Ġgeography": 45484,
  "oro": 31431,
  "ĠØ§ÙĦÙħØ§Ø±ÙĬØ§ØªØ´ÙĬ": 36163,
  "ĠÙĥØ§Ø¨ÙĦØ§Øª": 27407,
  "ĠØ§ÙĦØªØ®ÙĬÙĦÙĬØ©": 37943,
  "ĠÙĪØ¨ØªØ¶ØºØ·": 86306,
  "ĠØ¹ÙħÙĬÙĦ": 54601,
  "ĠØ§ÙĦØªØ¹Ø²ÙĬØ²": 18336,
  "ĠØ§ÙĦØ¶ÙħÙĬØ±": 21537,
  "ĠÙĪØ§ÙĦØ®Ø·Ø¨": 50920,
  "Ġinaug": 54949,
  "Ġbean": 56292,
  "ĠØ¨Ø«Ø¨Ø§Øª": 72450,
  "Palacio": 75353,
  "Ġimagined": 41811,
  "ĠÙģÙĬØ¯ÙĦ": 33636,
  "ĠÙħØ³Ø±Ø·ÙĨØ©": 83539,
  "Ø§ÙĦØ¹Ø¯ÙĪÙī": 85675,
  "ĠLand": 11636,
  "ĠØ§ÙĦØ§Ø±Ø¬ÙĨØªÙĬÙĨÙĬ": 51978,
  "rop": 1146,
  "Ġsanctity": 72281,
  "ĠÙĪØªÙħØ«ÙĬÙĦ": 25973,
  "ÙħØ²ÙĬÙĥØ§": 36044,
  "ĠÙĪØ§Ø·ÙĦØ§ÙĤ": 21926,
  "ĠØ§ÙĦÙĥØ§ÙĦÙĬÙĨ": 79854,
  "ĠÙĬØ¨ÙĪØ¸Ø´": 95320,
  "ĠØ¹ÙĦØ´Ø§ÙĨ": 2141,
  "Ġrecited": 58418,
  "Dookie": 63851,
  "Ø§ÙĦÙĥÙĨÙĬØ³Ø©": 77052,
  "ĠØ§ÙĨØ¸Ø±": 79409,
  "Ġbias": 17932,
  "Ø±ÙĥØªÙĩ": 18789,
  "Ġclotting": 23819,
  "Ġversioning": 60657,
  "Ġeducating": 87313,
  "ĠØ·ÙĪØ¨": 40014,
  "ĠLudwig": 56782,
  "ÙĪØ´ÙĬØ§ÙĦ": 35749,
  "imal": 3276,
  "Ø§ÙĪØ²Ø§Øª": 70680,
  "Ġelectronics": 51339,
  "ĠØ§ÙĦØŃØ¬Ø§Ø¨": 20338,
  "ĠÙĪÙĨØªØ¬ÙĨØ¨Ùĩ": 84501,
  "ĠÙĪØ§ÙĦØ´ÙĥÙĦ": 25215,
  "ĠÙĪØ§ÙĦÙħØ¹Ø§ÙĦÙħ": 15687,
  "ams": 5643,
  "ĠØ§Ø³ÙĬØªÙĬ": 79973,
  "Ġtiming": 27561,
  "ĠÙĪØ§ÙĦÙħÙģØ§Ø¬Ø§Ø©": 60862,
  "ĠØ§Ø³ØªØ±Ø®Ø§Ø¡": 47175,
  "ÙĥÙĬÙĦØ©": 82988,
  "ĠØ¨ÙĨØŃÙĪÙĦ": 89980,
  "ĠÙĪÙĬØ·ÙĦØ¹": 40397,
  "ÙĦÙĬØ§Ùħ": 5713,
  "adru": 56248,
  "ĠYen": 69428,
  "Mechatronics": 75343,
  "Ø¬ÙĬØ¹ÙĬØ©": 84365,
  "ĠØ¨ÙĩØ°Ø§": 37753,
  "ĠLead": 22613,
  "ØªØ¬Ø§Ø¨Ø§Øª": 11819,
  "plinter": 67089,
  "ĠÙĪØ§ÙĦÙħØ·": 49587,
  "ØŃØ¯ÙĪØ¯ÙĬØ©": 88487,
  "ĠØ§ÙĦØ·ÙĪØ¨ÙĪÙĦÙĪØ¬ÙĬØ§": 29250,
  "ĠAcheulean": 97443,
  "Ø§ÙĦØ§Ø±Ø§Ø¶ÙĬ": 19125,
  "ĠÙĦØ®": 12121,
  "iments": 12795,
  "ÙħØ§ÙĨÙĪÙĬÙĦ": 56841,
  "ĠStatus": 10647,
  "ĠØ®Ø³Ø±Øª": 62598,
  "ÙģØ¹Ø§ÙĦ": 21690,
  "ĠÙĪØ¬ÙĪÙĬØ©": 57467,
  "Ø³ÙĪÙģØª": 12911,
  "ÙĥÙĦÙģÙĨ": 66054,
  "Ġquestions": 12916,
  "ĠAG": 66462,
  "antial": 81303,
  "ĠØ§ÙĦÙĪØ§Ø·ÙĬ": 82790,
  "ĠØªØ´Ø¬ÙĬØ§ÙĨØº": 100207,
  "ĠÙĪØ§ÙĦÙħØ·ØŃÙĪÙĨ": 81946,
  "inctive": 88475,
  "ĠSpeed": 38118,
  "ĠMor": 8903,
  "ĠØ²ÙĬÙĨÙĪÙħÙĪØ±Ùģ": 98207,
  "ĠÙĬØªØŃØ¯Ø«": 16582,
  "hema": 44625,
  "ĠØ´Ø±Ø·Ø©": 71017,
  "ĠN": 715,
  "cous": 35948,
  "Ġconj": 55842,
  "Ø±Ø§ÙĦ": 27845,
  "ÙĤÙħØ¹": 77425,
  "ĠÙĪØ§ÙĦØ¬ÙħØ¹": 39615,
  "ÙĦÙĬÙĨØ¯ÙĦÙĪÙģ": 63403,
  "ĠÙĪØªØ°ÙĥØ±": 66384,
  "ĠØ§ÙĦØ±Ø³ÙħØ©": 87193,
  "ĠÙĪØ§ÙĦØ§ÙĬØ¯ÙĬÙĪÙĦÙĪØ¬ÙĬØ©": 61028,
  "ĠØ§Ø³ØªÙĤØ±Ø§Ø±ÙĩØ§": 71171,
  "psych": 42879,
  "Ø±ÙĪØ¯": 14589,
  "adequ": 45216,
  "ĠØ¨ÙħÙĥØ§ÙĨØ³ÙĩØ§": 96605,
  "ĠØ§ÙĦÙħØ²Ø¯ÙĪØ¬Ø©": 24632,
  "ĠØºÙĨÙĬØ©": 23169,
  "ĠØ§Ø¯Ø¬ÙĪØ±Ø«": 57163,
  "é£Ł": 42924,
  "ĠÙĪØ±ÙģØ¶ÙĪØ§": 95303,
  "ĠÙĪØ§ÙĦØ·ÙĬØ±Ø§ÙĨ": 45922,
  "ĠØ§ÙĦØ§ÙĦÙĬØ©": 18645,
  "ĠEngraving": 70182,
  "Ġattach": 50820,
  "ĠÙĪØ°ÙĬÙĦ": 61896,
  "Ġthermodynamic": 71290,
  "Ø³ÙģØ§ÙĨØª": 97570,
  "Ġsprawling": 50159,
  "ĠÙħØµÙĦ": 77439,
  "Ġkim": 29972,
  "ĠÙĪØ§ÙĦÙģØ±Ø§ØºØ§Øª": 97446,
  "ĠÙĪØªØ³ØªØ®Ø¯ÙħÙĩØ§": 46436,
  "ĠØ¨ÙģÙĦÙĥÙĦÙĪØ±": 99396,
  "inist": 6061,
  "ĠØ¨Ø§ÙĦÙħØ¶ÙĬ": 63027,
  "ĠMcNeill": 71753,
  "Ø¬ÙĬØ¹": 8171,
  "Ø±ÙĬÙħØ§": 39724,
  "ĠKate": 84594,
  "ĠÙĪØ§ÙĦØ§Ø³ØªÙĨØªØ§Ø¬": 18422,
  "ĠØ¨ÙģØ®Ø§Ø®Ùĩ": 100539,
  "ĠÙħÙĩØªÙħØ©": 45536,
  "Ġruf": 49688,
  "Ġexcluding": 52213,
  "Ġoverthrow": 97789,
  "ĠØ§ÙĩØªÙħØ§ÙħØ§": 61165,
  "ĠØŃÙĤÙĬÙĤÙĬØ§": 91853,
  "ĠNiels": 56911,
  "Ġrobotics": 30928,
  "Ġparticle": 8831,
  "ĠÙĬØ´ØªØ±ÙĥÙĪÙĨ": 35461,
  "ÙĪÙħÙĬÙĥØ³": 3461,
  "Hamilton": 75325,
  "Ġphysicists": 45743,
  "ĠÙĪØ§ÙĦÙħÙĪØ§Ø·ÙĨÙĬÙĨ": 58927,
  "Ġhelicopter": 63089,
  "roductive": 18176,
  "osion": 6121,
  "Ġpreservative": 91547,
  "modern": 20321,
  "Ø¯ÙĨÙĬ": 6059,
  "ĠRepos": 87404,
  "stoy": 79889,
  "ĠÙħØªØŃÙĬØ²Ø©": 45998,
  "ĠØ§ÙĦØªÙĪØ¬ÙĬÙĩ": 12135,
  "ĠØ§Ø³ØªØ®Ø¯ÙħÙĩØ§": 16925,
  "Ġconceptual": 30346,
  "ĠÙĪØªØ§Ø³ÙĬØ³": 43992,
  "ĠÙĪØ¨ÙĬØ³ØªØ®Ø¯ÙħÙĪÙĩ": 27450,
  "Trading": 61953,
  "ĠÙĪÙĤÙĦØ©": 50241,
  "Ġpineap": 94267,
  "ĠØ§ÙĦØ³Ø§ÙģØ§ÙĨØ§": 80115,
  "ĠØ§ÙĦÙģØ§Ø±Øº": 46734,
  "Ø¯ÙĪÙĦØ§": 89709,
  "ØªØ·ÙĪØ±Øª": 27848,
  "ĠØ§ÙĦÙĦØ§ÙħØ¹Ø©": 81692,
  "ĠØ§ÙĦÙħÙĪØ§Ø¶Ø¹": 82801,
  "ĠÙħØ§Ø¨ØªÙħØ´ÙĬØ´": 95767,
  "ĠÙħØ´Ø§Ø±ÙĬØ¹": 7983,
  "ouille": 86181,
  "ĠÙģÙĤØ¯Ø§ÙĨ": 5288,
  "ĠÙĪØ§ÙĦØ§Ø®ØµØ§Ø¨": 88914,
  "Ġcosmology": 17997,
  "ĠØªØŃÙĪØª": 66950,
  "ĠØ§ÙĦØ¹Ø±Ø¨ÙĬØ§Øª": 5704,
  "ÙĥØ§ÙĦÙħØ©": 27031,
  "ĠRuby": 53140,
  "ĠKn": 26964,
  "ĠÙģØ³ÙĬ": 22976,
  "ĠÙĪØ§ÙĦØªÙĬ": 2696,
  "Ġbroadly": 23696,
  "ĠÙĬÙĪÙĩØ§ÙĨ": 33084,
  "ĠØ±ÙĪÙħÙĬØ±ÙĪ": 70914,
  "ĠØªØ§ÙĨÙĥ": 48502,
  "ĠØ§Ø®ØµØ§Ø¨": 82591,
  "Ø¹ÙĦÙħØ§Ø¡": 6611,
  "Ġup": 2251,
  "Sf": 76343,
  "ensure": 84293,
  "ĠÙĨØ¹ØªØ¨Ø±ÙĩØ§": 51045,
  "Beans": 89277,
  "sch": 48188,
  "iable": 7850,
  "istor": 3299,
  "Hannibal": 53792,
  "ØŃØ§Ø±": 18134,
  "Ġadvoc": 6769,
  "ÏĢr": 46548,
  "ĠØ§ÙĦØ±Ø§ÙĤØµØ©": 36860,
  "ĠØ§ÙĦÙĦÙĪØªØ³": 56364,
  "random": 89834,
  "Ġglobe": 32335,
  "ĠÙħØªÙģØ§ÙĪØªØ©": 39041,
  "erged": 34538,
  "hmus": 61416,
  "ĠØ§Ø´Ø±Ø§ÙĤØ§": 75698,
  "ĠÙĪØªØ®ØªÙģÙĬ": 89533,
  "ĠØ§ÙĦØµÙĪØ¨Ø©": 40088,
  "ĠÙĪØ§ÙĦØµÙĪØ¯ÙĬÙĪÙħ": 87777,
  "Milankovitch": 96706,
  "William": 14495,
  "ĠØ§ÙĦØµÙĪÙħ": 56111,
  "ĠØ§ÙĦØ·ÙĪÙĦÙĬØ©": 49337,
  "engraving": 86590,
  "Ø¸Ø¨ÙĬØ·": 55378,
  "ĠÙĪØªØ·ÙĪØ±Ùĩ": 35140,
  "ĠJersey": 50205,
  "áį": 64544,
  "ĠØ¨ÙĬØªØ¹ÙĩØ¯ÙĪØ§": 73102,
  "ĠØªÙĤØ±ÙĬØ±": 30088,
  "verence": 41521,
  "ĠØ§ÙĥØ²Ø§ÙģÙĬÙĬØ±": 98222,
  "ĠCarn": 30679,
  "Ġbehaves": 59769,
  "Ġaddressing": 24727,
  "ĠØ§ÙĦØªÙĨÙĬÙĨ": 22440,
  "Ġbust": 26521,
  "ĠØ¹Ø´ØªØ§Ø±": 36181,
  "Rational": 39203,
  "Ġencourage": 16609,
  "Ø³Ø§Ø¬Ø§": 77515,
  "Ø¬Ø§Øª": 3610,
  "Ġarbitrage": 93575,
  "odore": 49281,
  "ØªØ®ÙĬÙĦ": 40225,
  "ĠCombines": 97375,
  "Linear": 73761,
  "ĠÙĬØªÙħÙĥÙĨ": 30190,
  "Car": 16228,
  "Ġtip": 43053,
  "Ġassisting": 71802,
  "ĠØ§ÙĤÙĨØ¹Øª": 100348,
  "Ġexact": 11098,
  "mede": 37999,
  "ĠÙħØªÙħ": 9921,
  "ĠÙħÙĩÙĪÙĦ": 87388,
  "ĠØ´Ø¹Ø§Ø¹": 28202,
  "amorphosed": 95818,
  "atorze": 45642,
  "anthropology": 65199,
  "ĠÙĦÙĦØ«ÙĤØ§ÙģØ§Øª": 48922,
  "Ġexper": 2122,
  "Ġcrowdsourcing": 98508,
  "ĠØ±ÙĬÙħÙĨØ¬ØªÙĪÙĨ": 100311,
  "Ġneed": 2721,
  "ĠØ§ÙĦØ³Ø·": 16340,
  "ĠÙĪØ§ØŃØ¯Ø«Øª": 96324,
  "Ġregional": 15656,
  "Ġwrote": 3135,
  "ĠØªØ¬Ø§Ø±Ø¨ÙĩÙħ": 30693,
  "ĠÙĤØ¶ÙĬØªÙĩØ§": 96834,
  "ĠØ¨ÙĪÙĬØ±": 77550,
  "ĠØ§ÙĦØ¨Ø¯Ø±": 33877,
  "ĠØ§ÙĨØ«Ø±ÙĪØ¨ÙĪÙĦÙĪØ¬ÙĬØ§": 7800,
  "Minecraft": 29433,
  "Ġskysc": 41830,
  "ĠØ§ÙĦÙĨØ¨Ø°": 38726,
  "ĠØ§Ø¨ÙĬÙĥÙĪØ±": 98329,
  "ĠØ³ØªØ§ÙĨ": 12454,
  "ĠØµØŃØ±Ø§Ø¡": 14912,
  "ĠDanish": 44419,
  "ĠØ³Ø¨Ø¹ÙĬÙĨÙĬØ§Øª": 95586,
  "ĠØ§ÙĦØ±Ø§ÙģØ¯": 74350,
  "ĠÙĪØ§ÙĦØ§ÙĪÙĦ": 26484,
  "Ġeditor": 34768,
  "ĠÙĦÙĦØ§Ø¶Ø·Ø±Ø§Ø¨Ø§Øª": 52875,
  "ĠInc": 7827,
  "jords": 54035,
  "Ġfur": 31448,
  "ĠØ¨Ø§ÙĦØµÙĨØ§Ø¹Ø©": 60552,
  "ĠFight": 23274,
  "ĠPhotograph": 90946,
  "oreal": 22408,
  "ÙĬØ±ÙĬÙĬÙĩ": 88013,
  "Prebiotics": 70494,
  "ĠØ¨ÙĬÙĤØ§ÙĪÙħ": 79274,
  "ĠÙĪØ§ÙĦØªÙĨØ§ÙģØ³ÙĬ": 88357,
  "Ġsimplified": 22798,
  "ĠØ¨ÙĨØ¬ÙĬØ¨": 82315,
  "ĠØ§Ø±Ø§Ø¶ÙĬ": 40568,
  "ĠØ¨Ø§Ø¨ØªÙĬØ³Øª": 91567,
  "hare": 64307,
  "ĠÙĪØ¬ÙħØ¹": 19233,
  "ĠØ§ÙĬØ²Ø§Ø¨ÙĬÙĦØ§": 100068,
  "Ġrelease": 6393,
  "ĠØªØ«ÙĬØ±ÙĩØ§": 94963,
  "Ø¹ÙĪØ§": 12736,
  "ĠÙĪÙĪØŃØ¯": 29572,
  "ĠÙĪØ¨ØªØª": 14393,
  "ey": 1368,
  "Off": 64038,
  "ĠØ¹Ø¸Ùħ": 26428,
  "ĠØ§ÙĦØªØµÙĪÙĬØ±Ø§Øª": 69210,
  "ĠThermodynamics": 31809,
  "ĠÙĪØ§ÙĦØªÙĨÙĤÙĦ": 34959,
  "Ø¶Ø§Ø¹Ø©": 78794,
  "superconductivity": 74450,
  "ĠØ¨ØªØ§Ø¹ØªÙĩÙħ": 8600,
  "Ø¬ÙĪÙĦÙĬØ§ÙĨ": 54535,
  "ĠAtari": 59746,
  "Foreign": 96697,
  "Ġ1563": 70773,
  "mu": 54054,
  "Ġprocesses": 4018,
  "Ġvampire": 56140,
  "Ġc": 239,
  "ĠÙħÙĪØ§Ø·ÙĨÙĪ": 73947,
  "ĠØ§ÙĦØ§ÙĨØ¯ÙģØ§Ø¹": 26735,
  "ØŃØªÙĪÙĬ": 5400,
  "Ø²ÙĪØ§Øª": 43344,
  "emia": 36680,
  "Tun": 64146,
  "Ġgroups": 4361,
  "odine": 29869,
  "ĠÙĪØ³ÙĬØ§Ø³Ø§ØªÙĩ": 95714,
  "Ġoffer": 6094,
  "Ø§Ø·ÙĪØ§Ø±": 80957,
  "ĠÙĪÙĨØ·Ø§ÙĤ": 40673,
  "ĠØºÙĬØ±Ùĥ": 44573,
  "ÙĥØ§ÙĪØªØ´": 84285,
  "Ø³Ø§Ø¹Ø©": 48359,
  "ĠApollo": 16957,
  "ĠRoutes": 74937,
  "Ġrefundable": 68276,
  "ĠØ¨ÙħØ«Ø§Ø¨Ø©": 8930,
  "ĠÙĬÙĤØ±Ø§ÙĪØ§": 74475,
  "ĠØ§ÙĦÙĥÙĪÙĥÙĬØ²": 60626,
  "self": 19207,
  "ØºÙĪØ¨Ø§": 55090,
  "ĠØ§ÙĨØ¨ÙĪØ¨ÙĬØ©": 65688,
  "ĠVuitton": 75721,
  "ĠØ§ÙĦÙĬÙĪÙĨØ§ÙĨÙĬÙĬÙĨ": 38046,
  "Ġhail": 18225,
  "ĠÙĪØ§ÙĦØ¯ÙĤÙĬÙĤ": 51951,
  "ØŃØ§Ø«Ùĩ": 27315,
  "odiac": 55954,
  "ĠØ§ÙĦØ¬ÙħÙĩÙĪØ±": 4471,
  "ĠØ§ÙĦØªØ´ÙĥÙĬÙĦ": 14696,
  "ØªØ¹ÙĦÙħ": 48296,
  "Ġbehave": 21815,
  "ĠÙĪØ¨ÙĬØ·ÙĦØ¨ÙĪØ§": 98877,
  "ĠÙĪØªÙħØ±Ø±": 89310,
  "omology": 33840,
  "Organizational": 96649,
  "ĠØ§ÙĦØ¹Ø´Ø§Ø¡": 25283,
  "ØªØ´ÙĪÙĩØ§Øª": 82507,
  "Ø§ÙĦÙħØ³ÙĦ": 55891,
  "ĠÙĪÙĤØ§Ø¯Ø±Ø©": 68148,
  "Ġchimp": 24330,
  "ĠØ§Ø¬Ø²Ø§Ø¡": 4845,
  "ĠÙĪØªØ³ØªÙħØ±": 46702,
  "ĠÙĦÙħØ¬Ø±Ø¯": 44892,
  "ĠMathematical": 52805,
  "ĠØ§ÙĦØ´Ø±Ø¹ÙĬØ©": 14425,
  "ĠØ¸Ø§ÙĩØ±ÙĬ": 86144,
  "ĠØ§ÙĦØ§Ø¶Ø·Ø±Ø§Ø¨Ø§Øª": 15039,
  "Ġlogistical": 89262,
  "ĠØ¹ÙĦÙģ": 79089,
  "ĠÙħØŃØªØ§Ø¬Ø©": 16570,
  "rafts": 27282,
  "15": 10900,
  "ÙĬØ®": 29501,
  "Ø§Ø³ØªØºÙĦØ§ÙĦ": 43310,
  "ĠÙĪØ¨ÙĬÙĪØ²Ø¹": 57276,
  "ĠØ§ÙĦØ³Ø§ÙĬØ¯Ø©": 11781,
  "ĠØªÙĨØ´ÙĬØ©": 67780,
  "ĠÙĩÙĪØ¨Ø§Ø±": 78947,
  "ÙħØ§ÙĩÙĬ": 65574,
  "ĠChampions": 17851,
  "ĠÙĪÙģØ§ÙĨØ²ÙĬØªÙĬ": 63648,
  "ĠØ¨Ø§ÙĦÙħÙĪØ§Ø¯": 52417,
  "Ġscaling": 85494,
  "Ġflamb": 86335,
  "ĠØ§ØŃØ¯Ø«": 10268,
  "Stiffness": 86538,
  "ĠØŃØ³Ø§Ø³Ø©": 20983,
  "ĠTheft": 16376,
  "ĠÙģØ±Ø¹ÙĬ": 22444,
  "ĠKentucky": 50293,
  "ĠØ¨Ø§ÙħØªÙĦØ§Ùĥ": 51822,
  "ĠRumble": 44381,
  "Limit": 94372,
  "ĠPrayer": 22301,
  "ĠØªØµØ¯Ø±Ùĩ": 61564,
  "ĠÙĪØ§ÙĦØ¨ÙĬØ±Ø©": 65348,
  "ĠSphinx": 26684,
  "ĠÙĦØ§Ø¹Ø§Ø¯Ø©": 16684,
  "ĠBus": 49639,
  "Ġharvested": 61719,
  "butter": 76497,
  "pes": 54078,
  "ĠØ§ÙĦØ§ØºÙĨÙĬØ§Ø¡": 25834,
  "ĠØ§ÙĦÙħÙĪÙĬØ¯": 48457,
  "ĠÙĪØ§ÙĦØ°ÙĥÙĬØ©": 90085,
  "ÙĥØ³ÙĪØ±Ø©": 50098,
  "ars": 1186,
  "ĠØ§ÙĦØ¬Ø§Ø±": 39927,
  "haz": 35960,
  "alle": 78315,
  "ĠÙĦÙĦÙħÙĬÙĦÙĪØ¯Ø±Ø§ÙħØ§": 98132,
  "ĠPs": 29915,
  "Ġtypical": 30237,
  "pieces": 94508,
  "Ø¯Ø±Ø§Ø¬Ø©": 66703,
  "mph": 64368,
  "ĠÙĪØ¬Ø³Ø¯ÙĬØ§": 75208,
  "Ġsubspecies": 52197,
  "ĠSecondly": 27574,
  "ĠØ§ÙĦØ±ÙģÙĬØ¹Ø©": 49514,
  "ĠUNES": 40635,
  "ĠØ§ÙĦØ´Ø¬Ø§Ø¹Ø©": 33963,
  "Ġhermaph": 87364,
  "ĠÙĨØ´Ø·Ø©": 25829,
  "ĠÙĨØ¹Ø§ÙĦØ¬": 45576,
  "ĠÙĪØªÙĤÙĦØ¨Ø§Øª": 56005,
  "ĠØ¬ÙĦÙĪØ¯": 60506,
  "ĠØ§ÙĦØ§ØŃÙĦØ§Ùħ": 26860,
  "ĠÙĪØºØ±Ùģ": 71081,
  "ĠØ¨Ø§ÙĨØªØ´Ø§Ø±": 58138,
  "Ġdistribut": 7293,
  "ĠÙĪØ³Ø§ÙĬØ¯": 85221,
  "ĠØ§Ø³ØªÙĪ": 43759,
  "Ġisoglosses": 78776,
  "Ø´Ø®Øµ": 54615,
  "Ø¨Ø§Øª": 553,
  "ires": 5385,
  "Ġtart": 27875,
  "ĠVirus": 61272,
  "vability": 76847,
  "ĠØ§ÙĦØªØµÙĪØ±": 40748,
  "ĠØ§ÙĦØ§ÙħÙĪØ§Øª": 67417,
  "ĠØ§ÙĦØ¨ØŃØ«ÙĬØ©": 51325,
  "ĠÙĪÙĪÙĦÙģØ¬Ø§ÙĨØ¬": 94259,
  "vated": 76844,
  "ĠØ§ÙĦÙĨØ®Ø§Ø¹": 72194,
  "Ġvariable": 14680,
  "ĠØ®ÙĦØ§ØµØ©": 67497,
  "ĠÙĪØ§Ø¹ØªÙħØ§Ø¯": 90908,
  "ĠØ§ÙĦØ¨Ø§Ø±Ø²Ø©": 9620,
  "ĠÙĬÙĤØ¯ÙħÙĪØ§": 35210,
  "Ġergo": 74840,
  "Ġnit": 25369,
  "ĠÙħØ±Ø¨Ø¹ÙĬÙĨ": 60689,
  "ĠFe": 12401,
  "Ġbricks": 55107,
  "ĠØ§ÙĦØ¹Ø·ÙĦ": 48859,
  "ĠÙĪØ§Ø³ÙĩÙĦ": 20147,
  "ØºØ·": 1247,
  "ĠØªÙĪØ¯": 48497,
  "Ġslender": 59640,
  "gest": 2146,
  "Ġarteries": 44595,
  "Ġtessellation": 99381,
  "ĠCy": 11278,
  "ĠÙħÙĪÙĥØ¯": 26383,
  "Ø§ÙĦÙĩÙĬØ±ÙĪØºÙĦÙĬ": 87125,
  "ĠFado": 82679,
  "Representative": 53169,
  "ĠÙĥÙħØ±ÙĥØ²": 45383,
  "Ġbirds": 11002,
  "ĠØ¬ÙĪÙĬØ¯ÙĬ": 94157,
  "Ġkelp": 56497,
  "ĠÙĬÙĤØ¯Ùħ": 7111,
  "ĠÙĪØªØºÙĬÙĬØ±": 11611,
  "entialism": 11495,
  "ĠØŃØµÙĦØ´": 70062,
  "ĠØ§ÙĦØ§Ø±ØºÙĨ": 82975,
  "ĠØ§ÙĦØ³ÙĪÙĦØ§Ø±": 96841,
  "ĠØ§ÙĦÙħØªØ§ØµÙĦ": 67951,
  "ĠÙĪÙĬØŃØ¯Ø¯": 32617,
  "Ø¯Ø¹ÙĪØ©": 32483,
  "ĠÙĦÙĦØ²Ø±Ø§Ø¹Ø©": 26575,
  "ĠÙħÙĪØ«Ø±ÙĬÙĨ": 52595,
  "ĠÙĤØ§ÙĬØ¯Ø§": 55513,
  "ĠØ§ÙĦØ¨ÙĬÙĪÙĦÙĪØ¬ÙĬØ§": 67173,
  "ĠÙħØ¹Ø¯ÙĦØ©": 43768,
  "ĠÙĦÙĦØ¹Ø¬ÙĦ": 86557,
  "Ġbir": 4159,
  "iler": 43782,
  "Ø§ÙĦØŃØ¨ÙĪØ¨": 57819,
  "ĠÙĤØ¶Ø§Ø¹Ø©": 51992,
  "ĠÙĪØ§ÙĦØ«Ø§ÙĦØ«": 53471,
  "Ø§ÙĦØªØ¹Ø±ÙĬÙģ": 22627,
  "ĠØ§ÙĦÙĨÙħØ·ÙĬØ©": 11367,
  "ĠÙĬØ¨ÙĤÙĪØ§": 33696,
  "ĠÙĨÙĤØ¹": 68571,
  "CRT": 41842,
  "ĠØ¨ØªØŃØªØ±ÙĤ": 85007,
  "ĠÙĪÙħØªØ´Ø§Ø¨ÙĥØ©": 81873,
  "ÙĩØ§ÙĪØ±": 65449,
  "Ø§ÙĪÙĨØ³ÙĨ": 87527,
  "ØŃØ±Ø³": 20166,
  "ĠÙĪÙĪØ¬Ø¯": 77640,
  "gramming": 7440,
  "IFO": 47321,
  "erred": 26427,
  "uch": 4190,
  "ĠØ§ÙĦØ§ÙĬÙĤ": 10279,
  "ĠÙħÙħÙĬØ²Ø§ØªÙĩØ§": 71067,
  "ĠÙĪØ§ÙĦØ¯Ø¹Ø§Ø±Ø©": 93207,
  "Ġdictated": 93625,
  "Ġpresses": 87752,
  "ĠØ§ÙĦÙħÙĪÙĤØª": 24005,
  "hattan": 20623,
  "ĠÙĪØ§ÙĦØ§ÙĥÙĦ": 19276,
  "Ġhaven": 55689,
  "Ġalternating": 38345,
  "ĠÙĩØ§ÙħÙĦÙĬÙĨ": 61285,
  "ĠModel": 14489,
  "Ø¹ÙĨØ¯ÙħØ§": 17093,
  "ÙģÙĪ": 4053,
  "ĠÙħØ±Ø¨ÙĬ": 17784,
  "ÙĬÙĦÙĪØ³": 56194,
  "Ġheuristics": 56919,
  "Ø§ÙĦÙĪÙĨ": 76989,
  "ĠRubin": 73939,
  "Ø§ÙĦÙĤØ±": 17567,
  "Ġ1621": 70830,
  "Ġprotein": 12283,
  "hio": 44530,
  "Ø§ÙĦØªÙĤ": 8764,
  "ĠÙħÙĨÙĤØ±Ø¶": 30953,
  "ÙĬØ³ÙĦØ§Ùģ": 57127,
  "ĠÙĪØ§ÙĪØ¶ØŃ": 92698,
  "ĠÙĦÙĦØ¯ÙĬÙĨØ§ÙħÙĬÙĥØ§": 15918,
  "ÙĩÙĬÙħÙĬØ©": 36753,
  "ĠÙĨÙħØª": 79150,
  "ĠLate": 34266,
  "ĠÙĩÙĪØ±ÙĨØ±": 61903,
  "ĠØ§ÙĦØ¯ÙĥØ§ØªØ±Ø©": 44047,
  "Ø´Ø¬Ø§Ø¹": 78021,
  "erned": 58045,
  "ĠLobbying": 37035,
  "ĠÙĪØªØµÙĨØ¹": 88592,
  "ĠØ§ÙĦØ§Ø¹ÙĦØ§Ùħ": 3636,
  "Creators": 10896,
  "ĠÙĩØ§Ø±Ø§Ø¨Ø§": 90271,
  "ĠTasmanian": 63315,
  "ĠÙĪØ§Ø¹Ø¶Ø§ÙĬÙĩ": 71350,
  "ĠÙĪØ§ØŃØªÙģØ§ÙĦØ§Øª": 40517,
  "ÙĥÙĪÙĦØ²": 38204,
  "Ø§ÙĨØ´ÙĬ": 64904,
  "ĠÙĪØªÙĨØ¸Ùħ": 51005,
  "adiator": 42291,
  "Sho": 42774,
  "ilitarian": 88646,
  "ĠØ¨ØªØ´Ø¬Ø¹": 16915,
  "ĠÙĦÙĦÙĥÙĨÙĬØ³Ø©": 33849,
  "Ø§Ø¡ÙĦØ©": 12347,
  "ĠIntegrity": 61240,
  "agarin": 49371,
  "Ø§ÙĬØ²ÙĪÙĨØ²": 59485,
  "maph": 76701,
  "Purg": 64063,
  "Ø§ÙĦØ¹ÙĦ": 10905,
  "amet": 65889,
  "ĠÙĪØ§ÙĦØŃÙĤÙĪÙĤ": 68417,
  "ĠØ³ÙĨØ¯Ø§Øª": 65937,
  "reeze": 28591,
  "usk": 31566,
  "ĠIncredibles": 100590,
  "Ġamortization": 68845,
  "ĠØ§ÙĥØª": 20035,
  "ĠØŃØ§Ø³Ø©": 33836,
  "Ġprogrammers": 30930,
  "ĠØ§ÙĦØ¨Ø±Ø§ÙħØ¬": 3950,
  "rad": 904,
  "heads": 43106,
  "ĠØ¬Ø³ÙħÙĥ": 51067,
  "ĠØ§Ø¹Ø±ÙģÙĩØ§": 62129,
  "Bet": 53704,
  "ĠÙĦÙĥÙĩØ±Ø¨Ø§Ø¡": 88820,
  "oxy": 32448,
  "Ġhammers": 52954,
  "thromb": 81291,
  "Ailuropoda": 99136,
  "Ø§ÙĦØ±Ø§ÙĪØªØ±": 51266,
  "EF": 21202,
  "ĠWIMPs": 75664,
  "Ø§Ø¹ÙĪÙĨ": 55082,
  "ĠØªØ³ÙĦØ³ÙĦÙĬ": 45087,
  "ĠØ§ÙĪÙĦØ¯ÙĪÙģØ§ÙĬ": 31018,
  "ÙĪÙĤØ¹": 1288,
  "uff": 13440,
  "ĠØµÙĪØ±ÙĩØ§": 21730,
  "Ġinspiring": 87133,
  "ĠØ¨ÙĬÙĨÙĩÙħØ§": 23207,
  "Ø§Ø±ØªÙĩØ§": 31429,
  "inator": 43111,
  "ĠØ§ÙĦØ±ÙĪÙĬØ§": 84330,
  "ĠÙĤÙĬÙĪØ¯Ø§": 85779,
  "ĠØ§ÙĦÙħÙĪØ«Ø±Ø§Øª": 35527,
  "ÙĦÙĬÙĨØº": 16888,
  "Ġhis": 1319,
  "ĠÙĪØ§ÙĦÙħÙĩÙħØ©": 66921,
  "ĠÙĪØ§ÙĦÙħØ¯Ø§Ùģ": 81929,
  "Ġpretz": 34501,
  "Ø§ÙĦÙĦÙĬÙħØ±ÙĬÙĥ": 97987,
  "ĠØ§ØºØ§ÙĨÙĬÙĩÙħ": 30842,
  "ĠÙħØªØªØºÙĬØ±Ø´": 84693,
  "ĠØ§ÙĦØ¬ÙĩØ§Ø¯": 39930,
  "venture": 10763,
  "Ġwelfare": 25246,
  "ĠStroustrup": 100301,
  "ĠÙĥØ¨ÙĬØ±Ø©": 1191,
  "Ġrecognize": 16548,
  "Ø§ÙĦØ¨Ø·Ø§Ø±ÙĬØ©": 66634,
  "Ø±ØŃÙĬØ©": 2204,
  "ĠÙĪØ§ØªØ³ÙĪÙĨ": 17938,
  "Ġampl": 14688,
  "ĠØ¨ØªÙħØ¯": 70299,
  "page": 64404,
  "Ġoutlet": 68815,
  "ÙĤØ§ÙĬÙħØ©": 31289,
  "ØªØ´Ø±ÙĬØŃ": 82506,
  "Ġimmutable": 98463,
  "environments": 78230,
  "ĠØ¯Ø§ÙĨÙĥ": 55144,
  "Ġqueen": 21648,
  "vea": 40920,
  "ĠØ§ÙĦÙħØ±Ø§ÙĪØŃ": 83639,
  "Ġmanslaughter": 55125,
  "ĠØ§ÙĦÙħÙĩÙĬÙħÙĨØ©": 18605,
  "ĠÙħÙĨÙĤÙĪØ´": 61358,
  "ĠÙħØ±ÙĬÙħ": 48350,
  "ÙħØ§ÙĪØ³ÙĬÙĨ": 79211,
  "utl": 80185,
  "ĠÙĦÙĦØ´ØŃÙĨ": 86961,
  "ÙĨÙĬÙĥØ§": 81219,
  "}": 97,
  "nese": 64393,
  "ÙħØ¬ÙĪÙĦÙĨÙĬØ±": 95967,
  "ĠÙĤØ§ØµØ¯ÙĬÙĨ": 99747,
  "Pots": 76281,
  "ĠResources": 22833,
  "Hannah": 75322,
  "DNA": 12715,
  "ĠÙĪØªØ¹Ø±ÙĬÙģ": 69209,
  "Ġmonth": 32463,
  "EO": 33357,
  "ĠØ¨ÙĬØŃØ³ÙĪØ§": 61712,
  "ĠØ²Ø¹ÙĦØ§ÙĨ": 98775,
  "ĠØ§ÙĦØªØ¹ÙĦÙĤ": 16298,
  "ĠØªØ²": 5635,
  "ĠÙħÙĨØŃÙĨÙī": 45770,
  "459": 47891,
  "Ø³ÙĬØ±Ø¬": 17002,
  "Ø§ÙĦØ¬Ø¯": 86149,
  "ĠCasablanca": 96283,
  "ĠSingin": 72823,
  "Ġflap": 69106,
  "ĠOnly": 32834,
  "ĠSensors": 96856,
  "ĠÙĪØ¸ÙĬÙģ": 7723,
  "Ġlifestyle": 51919,
  "Ø§ÙĦÙĩÙĪÙħÙĪ": 87127,
  "ĠLeading": 51133,
  "Ø§ÙĦÙħØ³Ø§Ø¹Ø¯ÙĬÙĨ": 98178,
  "Ġtexts": 15852,
  "ĠÙĦÙĦØ§ØŃØªÙĬØ§ÙĦ": 71251,
  "Ġdetect": 9738,
  "Ø«ÙĬØ³ÙĬ": 65510,
  "ĠOthniel": 84104,
  "CJD": 53728,
  "maize": 88909,
  "ĠØ§ÙĨØŃ": 4557,
  "ĠØ¨ÙĨØ³ØªÙĩØ¯Ùģ": 94871,
  "pin": 35971,
  "Ø³ØªØ®Ø¯ÙħØª": 81203,
  "ĠÙģØ±Ø§ÙĨÙĥÙģÙĪØ±": 90016,
  "Ø¯ÙħØ©": 2676,
  "sp": 6350,
  "ĠØ§ÙĦØ®ÙģØ§Ùģ": 40142,
  "ĠÙħØªØ²ÙĪØ¬Ø©": 84686,
  "ĠÙĪÙħÙģÙĬÙĩ": 29958,
  "ĠÙĥØ§Ø³Ø±": 71053,
  "ĠLogitech": 72716,
  "ischian": 31050,
  "ĠViking": 74973,
  "Ø§ÙĦØ§ÙħØªÙĬØ§Ø²": 90793,
  "ĠØ¨ÙĬØ®ÙĨÙĤ": 90379,
  "ĠGraphix": 94192,
  "ĠØ§ÙĦÙĥÙĩÙģ": 32534,
  "ĠØ§ÙĩÙĦÙĬØ©": 60707,
  "ĠØ§ÙĦØ§ØµØ·ÙĨ": 3164,
  "ĠÙĪØ§ÙĦØ´Ø±Ø§ÙĥØ§Øª": 93616,
  "Ġretrieved": 94909,
  "ĠØ§ÙĦØ¯ÙĦØ§ÙĦØ©": 38647,
  "ĠØ§ÙĦØ¨Ø¯Ø§ÙĬÙĬØ©": 14162,
  "ĠØ§ÙĦÙĦØ·ÙĬÙģ": 81698,
  "Ġcotyled": 33644,
  "K": 48,
  "Pet": 33397,
  "ĠØ§ÙĦØ¨ÙĦ": 1822,
  "ĠØ¨Ø§ÙĦØªØ®": 43896,
  "ÙħØ§Ø±ÙĦÙĪÙĨ": 57358,
  "appositive": 67472,
  "ĠÙĪØ§ÙĦØ¯ÙĬÙĨØ§Ø±ÙĬ": 93433,
  "ĠÙħØµØºØ±Ø©": 37277,
  "institutional": 62849,
  "Ø«ÙħØ±": 5042,
  "gravitation": 74017,
  "ĠÙĦÙĦØ¬Ø³Ùħ": 11687,
  "ĠDur": 40339,
  "Ø±ÙĪØªÙĩ": 65992,
  "Ø§ÙĦÙĨÙĬØ§Ø¨Ø©": 74456,
  "ĠØ¨ØªØ¹ÙĦÙħÙĥ": 27641,
  "ĠSerial": 71893,
  "Ġsilencing": 89294,
  "ĠSamurai": 46621,
  "insects": 86970,
  "ÙħÙĬÙĨÙĬ": 44596,
  "ĠØ§ÙĦØ³ÙĬÙĨÙħØ§ÙĬÙĬ": 13661,
  "ilem": 23480,
  "ĠØªØ´ÙģØ±": 56975,
  "ĠØªØ³ÙĪÙĤ": 57971,
  "ĠØªÙĩØ¬ÙĬ": 90603,
  "Ø³ÙĬ": 393,
  "Ø§ÙĦØªÙħØ«ÙĬÙĦ": 27444,
  "ĠLASER": 67309,
  "Ġtrapping": 24842,
  "Ġhardness": 22699,
  "ĠAlbedo": 58546,
  "ØºÙĬÙĬØ±": 1644,
  "Ø±ÙĬÙĥØ³": 19940,
  "ĠØ§ÙĦÙħØºØ±Ø¨ÙĬ": 54560,
  "ĠBankruptcy": 61478,
  "ĠSaty": 71581,
  "ĠØªØµØ±ÙģØ§ØªÙĩ": 60059,
  "ĠÙĪØ§ÙĦØªÙĨÙĪØ¨": 27244,
  "ĠØ¨ØªØ¯ÙĪØ¨": 19135,
  "ÙĬÙĨÙĪØ§": 54837,
  "Ġskillful": 61820,
  "ĠÙĤØ¶Ø§ÙĬÙĬØ©": 18208,
  "areas": 83462,
  "Ġmiso": 71127,
  "ĠØ§ÙĦÙĦÙĪÙħ": 81685,
  "Ġheads": 30078,
  "phones": 21638,
  "Ġtennis": 15478,
  "ĠÙĪØ§ÙĦØ§Ø³ÙħØ¯Ø©": 94529,
  "ĠÙĦÙĦØ§Ø´Ø®Ø§Øµ": 24693,
  "ĠØ±Ø«Ø§Ø¡": 49275,
  "agl": 49368,
  "ĠØ¨ÙħØ¹Ø§Ø¨": 68308,
  "cidental": 58994,
  "ĠØ§ÙĦÙĩÙĪÙĦÙĪØ³ÙĬÙĨ": 60945,
  "ĠØ§ÙĦØ¹ÙĪÙħ": 65659,
  "ĠLaden": 67314,
  "Printing": 64088,
  "Ø¹Ø±": 1327,
  "ĠØ¨Ø¨ÙĨÙĬ": 43071,
  "ĠØ´ÙĪÙĥØ©": 80444,
  "ĠØªØªÙĪØ§ÙģÙĤ": 43217,
  "employment": 29860,
  "intosh": 37363,
  "ĠØªØŃØ±ÙĬÙģ": 40248,
  "olescence": 43581,
  "ĠØ§ÙĦÙĦÙħ": 21480,
  "Ġexert": 13779,
  "Ġminimizes": 41638,
  "digital": 76555,
  "ĠØ¨Ø§ÙĦÙħØ´": 20267,
  "Ø§Ø±Ø¹": 4055,
  "ĠÙħÙĪÙĨØªÙĬØ³": 28976,
  "Ġpredominate": 75758,
  "qual": 36886,
  "ĠMelbour": 74352,
  "âĤ": 3583,
  "Ġacquires": 60632,
  "ĠÙĪØ±ØºØ¨Ø©": 41022,
  "ĠØ§ÙĦØµØŃØ©": 4951,
  "ĠØ¨ØªØªØŃÙĤÙĤ": 91473,
  "ĠÙĪÙģØ±ÙĬØ¯Ø±ÙĬÙĥ": 69448,
  "ØŃÙĬÙĦØ©": 49920,
  "ØŃÙĬØŃÙĬØ©": 83259,
  "ubles": 84025,
  "ĠØ¨ØŃÙĦÙĤØ§ØªÙĩ": 63629,
  "Ø§ÙĦÙĪÙĨÙĬ": 54186,
  "Ġfinality": 87339,
  "Ġdivergent": 93591,
  "ĠÙĦÙĬÙħØ§": 34334,
  "ĠÙĪØ±ÙĪØ§ÙģØ¯Ùĩ": 60386,
  "Fisher": 42702,
  "eedback": 38641,
  "ÙĪÙĥÙĪ": 56514,
  "ĠÙĪØ§ÙĦÙĪØ§Ø¶ØŃØ©": 72072,
  "ĠÙĪØ§ÙĦØ®ÙĪØ§Ø¯Ùħ": 69471,
  "ĠÙĦØ¹Ø¯Ø©": 12671,
  "ĠChem": 81012,
  "ib": 925,
  "ÙĪØ§Ø¶": 36050,
  "Ġunchanging": 83400,
  "heds": 77724,
  "ĠØ¶ÙħÙĨÙĩØ§": 60799,
  "ĠÙĥØ±ÙĬØ§Øª": 25231,
  "ĠBloem": 89163,
  "ĠÙĦÙĦÙĤÙĪØ§Ø¹Ø¯": 87238,
  "ĠNino": 17280,
  "Brick": 75930,
  "Ġseaw": 28438,
  "commonly": 96952,
  "ĠØ§ÙĦÙĤØ¯ÙĬØ³Ø©": 32185,
  "ĠØµÙģÙĤØ§Øª": 90319,
  "ÙĪØ¶Ø¹ÙĬØ©": 34833,
  "Ø±Ø²ÙĩØ§": 45835,
  "ĠPennyworth": 73702,
  "Ø§ÙĥÙĦÙĩØ§": 84119,
  "ĠØ§ÙĦØªÙĨÙĤÙĦ": 20144,
  "ĠØ§ÙħØ±ÙĬÙĥÙĬØ©": 13849,
  "Ġsumm": 10039,
  "ĠÙĪØ±ÙĤÙĩØ§": 90701,
  "ĠØ§ÙĦØ·Ø¨ÙĤ": 31785,
  "Ġconcentration": 13673,
  "ĠØŃÙĤÙĥ": 51435,
  "Ø¶Ø§Ø¯": 43416,
  "ĠÙĦØ§ÙĬÙĦ": 43234,
  "ĠØ§ÙĦØ§Ø³ØªÙĪ": 5939,
  "Ø®ÙĦÙĬØ©": 44600,
  "Ġproportionally": 61349,
  "ĠExistence": 69082,
  "ĠBrownian": 72847,
  "ĠØ§ÙĦØ§Ø´ÙĩØ±": 14662,
  "ĠÙĪØªØ¶Ùħ": 25405,
  "Ø³ØªÙĪØ±ÙĬ": 21385,
  "reduction": 36154,
  "ÙĥÙĪÙģØ§": 36069,
  "ĠØ§ÙĦÙĪÙĬ": 54257,
  "ĠÙĥØ§Ø¯": 78801,
  "ØªÙĬÙĥØ§": 25498,
  "missioning": 72155,
  "Ø§Ø¹Ø§Ø¯Ø©": 4686,
  "Ø±ÙģÙĬØ©": 5418,
  "ughan": 57068,
  "Ġlentils": 62586,
  "ĠØ³ÙģÙĬÙĨØ©": 17684,
  "ĠØ¨Ø§ÙĦØ§ÙĤÙĪØ§Ø³": 31090,
  "Ġslaver": 30619,
  "Ø§ÙĦØ§Ø¹ØªÙħØ§Ø¯": 46337,
  "Ø§Ø¹Ø§ÙĤØ©": 55084,
  "ĠÙĦØ§Ø¶ÙģØ§Ø¡": 53018,
  "ĠÙĪØ§ÙĦÙĦØº": 59748,
  "ĠÙĬÙĦØ²Ùħ": 65301,
  "ĠØ§Ø¹Ø§ÙĤØ§Øª": 68297,
  ")**).": 68797,
  "ĠÙĦÙĦØŃÙĥÙĪÙħØ§Øª": 86073,
  "ÙħØ³ØªØ®ÙĦØµ": 92861,
  "agolitic": 81171,
  "ĠØ§Ø¬ØªÙħØ§Ø¹": 3176,
  "ĠØ§ÙĦÙħÙĪÙĬØ¯ÙĬÙĨ": 62449,
  "ĠÙħØªØ·Ø§Ø¨ÙĤ": 42118,
  "ĠPic": 22299,
  "ĠArafat": 98773,
  "ĠÙĪØ§ÙĦØ¬ÙħÙĩÙĪØ±ÙĬØ©": 72991,
  "ĠØ³Ø¨Ø±ÙĬÙĨØºØ³ØªÙĬÙĨ": 75034,
  "ĠÙĬØ§Ø¨Ø§ÙĨÙĬØ©": 26201,
  "ĠÙĪØ§ÙĦØªÙĪØ«ÙĬÙĤ": 59353,
  "ĠØ§ÙĦÙħÙģÙĬØ¯": 77886,
  "ĠÙĦÙĤÙĬØ§Ø³": 6632,
  "¥ŀ": 42911,
  "oppen": 81211,
  "Ġpne": 36268,
  "mantle": 95960,
  "ĠÙĦÙĦÙħÙħØ«ÙĦÙĬÙĨ": 40576,
  "Invisible": 67931,
  "Ø³ÙĬÙĥ": 80409,
  "Increasing": 67928,
  "ĠØ§ÙĦÙĨØ³Ø§ÙĬÙĬØ©": 30500,
  "Ġpipes": 27971,
  "Ø§ÙĦÙĥÙĬÙĦØª": 53376,
  "ĠØ¬ÙĦÙĬÙĥÙĨ": 97641,
  "Ø§ÙĦØ§Ø®ÙĪØ§Øª": 59917,
  "Ġslab": 59639,
  "ĠØ³ÙĬØ±ÙĬÙĨØ§": 51876,
  "Ġcompil": 17274,
  "ĠÙĪØ§ÙĦØ§ÙĦÙĪØ§ÙĨ": 22125,
  "ĠDetection": 53266,
  "ĠØ²Ø§ÙĬØ¯Ø©": 56088,
  "ĠÙĪÙħØ³Ø§ÙģØ©": 60426,
  "ĠÙĪØ§ÙĦØ§ØªØŃØ§Ø¯": 22704,
  "ĠArchean": 98959,
  "Ġballet": 16544,
  "ĠÙħØ¹Ø§Ø±Ø¶": 55589,
  "Ġlooting": 58960,
  "Ø§ÙĦØ²ÙħØ±Ø©": 77084,
  "ĠÙĦÙĦÙģØ±Ø¯": 22186,
  "ĠCampo": 96055,
  "ĠApps": 88947,
  "Ø´ÙĬÙĨØ¬": 78016,
  "ĠÙĪÙĬÙĨØŃØª": 70864,
  "ĠØ¨Ø·ÙĦÙĬÙħÙĪØ³": 85852,
  "ĠThai": 31989,
  "Ø§ÙĦØ·Ø¨Ø§Ø¹Ø©": 77074,
  "ĠØ§ÙĦÙħØ¬Ø§Ø²Ø©": 83185,
  "ĠØ§ÙĦÙħÙģØ±ÙĪÙħ": 68936,
  "speaking": 91409,
  "ĠÙĬØŃØ¨Ø³": 44895,
  "ĠØ¨ØªØªØºÙĨÙī": 68542,
  "Ġsacrifice": 38810,
  "Ġretina": 59398,
  "ĠØ¨ÙĥØ±Ø©": 77558,
  "Management": 10315,
  "ĠØ§Ø³ÙĥÙĪØ¨Ø§Ø±": 99784,
  "kbps": 54042,
  "Ġext": 2478,
  "amine": 14581,
  "ventory": 83422,
  "RP": 7437,
  "ĠØŃØµÙĦØª": 7766,
  "ĠDys": 67246,
  "ĠSmaug": 80748,
  "Ġsource": 3077,
  "Ġphen": 27968,
  "Ġbroadcast": 46206,
  "ĠØ§ÙĦÙħØ¹ÙħÙħ": 81890,
  "Ġwriters": 28761,
  "Ġcheesemaking": 75258,
  "cia": 29821,
  "Teen": 53916,
  "ĠÙĬÙĨÙĩØ¶": 84892,
  "rainian": 85339,
  "ĠØ§ÙĦÙģØ¹ÙĦÙĬ": 9396,
  "ĠBar": 13049,
  "ĠÙĪØ¸Ø§ÙĬÙģ": 4774,
  "Ġcontradiction": 29274,
  "Ø§ÙĦØªØ·Ø¨ÙĤ": 57776,
  "ĠLanguage": 13301,
  "varez": 29493,
  "ĠØ¨ØªØ´Ø¹": 58661,
  "ØªØŃØ§ÙĤ": 81580,
  "ĠBran": 44301,
  "ĠØªØªØ¨Ø±Ø¹": 54666,
  "Ġunders": 71464,
  "ĠÙħÙĪÙĨÙĬÙĥØ§": 77480,
  "ĠÙĪØ§ÙĦØ§Ø°ÙĨ": 78692,
  "ĠÙĩÙĪØ§ÙĬØ§Øª": 78945,
  "ĠKamal": 84611,
  "Ġorganizing": 15001,
  "ĠÙĪØ±Ø®Øµ": 58444,
  "Ġdiffers": 50081,
  "ĠØ§ÙĦÙĨØµÙģÙĬØ©": 34992,
  "Ø§ÙĦÙĥÙĬØ§Ø±ÙĪØ³ÙĥÙĪØ±ÙĪ": 95507,
  "ĠØ§ÙĦØ²ÙĨØ¬Ø§Ø±": 53497,
  "ĠÙĦÙĥØ°Ø§": 70343,
  "ĠØ§ÙĦÙĨÙĬÙĪØªØ±": 9503,
  "ĠÙģØ§Ø±Ø³": 18140,
  "ĠØ§ÙĦØ³ÙĪÙĬØ³Ø±ÙĬ": 46959,
  "Subjects": 10864,
  "ĠØ¨Ø§ÙĨÙģØµØ§ÙħÙĩ": 63628,
  "ĠÙĪÙĨØ§ÙĬÙĥÙĬ": 84492,
  "ÙĬØ¹ÙĨÙĬ": 5459,
  "ĠØ¨ÙĬØªØ¨Ø®Ø±": 65585,
  "ĠÙĪØ§ÙĦØ§Ø²Ø¯ØŃØ§Ùħ": 91233,
  "onservation": 5521,
  "Ø¹Ø§Ø±ÙĬØ©": 77399,
  "Ġforeclose": 88559,
  "ĠOrder": 70972,
  "ĠÙģØ·Ø±ÙĬØ©": 27917,
  "ĠØ§ÙĦØªØ«ÙĨÙĬØ©": 52724,
  "istance": 15554,
  "ĠÙħØºØ°ÙĬØ©": 77462,
  "ĠÙĦÙĦÙĬÙĪ": 78165,
  "ĠØ§ÙĦØ§Ø´ÙĪØ±ÙĬØ©": 57441,
  "ĠØŃØ¨ÙĬØ¨": 65732,
  "ĠÙħÙĪØ²Ø¹Ø©": 57039,
  "ĠÙĪØ¨ÙĬÙĬØªÙĩØ§": 40566,
  "ĠÙĪØªÙĦÙģ": 36726,
  "ĠeBay": 48900,
  "ĠØ§ØªÙħÙĬØ²Øª": 63242,
  "ĠSunnah": 45644,
  "Ġsolidified": 70934,
  "Fallingwater": 75056,
  "ASD": 72237,
  "ØºØ§ÙĨØ¯ÙĬ": 79016,
  "ĠPrior": 29916,
  "ĠØŃØµÙĨ": 92949,
  "ĠØ¨ØªÙĦØ¨ÙĬ": 41834,
  "ĠØ§ÙĦØªØ®ÙĪÙĬÙģ": 88691,
  "Ġcompatibility": 63058,
  "Ġpap": 31445,
  "ĠÙĩØ¶Ùħ": 11236,
  "ĠÙĦÙĦØ§ÙĨØ²ÙĬÙħØ§Øª": 59131,
  "ĠØ¨ØªØ±ØªØ¨Ø·": 15762,
  "ĠØ§ÙĦØ¨Ø±ÙĨØ§ÙħØ¬": 4256,
  "Ġproofing": 92415,
  "ĠKings": 37329,
  "ĠØ¨ÙĬØ±Ø³Ùħ": 40730,
  "aiting": 23929,
  "ĠØ§ÙĦÙħØ¹Ø±ÙģØ©": 3458,
  "ĠSunny": 59044,
  "Ġdismissal": 97193,
  "ĠØ§ÙĦØ®ÙĦØ§Ø¨Ø©": 69031,
  "ĠÙĪØªØ§ÙĥÙĬØ¯Ùĩ": 99916,
  "ĠÙĨØµÙĬØ©": 30512,
  "ÙĨØ§Øª": 9412,
  "ĠÙĪØ§ÙĦØ§Ø¹Ùħ": 78652,
  "ĠØ§ÙĦØ§Ø³ÙĥØªÙĦÙĨØ¯ÙĬØ©": 11536,
  "ĠSamothrace": 38451,
  "Ġdisplacements": 97316,
  "ĠÙĦÙĦØ²ÙĩØ±Ø©": 38388,
  "Ġembodies": 92301,
  "Ġincreasingly": 29002,
  "Zone": 76466,
  "elle": 31612,
  "ĠÙĪØ§ÙĦØ¬Ø§ÙģØ©": 50683,
  "ĠØ¨Ø§ÙĦØ¯ÙĪØ±Ø§ÙĨ": 33975,
  "ÙĦØ§ÙħØ¨Ø±Øª": 57143,
  "Ġharvesting": 35646,
  "Atticus": 72265,
  "ĠØŃÙĥÙħÙĩ": 38132,
  "ÙĥÙī": 64710,
  "ĠØ§ÙĦÙĨØ¨Ø§ØªÙĬ": 12623,
  "ERT": 63863,
  "Ø§ÙĦØ«ÙĬÙĪØ¯ÙĬØ³ÙĬØ§": 88430,
  "ĠØªØ¯ÙĬØ±": 19575,
  "ĠØ±Ø§Ø¨Ø§": 43960,
  "Ø¶Ø¹": 1854,
  "Ø§Ø¨ØªÙĬÙĨ": 48881,
  "Ø§ÙĦÙĥØ§ÙĬÙĨØ§Øª": 41190,
  "ĠÙĪØ§ÙĦØ¹Ø¯ÙĦ": 58034,
  "Ø±ÙĪÙĨÙĥØ³": 60976,
  "Ġ191": 6815,
  "ĠÙĪØ³ÙĪØ±ÙĬØ§": 37422,
  "SRI": 92679,
  "Ø³ÙħØªØ±ÙĪØ¨ÙĪÙĦÙĬØªØ§ÙĨ": 56315,
  "ĠØ§ÙĦØ§Ø±ØªØ¨Ø§Ø·": 16416,
  "governmental": 47510,
  "Ġjersey": 34570,
  "ĠØ¬Ø¯ÙĦØ§": 46920,
  "ĠØ¨ÙĬØ³ÙĬØŃ": 55198,
  "Ø§ÙĦØªÙħÙĥÙĬÙĨ": 90841,
  "Ø§ÙĦÙģÙĪÙĦØ§Ø°": 53215,
  "Ġrealistic": 18471,
  "ĠImplementing": 62805,
  "oob": 76722,
  "ĠØ§ÙĦØ®Ø·": 2578,
  "Ġseagrass": 75192,
  "ĠØ§ÙĦØ´ÙĪØ§ÙĬØ©": 66161,
  "ĠØªØŃØªØ±ÙħÙĩØ§": 97719,
  "ÙĩØ¯ÙĪØ¡": 22539,
  "ĠÙĪØ§ÙĨÙĪØ§Ø¹": 17858,
  "ĠÙĨØ²ÙĬÙģ": 79161,
  "inium": 29578,
  "Lillian": 47985,
  "Ġoriginate": 20931,
  "ĠØªØ´ØªÙĩØ±": 4692,
  "Ø§ÙĦÙħØ±ÙĥØ²ÙĬØ©": 19377,
  "ĠØ¨Ø§ÙĥÙĨ": 31309,
  "Ġdistribution": 5661,
  "Walmart": 47754,
  "Eclectic": 74784,
  "ĠØ§Ø¯Ø±ÙĬ": 83551,
  "ĠØŃØ§Ø²": 65714,
  "wati": 36000,
  "ĠØ§ÙĦÙħØªØŃÙĪÙĦÙĪÙĨ": 24499,
  "Ġotherwise": 19479,
  "ĠÙĥÙģ": 10531,
  "+)": 21198,
  "lesques": 83925,
  "ĠÙĪØªÙĤØªØ±ØŃ": 69262,
  "ĠÙĦØªØ·Ø¨ÙĬÙĤ": 22530,
  "Ġbrasiliensis": 42631,
  "odil": 49280,
  "ĠØ¨ØªØªÙĪÙĤØ¹": 45042,
  "tuned": 74452,
  "Ġspeed": 4218,
  "ĠÙĪØ§Ø¹ÙħØ§ÙĦÙĩ": 60299,
  "ĠØ§ØŃØªØ¬": 11299,
  "ÙĦÙĪÙģÙĬÙĨØº": 61163,
  "ĠÙĦÙĬØ¨Ø±ÙĬÙĥÙĪÙĨ": 100199,
  "ĠØ§ÙĦÙĨØ¸Ø±Ø©": 24721,
  "Ġkinship": 18845,
  "ĠÙĪØªØŃØ¯ÙĬØ«ÙĩØ§": 73836,
  "Ġdisrupting": 21857,
  "Ø²Ø¬Ø§Ø¬": 48619,
  "Drake": 73871,
  "Ġduplication": 47080,
  "ĠØ§ÙĦØ¯Ø§Ø®": 3127,
  "ÙĪÙħØªÙĩ": 14895,
  "ĠÙĦØ§Ø³ØªÙĤÙĦØ§ÙĦ": 70103,
  "ĠÙĦÙĦÙħØ±ÙĪØ¬": 83867,
  "Ġendless": 88362,
  "10": 10191,
  "ÙĪÙĨØ²ÙĬ": 55076,
  "Ġpoison": 21609,
  "ĠSudbury": 96047,
  "ĠÙĦØŃØ¯": 4295,
  "ĠØ§ÙĦØ³Ø¨Ø¨ÙĬØ©": 70786,
  "ØªÙģØ¶ÙĦ": 28458,
  "ĠDod": 82605,
  "ĠSelf": 28217,
  "ĠØ¨ÙģÙĥØ±": 89177,
  "world": 9648,
  "Ġgest": 19988,
  "Ġcredibility": 32377,
  "ĠAtop": 89534,
  "Ø´ÙĬÙĨ": 22084,
  "Ġbrogues": 51311,
  "ĠSurprises": 71871,
  "ÙħØªÙĪØ³Ø·": 25910,
  "ĠÙĨØ§Ø²ÙĦØ©": 38635,
  "ĠÙħØ³ÙħÙī": 29542,
  "Ġdeterminism": 30530,
  "ĠØ¨Ø§ÙĥØ§ÙĨÙĬØ±": 88317,
  "ĠInformal": 84807,
  "ĠÙĪØ¹Ø¨Ø¯": 77689,
  "ample": 79802,
  "ĠØ¨ÙĨÙģØ³Ø¬ÙĬØ©": 70464,
  "Ø·ÙĪØ¨Ø©": 4639,
  "Ġappear": 5671,
  "ĠØŃÙħØ¶ÙĬØ©": 29239,
  "uer": 13438,
  "ÙģØµØ§ÙĬÙĦ": 95294,
  "ĠÙĪØ§ÙĦÙħØ²Ø¬": 46970,
  "ĠØ§ÙĦØ§Ø®ÙħÙĬÙĨÙĬØ©": 56846,
  "ÙģÙĪÙģÙĬÙĨ": 47129,
  "Ġmasses": 17405,
  "Ġmodel": 4310,
  "Ġconvention": 80568,
  "ĠÙĪØ§Ø¹ÙħØ¯Ø©": 43099,
  "ĠØ¨Ø§ÙĦÙħÙĦØ§Ø¨Ø³": 61267,
  "Ġimpulsivity": 98915,
  "ĠØ§Ø·ÙĦØ§Ø¹": 45244,
  "ĠEach": 11454,
  "ĠÙĪØªØŃØ³ÙĬÙĨ": 6086,
  "Ġactually": 11843,
  "ÙĦÙĪØ³Ø©": 32359,
  "taalik": 46331,
  "Ø§ÙĦØªØµÙĪÙĬØª": 51960,
  "Ġdepressing": 86107,
  "ĠÙĪØ§ÙĦÙħØºØ±Ø¨": 92367,
  "ĠÙħÙĨØ§ÙĩØ¶Ø©": 95804,
  "Ġgovernance": 19568,
  "ĠØ§ÙĦØ¨ØµÙĦØ©": 48981,
  "thermal": 40448,
  "ĠÙĥÙĪØ±Ø¨Ø§ØªØ§": 89856,
  "Compound": 10470,
  "ĠØ§ÙĦÙĨÙģØ·": 23531,
  "ĠØ§ÙĦØªØ®ÙħÙĬÙĨÙĬ": 88692,
  "Topsoil": 94506,
  "ĠÙĦÙĦÙĥØ§ÙħÙĬØ±Ø§": 88379,
  "Ġdefending": 37493,
  "ploy": 4900,
  "Ġsmoothly": 60953,
  "ZAR": 64213,
  "idium": 66093,
  "Ġperpet": 17325,
  "restory": 90175,
  "ĠÙĪØªÙĦÙĤ": 55989,
  "ĠBull": 23250,
  "ÙĪÙħØªØ±Ø§": 43925,
  "imos": 66027,
  "Ġredefine": 89397,
  "ainer": 44194,
  "Ø³ØªÙĪÙĨÙĩÙĨØ¬": 38371,
  "ĠÙĪÙĨÙĬÙĦØ²": 74030,
  "ØºØ±Ø§Ùħ": 30406,
  "aneritic": 65204,
  "ĠÙĪØ§ÙĦØ²Ø±ÙĨÙĬØ®": 62568,
  "Ø¯Ø¹ÙĪ": 23551,
  "amco": 55491,
  "ĠÙĪØ§ÙĦØ«ÙĪØ±Ø§Øª": 60352,
  "ĠÙĪØ§ÙĦØªÙĪØ¨Ø©": 34981,
  "ĠKingpin": 90101,
  "ĠØ²Ø§ÙģÙĬÙĬÙĩ": 81129,
  "Ġcommunicative": 47201,
  "Ġpeeling": 92054,
  "ĠÙĪÙĬÙģØµÙĦ": 82898,
  "ĠØ§ÙĦØªØ®ÙĦÙĬÙĤ": 29289,
  "alm": 15174,
  "Nutritional": 10849,
  "ĠDynasty": 31057,
  "ĠÙĦÙĪØ§Ø¡": 32082,
  "Ġsimmered": 69013,
  "ĠØ§ÙĨØ¹ÙĥØ§Ø³Ø§Øª": 52990,
  "ÙĪØµÙĬ": 26351,
  "ĠÙģÙĬØ±ØªØ´Ø§ÙĬÙĦØ¯": 90576,
  "ĠÙĬØ´ØºÙĦ": 18365,
  "ĠFuji": 74534,
  "ĠÙĪØ§ÙĦØ²ÙĬ": 65311,
  "ĠØ³ØªØ³ØªÙħØ±": 69522,
  "ĠØ§ÙĦÙħØ§ÙĦØ§ÙĬØ§ÙĦØ§ÙħÙĬØ©": 37873,
  "ĠRagnarok": 82457,
  "ĠØ§ÙĦÙħØ¹Ø§Ùĩ": 11106,
  "ĠØ¨Ø¬Ø¯ÙĪÙĦ": 69327,
  "Ġdisproportionate": 94367,
  "ĠÙĥÙĪÙĦÙĪÙħØ¨ÙĬ": 91111,
  "ĠÙħÙĬØ¯ÙĦØªÙĪÙĨ": 45162,
  "Ġfigur": 70117,
  "ĠØ§ÙĦØ§Ø®ÙĬØ±Ø©": 8815,
  "ĠØ§ØµØ¯Ø§Ùģ": 44821,
  "ĠLike": 15608,
  "Ġcompat": 44491,
  "Ë": 132,
  "ĠØ¹ÙĨØ¯ÙħØ§": 2045,
  "ĠÙħØ·ÙĬØ±Ø©": 91330,
  "ØŃØ¨ÙĪØ¨": 43133,
  "Spy": 41072,
  "cked": 45149,
  "ĠØªØ³Ø§Ø¹Ø¯Ùĩ": 85400,
  "ĠÙĪØ§ÙĦÙģØ¬ÙĪØ©": 86623,
  "ĠÙĪØ§ÙĦØ³ÙĨØ¬Ø§": 98069,
  "Ġcausal": 68866,
  "Ø§Ø±ÙĥÙĪØ§": 8945,
  "ĠÙĪØ§ÙĦØªØŃÙģ": 37923,
  "Ġemerging": 41973,
  "ĠØªØ¯Ø¹ÙĬÙħ": 58389,
  "Premise": 98433,
  "ĠÙĦÙħØ¹Ø§ÙĬÙĬØ±": 60444,
  "Ø«ÙĬÙĪÙĨ": 27365,
  "etism": 17180,
  "ĠÙħÙĩØ§Ø¬Ø±ÙĬÙĨ": 69609,
  "Ġcool": 4486,
  "andemic": 28325,
  "Vehicular": 71669,
  "Ġstipulated": 98743,
  "ĠÙĦÙĦØ¹Ø¶ÙĦØ§Øª": 86564,
  "Formation": 47160,
  "ĠÙĪØ¨Ø·Ø§ÙĤØ§Øª": 82840,
  "Ø§ÙĦØªØµÙĨÙĬÙģ": 32836,
  "ĠÙĥÙģØ§Ø¡": 48704,
  "ĠØ§ÙĦÙħØ¶ÙĬ": 77887,
  "ĠÙĪØ§ÙĦÙħØ¹ÙĨÙī": 30404,
  "Ġecosystems": 5044,
  "ØªØ±Ø¨Ø·": 80021,
  "ĠØ¨ÙĬÙĪØŃÙĬ": 73483,
  "ĠÙĪÙħÙĪ": 5548,
  "ĠÙĪØ§ÙĦØ§ÙĩÙħØ§ÙĦ": 94823,
  "ĠÙĪØ§ÙĦÙĪØ§Ø¬Ø¨Ø§Øª": 33715,
  "ÙĦÙĬÙĨÙĥÙĪÙĦÙĨ": 58058,
  "ÙĨØ§ÙģØ°Ø©": 64671,
  "ĠØ¨Ø§ÙĦØ§Ø³ÙĪØ§ÙĤ": 91346,
  "Ġinnov": 7387,
  "growing": 76615,
  "Ø¸ÙĦ": 3645,
  "Ø«ÙĪÙĦÙĪØ¬ÙĬØ§": 11412,
  "Ġsail": 18688,
  "ĠØ§ÙĦÙħØµÙħÙħØ©": 10431,
  "Metronome": 91880,
  "ØªØ¹ÙħÙĬÙĤ": 82288,
  "ĠØ±ÙĬÙĥÙĬÙĦ": 84337,
  "ĠÙĦÙħØ´Ø±ÙĪØ¹": 60967,
  "Ø§ÙĨÙĩÙĬ": 793,
  "gdala": 48131,
  "ĠØ§ÙĦØ±ÙħÙĪØ²": 8902,
  "ÙĪÙĤÙģ": 3664,
  "ĠÙĬØªÙĨØ§Ø²ÙĦ": 72376,
  "Ø±ÙĪØ³Ø©": 26634,
  "ĠÙĪØ§ÙĦÙĨÙĬØ¨Ø§ÙĦÙĬØ©": 96013,
  "ØµØ±Ø§Ø¹": 25615,
  "Ø§ÙĦÙĥÙĪÙĨÙĪØ¯ÙĪÙĨØª": 94385,
  "ĠÙĬØ®ØªØ§Ø±ÙĪØ§": 47156,
  "ochelys": 61524,
  "Ø§ØŃØ§ÙĦØ©": 80583,
  "ĠÙĦÙĦØªØŃÙĪÙĬÙĦ": 60820,
  "ÙĥÙĦØ§Øª": 31681,
  "Ø§ÙĦØ¨ÙĬØ§ÙĨ": 93331,
  "viol": 33469,
  "ĠØ§ÙĦÙħØ¯Ø±Ø¬Ø§Øª": 32837,
  "Ġguarded": 94615,
  "Ġabsurdity": 47202,
  "Ġopportunities": 6530,
  "estanian": 82137,
  "ĠSubrahmanyan": 92633,
  "ĠÙĪØ§ÙĦØ§ÙģØ±Ø§Ø¯": 17468,
  "Teton": 97524,
  "ĠØ·ÙĩÙĬ": 25398,
  "ĠÙħØ³ØªØ¹ÙħÙĦ": 84128,
  "Ø¯ÙģÙĨØª": 67611,
  "ĠØ§ÙĦØ´Ø¹Ø±": 4116,
  "Ø§ÙħÙĬØ§Øª": 65371,
  "ĠØ¬Ø²ÙĬÙĬ": 32576,
  "Ġlosing": 48974,
  "ĠØ¬ÙĦØ³": 65832,
  "Ġproperty": 5916,
  "Only": 93171,
  "ĠÙĪÙħÙĤÙĨØ¹Ø§": 99063,
  "ĠStopping": 57460,
  "Ø³ÙĦØ§ÙĦ": 89351,
  "ception": 7575,
  "ĠØ¨Ø°ÙĦÙĥ": 25128,
  "Ġcatalyst": 35220,
  "ĠÙĪØ§ÙĦØ¹Ø¯ÙĪØ§ÙĨ": 37480,
  "Coppa": 96167,
  "ĠÙħØªØ·ÙĪØ±Ø´": 94890,
  "Ġamphitheater": 34655,
  "ĠØ§ÙĦØ³ÙĬÙĨÙħØ§": 16164,
  "ĠÙĦÙĦÙĩÙĦØ§Ùĥ": 99701,
  "Ġscientific": 6048,
  "Ġintegration": 15057,
  "ĠØªÙĥÙĬÙģ": 31382,
  "ĠØ§ÙĦØ§ÙĦÙĬÙģ": 77155,
  "Ø·ÙĪÙĤØ©": 65022,
  "ĠØ§ÙĦÙħÙĤØ§Ø¨Ø±": 34661,
  "ĠÙĦØªØµÙħÙĬÙħ": 14458,
  "ĠØ§ÙĦØ¹Ø¬ÙĨ": 79390,
  "ĠØ¯ÙĪÙĨØ§ÙĨØª": 69838,
  "Ġbattle": 16591,
  "Fl": 29422,
  "ĠConsisting": 92900,
  "ĠØ§ÙĦØ¬ÙĪÙĬ": 2453,
  "Ø§ÙĦÙĥÙĪØ©": 96454,
  "ĠÙĥØªØ¨ÙĩØ§": 10594,
  "ĠÙĪØ§ØŃÙħØ§ÙĦ": 44623,
  "ĠDynamic": 40346,
  "Ø³ÙĬÙĤÙĬ": 5273,
  "Ġgoals": 8736,
  "ĠÙĦÙĦØ¹ÙĨØ§ØµØ±": 20940,
  "ÙĩØ²Ø©": 43005,
  "ĠCosmology": 62737,
  "ĠØªØŃØ±ÙĬÙĥÙĩØ§": 96065,
  "Ġproscenium": 99867,
  "Station": 20939,
  "Ġharness": 60649,
  "Ø§ÙĦÙħØ°Ø§Ø¨": 80699,
  "ĠÙĪØªØ¹Ø§ÙĦÙĬÙħ": 45365,
  "ĠØ¨Ø§ÙĦØŃØ²ÙĨ": 32592,
  "ĠØªØŃØµÙĬÙĦ": 36916,
  "ĠØ§ÙĦÙĤØ±Ø¹": 50318,
  "opylae": 81214,
  "ĠByzantine": 41559,
  "ĠØ§ÙĦØªÙħØ±Ø¯": 94139,
  "ĠÙĦÙĦØ¯Ùħ": 20641,
  "Ø¬ÙħÙĪÙĨØ¯": 44143,
  "Ġplay": 1270,
  "erge": 18142,
  "ĠAlgerian": 74098,
  "Ġstapes": 66145,
  "ĠValent": 51522,
  "ĠØ¨Ø§ÙĦØ´": 5575,
  "u": 89,
  "ĠØ§ÙĬØ§Ùħ": 17740,
  "ĠØªØºÙĦØ¨": 48508,
  "ĠØ±ÙħØ§Ø¯": 52586,
  "ĠÙħØŃØ§ÙħÙĬÙĨ": 56932,
  "ĠØ§ØŃØªÙĬØ§Ø·Ø§ØªÙĩØ§": 96670,
  "ÙĪÙĦÙĬÙĩ": 28535,
  "Ġfictionalized": 46585,
  "ĠÙĪØªÙĬØ§Ø±": 80947,
  "ĠØ§ÙĦØ²Ø¨Ø§ÙĬÙĨ": 12090,
  "008": 68481,
  "ØªØ±Ø§ØŃØ§Øª": 43781,
  "ĠØ³ÙĬÙĪÙĦØ©": 28588,
  "ĠAnalytics": 73846,
  "ĠDerrida": 53620,
  "Ġeither": 11252,
  "hemistry": 2577,
  "ĠØ§ÙĦØªØŃØ±ÙĬØ±": 23812,
  "Ø§ÙĨÙĬØ§Øª": 28307,
  "ĠModern": 15582,
  "NaF": 72519,
  "ĠDSM": 40347,
  "ĠÙĪØ§ÙĦÙģØ¶Ø§ÙĬÙĦ": 97391,
  "ĠÙĪÙħØªØ³ÙħÙĬ": 94456,
  "Form": 20483,
  "ĠØ¨ÙĬØ§Ø®Ø¯ÙĪØ§": 27453,
  "ĠUlt": 21593,
  "Ġuniversities": 20935,
  "ĠØ§ÙĦØªÙħØ§Ø³Ùĥ": 17873,
  "ĠGem": 56652,
  "ĠPauli": 72418,
  "ĠØ¨ØªØŃØµÙĦÙĩØ§": 87903,
  "VR": 18082,
  "ĠÙĦÙģØ±Ø§ÙĨØ²": 59949,
  "ĠØªÙĦÙģØ²ÙĬÙĪÙĨ": 17994,
  "Ġtroubles": 94005,
  "ĠØ§ÙĦØ¨ÙĪØ±Ø©": 43699,
  "ais": 29456,
  "ĠQuotas": 99020,
  "Ġpor": 27965,
  "altese": 90608,
  "Ġlemurs": 95636,
  "ÙĥÙĦÙĪØ±ÙĪÙģÙĦÙĪØ±ÙĪÙĥØ±Ø¨ÙĪÙĨ": 90116,
  "Ø¯ÙĬÙħØ©": 43660,
  "ĠOptics": 67986,
  "Ġ2022": 21786,
  "ĠMcFarl": 52112,
  "ĠØ¨ÙĬØµØºØ±": 93109,
  "Ø§ÙĦØ°Ø±Ø©": 41898,
  "Ġnovels": 23723,
  "ĠÙĬÙĤØ±Ø±Ùĩ": 74865,
  "ĠÙĪØ§ÙĦØ¨Ø¯Ø§ÙĬØ§Øª": 41054,
  "ĠÙĪØ§ÙĦÙħØ¨Ø§Ø´Ø±Ø©": 61561,
  "ĠØ¹Ø±Ùģ": 14536,
  "Guiro": 94239,
  "ÙĪØ³ØªØ§Ùģ": 71372,
  "Cumulonimbus": 63822,
  "Ġstarlight": 87887,
  "ortization": 44327,
  "Ø§ÙĦØ¨Ø±ÙĪØ¨ÙĬÙĪØªÙĬÙĥ": 61475,
  "ĠArtemis": 32849,
  "Sarcasm": 64138,
  "ĠØ§ÙĦØ¨": 333,
  "Note": 42747,
  "ĠÙĪØ¨Ø¹Ø¶": 10806,
  "ĠØ¬ÙĦÙĬÙĨ": 43670,
  "ĠÙĨØ¹ÙĪÙħØ©": 51044,
  "ĠØªØŃÙĦÙĩØ§": 61269,
  "Ø§ÙĦØ«": 3922,
  "Ġproblem": 7362,
  "ĠLogarithms": 99092,
  "anian": 78429,
  "Ø§ÙĦÙħØµØ¨": 55885,
  "Ø§ÙĦÙħØ³Ø§ÙĦØ©": 90674,
  "que": 6810,
  "Ġcognitive": 8218,
  "Plesi": 76303,
  "ĠØ§Ø±ØªØ¯Ø§Ø¯": 67851,
  "ĠØ§ÙĦØŃØ´Ø±ÙĬØ©": 28097,
  "Ø³Ø§Ø±ÙĤ": 77519,
  "ĠÙħØµÙĬØ±": 34484,
  "Ġdifferentiate": 45136,
  "Ġwhereas": 50482,
  "ØŃØ²Ø§Ùħ": 27903,
  "ĠØ°Ø±Ø§Øª": 9341,
  "Ġadheres": 57370,
  "Ø§ÙĬÙĨÙĬØªØ²": 97596,
  "ĠÙĨØ¯": 22151,
  "ĠØ¬Ø±Ø§ÙĬ": 14578,
  "ĠÙĨØªØ¹ÙĦÙħ": 59621,
  "ĠØ«Ø¹ÙĦØ¨": 56871,
  "ĠØ¨ØªØªÙĥØ±Ø±": 24124,
  "ĠØ§ÙĦØ¬Ø²ÙĬÙĬØ©": 38073,
  "ĠØ¨Ø§ÙĦØ´ØºÙĦ": 46025,
  "Ø§ÙħØ§Øª": 2020,
  "Ġduality": 55070,
  "ĠØ§ÙĦØ¹Ø°": 10936,
  "ĠÙĪØ¯Ø±Ø§ÙħØ§": 54458,
  "Winged": 76458,
  "ĠIII": 15760,
  "Ø§ÙĪØªØ§ÙģØ§": 90837,
  "ĠÙĪØªØ´Ø±ØŃ": 80910,
  "ĠØ§ÙĦØ³Ø§Ø¹Ø©": 7397,
  "Ġpresence": 7422,
  "ologizing": 81205,
  "alu": 9295,
  "RBI": 47691,
  "Ġdefects": 25740,
  "Ġcolloqu": 37830,
  "Ġ9000": 35016,
  "ĠÙħØŃÙĥÙħ": 56929,
  ")**.": 1152,
  "ĠØ±ÙĤÙħÙĬØ§": 72682,
  "odder": 80813,
  "ĠÙĪØ±ÙĬÙħ": 54460,
  "ØªÙĬÙĨØ¬": 37219,
  "ĠØ¨Ø§ÙĦØ³ÙĬÙĦÙĬØ²ÙĬÙĪØ³": 96673,
  "ualitative": 57362,
  "Ġconsidering": 23434,
  "Instagram": 88569,
  "ĠØªØºÙĬØ±ÙĩØ§": 87358,
  "ĠØ§ÙĦØ³ÙĪØ±Ø§Ø´ØªØ±Ø§": 94695,
  "ĠÙĨÙĥØªØ´ÙģÙĩØ§": 97464,
  "otrophs": 21147,
  "ĠÙģÙĦÙĪØ³Ùĥ": 17944,
  "Ġefficient": 5885,
  "ĠØ³Ø§ØŃØ©": 25336,
  "Ġfreeing": 59348,
  "ĠØ¨Ø¯ÙĬÙģÙĬØ¯": 77598,
  "ĠØ§ÙĦØ±ÙħÙĦÙĬ": 29092,
  "ĠØ°ÙĩØ¨ÙĬØ©": 38589,
  "Ø§ÙĦÙĥÙĬÙĨÙĪØ§": 95911,
  "Ġsimilarities": 41404,
  "AABBA": 31142,
  "Ġindistinguishable": 75694,
  "ĠØ§ÙĦØ±Ø§ÙĪÙĬ": 40176,
  "ĠØ§ÙĦÙĨØ³ÙĦ": 51098,
  "ĠExocrine": 69085,
  "ØªÙħØ¹": 1039,
  "Ġwin": 4890,
  "ĠØŃØ¨ÙĬØ¨Ø§ØªÙĩ": 92286,
  "ĠØ¨Ø§ÙĦØ§Ø¹ÙħØ§ÙĦ": 73596,
  "acial": 19818,
  "Digitalis": 73658,
  "ĠØ«ÙĤØ¨": 17760,
  "oruba": 65195,
  "ĠØ³ÙĩÙĦ": 8893,
  "BOOM": 42671,
  "ĠÙĪØ§ÙĦÙĨØ¨Ø§ØªØ§Øª": 7760,
  "Ġjournalists": 61621,
  "ĠTenenbaums": 47879,
  "insula": 32386,
  "1944": 69746,
  "ĠØ¨Ø´Ø±": 16263,
  "ĠØ§ÙĦÙĨØŃØªÙĬØ©": 41325,
  "ĠÙĪØ§ÙĦÙħÙĨØ§ÙģØ°": 87268,
  "ĠÙĪØ§ÙĦØªÙĪØ±ÙħØ§ÙĦÙĬÙĨ": 98369,
  "ĠØµØ¨": 9109,
  "Ġfundamentally": 31105,
  "Ġdissemination": 27597,
  "Ġdecurren": 68633,
  "glycemia": 62438,
  "ĠÙĦÙĦØ§Ø¨Ø¬Ø¯ÙĬØ©": 95189,
  "Ø§ÙĪØ²Ø§ÙĨ": 46030,
  "alms": 48556,
  "Ġrenewal": 71868,
  "ĠJets": 57444,
  "ĠØ¨ØŃØ§ÙģÙĦØ§Øª": 85885,
  "ĠMullis": 100018,
  "ĠØ§ÙĦÙģÙĬØ²ÙĬØ§ÙĬÙĬØ©": 12507,
  "ĠÙĪÙħÙĨØ§ÙĤØ´Ø©": 58805,
  "ĠÙĪÙĪØ´": 77644,
  "Ø§ÙĪØ¶ÙĪØ§": 91545,
  "Ġsple": 22997,
  "ĠØ³Ø®ÙĨØ©": 25337,
  "Ġenforceable": 61998,
  "Ø§ÙĦØ±ÙĬØ§Ø¶ÙĬ": 62349,
  "Ġhobbies": 63019,
  "ĠÙĪØ§ØµÙĦÙĩØ§": 62168,
  "ĠØ§ÙĦØ¸ÙĦÙĬØ©": 40893,
  "Oeuvre": 99222,
  "ĠØ§ÙĦØ¹ÙĪØ¯": 33820,
  "Ġsemantics": 91576,
  "Hul": 76111,
  "ĠØºØ±Ø¨ÙĦØ©": 60455,
  "ĠØ§ÙĦØ§Ø¬Ø±Ø§ÙĬÙĬØ©": 32796,
  "ĠØªØªØ¬Ø¯Ø¯": 62026,
  "Ġirreversible": 71259,
  "Ġproofs": 92414,
  "Dividend": 47746,
  "Ø§ÙĦÙħØ¹Ø¯ÙĨ": 17951,
  "ĠKilimanjaro": 63711,
  "ĠMerger": 98227,
  "Ġdemocracy": 11532,
  "ĠØ¹Ø§Ø±ÙģØ©": 71408,
  "Ġdropped": 61637,
  "Ġitems": 10566,
  "ĠÙĦØªØ§Ø«ÙĬØ±Ùĩ": 94899,
  "ĠÙĬØªÙģØ§Ø¹ÙĦÙĪÙĨ": 42060,
  "ĠØ¨ÙĨØ¬ÙĬ": 67065,
  "ĠØ¨ØªØ®ØªÙģÙĬ": 35156,
  "Ġdevalu": 37892,
  "ĠBenefits": 60832,
  "ÙĩØ§Ø±Øª": 86910,
  "amenchis": 96035,
  "ĠØ§ÙĦØ¬ÙĨØ¯": 33944,
  "ĠGIMP": 82425,
  "ĠØ§ÙĦØ§ÙģØ¹Ø§ÙĦ": 9595,
  "Ġthesis": 39492,
  "ĠØ¨Ø§ÙĦØ§ØªØµØ§ÙĦ": 27612,
  "ĠÙĦÙĬÙĨØ´": 89768,
  "ĠThermopylae": 97262,
  "Mor": 42735,
  "Ġvast": 9965,
  "ĠÙĪØ§ÙĦØªÙĦØ¬": 41977,
  "Sn": 35927,
  "ĠRip": 31909,
  "Ġ1096": 70313,
  "PED": 42762,
  "Ø§ÙĦÙħØ¹Ø§Ø¯ÙĦØ©": 70261,
  "ĠÙĦÙĪÙģÙĦÙĬØ³": 61961,
  "ĠÙĦØ§ÙĦØªÙĬØ§Ùħ": 99483,
  "Sci": 48030,
  "itution": 4065,
  "ĠØ§ÙĦÙħÙĩØ§Ø¬Ø±Ø©": 15100,
  "ĠBlacks": 89157,
  "Vipera": 99266,
  "ĠØ§ÙĦØªØŃÙĪÙĦØ§Øª": 32205,
  "ĠØ§ÙĦØ±ÙĬØ¨ÙĪØ³ÙĪÙħ": 47223,
  "ĠØªØŃØ±ÙĬÙħ": 82017,
  "ĠØ§ÙĦØ¨Ø·Ø§ÙĦØ©": 41425,
  "ĠÙĪØ§ØºÙĦØ§ÙĤÙĩ": 98517,
  "Ac": 6302,
  "Ġcontents": 83046,
  "velian": 67237,
  "ĠÙĤØªÙĦØª": 46733,
  "ĠØ§ÙĦØªØµÙģÙĬØ©": 68368,
  "ĠÙĨÙĥ": 12338,
  "heit": 33570,
  "ĠÙħØ®Ø²ÙĪÙĨ": 58558,
  "700": 31141,
  "Ġproficiency": 80627,
  "Ġvoltages": 88193,
  "ĠØŃØ³ÙĬ": 79480,
  "Ø§ÙĬÙħØ§ÙĨ": 16687,
  "ĠÙĪÙĬØ¯ÙħØ¬": 82893,
  "ĠÙĪÙĬØ¹Ø²Ø²": 20329,
  "Ġbridges": 10800,
  "Ø§ÙĪØ¬": 48226,
  "Native": 64022,
  "Ġinterpreters": 71077,
  "Adverb": 89761,
  "ĠCome": 40067,
  "ĠØ§ÙĦÙħÙĦÙĪÙĥ": 29599,
  "Ġtr": 3815,
  "ĠÙĥÙĦÙħÙĩ": 82536,
  "µ": 117,
  "English": 38913,
  "ĠØ§ÙĦÙĥÙĪØªØ´ÙĬ": 79869,
  "Ø§ÙĦØ¨ÙĬÙħÙĬÙĥØ§ÙĨ": 93334,
  "Ġrated": 82380,
  "ĠØ§ÙĦØ§ØµÙĪØ§Øª": 6569,
  "ĠÙĪÙħÙģ": 11622,
  "Ø§ÙĦÙħÙĨØ§ÙĪÙĦØ©": 99873,
  "olon": 39738,
  "ĠØ§ÙĦÙħÙĨØªØ²Ùĩ": 40258,
  "kman": 48151,
  "ĠØ¨ÙĨØ¹ØªØ¨Ø±": 72668,
  "ÙĦÙĬØ©": 907,
  "Ġbestselling": 89581,
  "Ġdisadvantages": 53040,
  "utrophication": 18615,
  "ĠØ§Ø±Ùī": 83814,
  "Hur": 53787,
  "ĠTagged": 66745,
  "Ø§ÙĦØŃÙĤÙĬÙĤØ©": 68454,
  "ĠØ§ÙĬØ²ÙĨØ´ØªØ§ÙĬÙĨ": 100065,
  "hy": 641,
  "ĠÙĪÙħØªØµÙĦØ©": 100030,
  "ĠØ§ÙĦØ¬Ø°ÙĪØ±": 6641,
  "se": 645,
  "ĠChief": 35738,
  "ĠØ¨Ø§ÙĦØ¨ÙĨØ²ÙĬÙĨ": 20471,
  "ĠÙĪØ§ÙĦØ´Ø±": 16705,
  "Ø³Ø¨Ø§Ø±": 19416,
  "ĠØ®Ø±Ø²": 49289,
  "Ġstanding": 25791,
  "ÙĬÙĨÙĪØ§Øª": 36277,
  "ĠAppro": 45882,
  "Ø§ÙĦÙħÙĤ": 31745,
  "ĠÙħØªØ±ÙĥØ²Ø©": 99371,
  "ĠØ§ÙĦØ³ØªÙĬÙĨØ§Øª": 30514,
  "Ø¹ÙĦØ¨": 28295,
  "ĠØ¨ØªÙģ": 5354,
  "odum": 55952,
  "ĠÙĦÙĦØµØŃ": 70520,
  "ÙģÙĪØ±Ø³Øª": 90901,
  "ĠØ³Ø§ØŃÙĦÙĬ": 93299,
  "Ø§ÙĤÙĦÙĬØ·": 55501,
  "ĠØ§ÙĦØŃØ§ÙĬØ·": 39806,
  "Ġreign": 48965,
  "ĠÙĨÙĪØ±": 9802,
  "Hong": 76113,
  "ĠØªÙĪØ¨Ø©": 83630,
  "ĠÙħØªÙĨØ§ØŃØ±Ø©": 70014,
  "ĠFoster": 34264,
  "Ø±Ø¨ÙĨØ§": 25434,
  "Ġsweetness": 94232,
  "ĠØ§ÙĦÙģÙĦØ§Ùģ": 31702,
  "ÙĪØ§ÙĨØº": 44475,
  "ĠÙħÙĬ": 1696,
  "Oged": 64041,
  "ĠÙĪÙħØ¹Ø§Ø¯ÙĨ": 85866,
  "ĠBrig": 31886,
  "Ġdeter": 21681,
  "ĠÙĪØ¶Ø¹ÙĬÙģØ©": 88937,
  "ĠØ§ØŃØ¯Ø§Ø«Ø§": 51486,
  "Ġprem": 25656,
  "ĠØ§ÙĦØ¹ÙħØ§ÙĦÙĤØ©": 26101,
  "Ġtries": 27876,
  "ĠØ¨Ø¶Ø¹": 31307,
  "tidal": 35992,
  "ÙĬÙĪÙĦ": 64566,
  "Ġtitan": 89895,
  "ĠÙĪÙĤØ¨ÙĪØ§Øª": 57546,
  "ĠØ§ÙĦØ¬Ø±Ø§Ø¯Ø©": 59903,
  "omat": 33839,
  "pful": 76741,
  "ĠØ§ÙĦÙģÙĥÙĪÙĬØ³Øª": 92959,
  "ĠØªØ³Ø·ØŃØ§": 98935,
  "ĠÙħØªØ¬Ø°Ø±Ø©": 90005,
  "ĠØ¨Ø§ÙĦØ¯Ø±Ø¬Ø©": 39979,
  "ĠØ§ÙĦØ¬ÙĨØ³ÙĬØ§Øª": 93677,
  "enaissance": 15116,
  "ĠChic": 14607,
  "ĠSurv": 21116,
  "ĠLithotrip": 74711,
  "ĠÙĦÙĦØ§ØµØ§Ø¨Ø©": 52691,
  "ĠÙĨÙĤØ·ÙĬ": 57915,
  "ConcernedApe": 99008,
  "ĠDirac": 44426,
  "Ġimpacting": 20928,
  "ĠÙĬØ®ÙĨÙĤ": 51441,
  "ĠØ§ÙĪØ¯Ø±ÙĬ": 33818,
  "Ġextradition": 86954,
  "two": 35993,
  "Ø¯ØŃÙħØ©": 64720,
  "ĠÙĪØ§ÙĦØŃØ§ÙĦÙĬÙĬÙĨ": 57797,
  "Ġnarratives": 14750,
  "ĠØ§ÙĦØ¹ÙģÙĨ": 65668,
  "ĠAmur": 90009,
  "arcelona": 29379,
  "ĠØ¨ØªØ¯": 10231,
  "ØªÙĥÙĨÙĪÙĦÙĪØ¬ÙĬØ§": 29522,
  "Ø¯ÙĬÙĪÙĦÙĪØ¬ÙĬØ§Øª": 29770,
  "ĠÙĪÙĬØªØ¬ÙĨØ¨": 40403,
  "Cong": 42674,
  "ĠIst": 49283,
  "ĠÙĪØ´ÙģØ§ÙģØ©": 20450,
  "ĠÙĪØ§ÙĦØŃÙĥÙĪÙħØ§Øª": 26989,
  "ĠØ³ÙĩØ§Ùħ": 55561,
  "ĠØ§Ø³ÙĥÙĪÙĬ": 79974,
  "ĠØ§ÙĨØ¯ÙĬ": 22173,
  "ĠØ§ÙĦÙĤØ§ÙĬÙħ": 9445,
  "ĠÙĩØ§Ø¨ÙĬÙĦ": 78358,
  "¢áŀ": 64520,
  "Ġvictory": 29905,
  "ĠÙĦÙĦØ§Ø«Ø±": 79511,
  "ĠManufact": 89049,
  "ĠÙħÙĪØ¬Ø©": 19496,
  "ĠÙģÙĪÙĦØ±": 41799,
  "ØªØµØ±Ø©": 82512,
  "Ġso": 597,
  "ĠÙĪØ§ÙĦØªÙģØ§Ø¶ÙĦ": 60234,
  "Hymns": 53794,
  "ĠWithout": 13683,
  "Ġhypothesis": 13899,
  "Ø¹ØªØ§Ø´Ø±": 16577,
  "Iguanodon": 99128,
  "icular": 21311,
  "Precurs": 89140,
  "ĠØ§ÙĦÙĨØ§Ø±ÙĬØ©": 8477,
  "ĠØ§ÙĦØ¨Ø§Ø¨ÙĦÙĬ": 60877,
  "Ġdiscern": 85645,
  "ĠÙĪØ§ÙĦØªÙĪØ§Ø²ÙĨØ§Øª": 33069,
  "ĠÙĪØ®Ø·Ø·Ùĩ": 61572,
  "ĠØ§ÙĦØ¨ÙĤÙĪÙĦ": 65878,
  "ĠÙĦÙħØ´Ø§Ø±ÙĬØ¹": 29187,
  "Ø³ÙĪÙĦÙĬØ¯": 77516,
  "Ġpediment": 93903,
  "ĠÙĪÙħØ¹ÙĬ": 66866,
  "Coast": 27598,
  "Squ": 76345,
  "ÙĬØ³ÙĪÙĨ": 13580,
  "ĠÙĪØ§ÙĦÙħØ«": 44249,
  "ĠØ¨ÙĬØ®Ø³Ø±": 60078,
  "ĠØ§ÙĦØŃÙĬØ§Ø©": 1845,
  "ĠØªÙĨØ§ÙĪÙĦ": 12540,
  "ĠØ§ÙĦÙĤÙĪØ§Ùħ": 92892,
  "ĠØ§ÙĦØ¨Ø±ÙħØ¬ÙĬ": 41110,
  "Ġrestaurateur": 94623,
  "Ø§ÙĦØ¨ÙĦØ§Ø¬Ø±Ø§": 95617,
  "Ø³ÙĦÙĨØ¯Ø§": 18512,
  "wall": 19210,
  "Ġplots": 40298,
  "ĠMurray": 42540,
  "ĠÙĪØªØ®ÙĦÙĬ": 13275,
  "Ġcross": 9422,
  "ĠÙħØ±ÙĪØ±ÙĩØ§": 59801,
  "Ġambrotype": 72396,
  "ellectual": 10331,
  "ĠØ§ÙĦØ¨Ø§ÙĬØ¹": 28121,
  "ĠØ´Ø±Ø§Ø´ÙĬØ¨": 60043,
  "Hex": 76115,
  "Ġdescended": 86830,
  "ĠØ¨ÙĬØ«Ø¨Ø·": 79254,
  "Ġbiome": 17424,
  "ĠMOBA": 47594,
  "eremy": 56421,
  "strongest": 85980,
  "Ø§ØµØ±Ø©": 15958,
  "Ġpaleoethn": 74273,
  "ÙĬÙħØ§ØªØ³ÙĪ": 83076,
  "Ġprojections": 37937,
  "ĠÙĦØ§Ø³ØªØ®Ø¯Ø§ÙħÙĩ": 72359,
  "ĠLaocoon": 91248,
  "iffs": 17297,
  "Ġfamilies": 13122,
  "ĠÙĪÙħÙĤØ¯Ø³": 81860,
  "Ġappend": 34730,
  "Ġtam": 36092,
  "ĠØ¨ÙĦÙħØ¹": 33558,
  "Ø§ÙĦØ§ÙĤØªØ±Ø§Ø¶": 93595,
  "Ġreached": 36509,
  "Ġabstaining": 74379,
  "ÙĬÙĤØ§Ø³": 86433,
  "Ġmedicines": 62417,
  "Ang": 23910,
  "ĠØ±Ø¹Ø¨": 28225,
  "Ø¬ÙħØ¹Ø©": 19414,
  "ĠÙĪØ§ÙĦØ§ÙĦÙĥØªØ±ÙĪÙĨÙĬØ§Øª": 53573,
  "ĠÙħØµÙħ": 57497,
  "ĠÙĪÙħØ®Ø²ÙĪÙĨ": 94455,
  "nels": 54070,
  "Ġcommercial": 13401,
  "Ġinst": 1639,
  "ĠÙĨØ³ØªÙĨØªØ¬Ùĩ": 97200,
  "opus": 31796,
  "Ġhypothesized": 42435,
  "Ġknowledgeable": 51272,
  "ĠØ±ÙģØ§ÙĩÙĬØªÙĩ": 62342,
  "ĠØ¯Ø§Ùģ": 43512,
  "ledge": 3797,
  "Ø¨ÙĨÙī": 9541,
  "containing": 67685,
  "ĠØ§ÙĦØ·ÙģÙĬ": 19390,
  "ropod": 57562,
  "ĠÙĩÙĬØ¬": 79696,
  "ĠÙĪØ§ÙĦØ§ÙĪØ±ÙĪØ¨ÙĬØ©": 95803,
  "Ġrecognizes": 14432,
  "ĠÙĪØ§ÙĦÙĦØŃÙħØ©": 89546,
  "Ø§ÙĦØ¨ÙĬØ©": 24280,
  "ØªÙĬØ³Ø¨ÙĬØ±Øº": 44284,
  "ĠØ¨ÙĬÙĥØ³Ø±": 55189,
  "ĠÙĪØªØ¨Ø¹Ø¯": 80913,
  "ĠØ§ÙĦØªÙħØ«ÙĬ": 40944,
  "Ø§ÙĦØªØ¹Ø²ÙĬØ²": 45726,
  "iola": 89500,
  "ĠHuang": 34214,
  "ÙĥÙĪØ±Øª": 89676,
  "ĠÙĨØ²ÙĦØª": 13409,
  "Ø±ÙĪÙħØ§": 39894,
  "ĠLaurent": 42437,
  "ĠØ§ÙĦØ§ÙĨØŃØ·Ø§Ø·": 89716,
  "ĠGodard": 51585,
  "Ġcases": 7790,
  "ĠÙĪØªØ¹ÙĬØ´": 49298,
  "Ġdispersion": 72429,
  "ĠØŃØ§ÙģØ¸": 65727,
  "ĠÙħÙĨØ§ØŃÙħ": 78787,
  "ÙĬØªÙĩ": 14201,
  "Ġstrife": 87344,
  "ĠØ§ÙĦØ³ÙĦØŃÙģØ§Ø©": 40825,
  "ĠÙĪØ¨Ø¹": 2685,
  "ĠØŃÙħØ§ÙĦ": 65717,
  "Ġtrademarks": 29338,
  "Ġbacteriologist": 99034,
  "Ġsubversions": 100357,
  "ormung": 30083,
  "ĠSetting": 34004,
  "ĠÙĥÙĬØ¨ÙĨØ¬": 72924,
  "ĠÙħØ¬Ø±Ø¯": 5659,
  "athlon": 45430,
  "ĠÙĪØºØ¨Ø§Ø±": 60093,
  "ĠØ§ÙĦØ´ØºÙĦØ§ÙĨØ©": 89431,
  "ĠØ§ÙĦØ¬ÙĪØ¹": 18783,
  "ĠØ§ÙĦÙģÙĬØ²ÙĬØ§ÙĬÙĬ": 38383,
  "Ġmodern": 3827,
  "ØªÙĤØ§ÙĦØ©": 34220,
  "ĠÙħÙĥØ«ÙģØ§": 73638,
  "Ø¬Ø±ÙĬØ³ÙĪÙĦØ¯": 99440,
  "ĠÙĪØºØ±ÙĤÙĩØ§": 90423,
  "rebar": 77837,
  "Viral": 64188,
  "ÙĥØ±ÙĪÙĪÙĬÙģ": 38144,
  "izes": 2740,
  "ĠØ«Ø¹Ø§ÙĦØ¨": 67408,
  "ÙħÙĬØ«ÙĬØ§": 55644,
  "ĠØ¨ØªØªÙĤ": 13969,
  "ĠØ¯Ø¨": 15904,
  "ĠØ´ÙĬØ¨Ø§Ø±Ø¯": 99847,
  "ĠØªØ´ÙĬÙĦÙĬ": 20416,
  "ĠGNU": 38939,
  "ĠØ§ÙĦØ´ÙĤ": 80378,
  "str": 5900,
  "ÙģØ§ÙĦØ¯ÙħØ§Ø±": 87665,
  "Cus": 75960,
  "ĠÙĦÙĦØ§ÙĪØ±": 79527,
  "ÙĪØ§Ø²ÙĨ": 64654,
  "laying": 74626,
  "ĠÙĪÙĨÙħÙĨØ¹": 68177,
  "Ø§ÙĦØ¨Ø§Ø±Ø´ÙħÙĨØª": 73703,
  "ĠØ¬ÙħØ§Ø¹ÙĬØ©": 23611,
  "BioWare": 52973,
  "thyroid": 56171,
  "ĠØ¨ÙĬØ´ÙĥÙĦ": 28046,
  "Ġdisrupts": 51814,
  "ĠÙĦØ§Ø¹Ø¨Ø§Øª": 38362,
  "ĠGenderless": 98261,
  "ĠØ¹Ø§Ø²": 48481,
  "Ġscripting": 71150,
  "fire": 42832,
  "ĠØ§ÙĦØ§ÙĩØªØ²Ø§Ø²": 22618,
  "Ø¯ÙħØª": 49060,
  "Mn": 63992,
  "ĠØ§ÙĦÙĥÙĪÙĨØºØ±Ø³": 68747,
  "ĠØ®Ø·Ø§Ø¨Ùĩ": 85705,
  "ĠØ®Ø±ÙĪØªØ´ÙĪÙģ": 40033,
  "ĠÙĪØ§Ø¶ØŃÙĬÙĨ": 90740,
  "aneously": 20424,
  "ĠØ®Ø±Ø§Ø¨": 80880,
  "ĠØ§ÙĦÙħÙĤØ°ÙĪÙģ": 96956,
  "Hapi": 53791,
  "ĠØªÙĤØ¹": 4870,
  "Ġcereal": 51914,
  "Ġrevolutionibus": 71047,
  "Ġreptile": 35489,
  "ĠÙĦØ®ÙĪØ§ØµÙĩ": 92346,
  "NMR": 64030,
  "ĠØ§ÙĦØ§Ø¹ØªØ¯Ø§Ø¡": 28567,
  "ĠØ§ÙĦØ¹ÙĦÙĬØ§": 4027,
  "ĠØ§ÙĦØ´ÙĪÙĬ": 66153,
  "ĠGl": 6561,
  "Ġ194": 5763,
  "Ø±ÙĬØ²Ø©": 79283,
  "ĠØ¯ÙĬØ²ÙĬ": 81266,
  "Ġchalumnae": 74930,
  "aturation": 77825,
  "ĠØ§ÙĦÙģÙĪÙĩ": 80268,
  "ÙħØ¶": 2032,
  "Ġgross": 57651,
  "Ø§ÙĦØ¨ÙĤÙĪÙĦÙĬØ§Øª": 53033,
  "Ø«ÙĬÙģ": 21346,
  "ĠØªØ·Ø¨ÙĬÙĤ": 2733,
  "ĠÙĥØ§ÙĦÙĩØ©": 54993,
  "ĠStudios": 14764,
  "Ġlarynx": 79755,
  "present": 54089,
  "ĠØ¨Ø±ÙĨØ§ÙħØ¬": 4105,
  "Ġhoard": 55687,
  "Ġmagnetosphere": 62653,
  "ĠØ¨Ø±Ø¶": 25123,
  "Ġobligations": 14766,
  "Ø§ÙĦÙĩÙĬØ³ØªÙĪ": 92260,
  "ĠØªØŃÙħÙĦÙĩ": 89697,
  "ĠÙĨÙħÙĪÙĩ": 46013,
  "Mercalli": 64013,
  "Ġranked": 93465,
  "ĠØ¶Ø¨Ø§Ø·": 67587,
  "ĠÙĦØ¯ÙĪØ±Ø§Øª": 48540,
  "Ø³ØªØ§ØªÙĬ": 19962,
  "ĠÙĨØªÙĬØ¬Ø©": 4323,
  "ĠØ§ÙĦÙĩØ§ÙĪØ³": 72273,
  "ismic": 57011,
  "ÙĪØ§Ø±ÙĬØ®": 11041,
  "ĠÙĪØªØ±": 3456,
  "ĠÙĪØ§Ø³ØªÙĤØ§ÙħØªÙĩ": 100294,
  "urious": 26605,
  "1648": 71806,
  "ĠØ§ÙĦØ¹Øµ": 3771,
  "ÙĬÙĪØ±ÙħÙĪÙĨØºØ§ÙĨØ¯": 99320,
  "ĠØ³ÙĪÙĤÙĬØ©": 90539,
  "Ġexhausts": 73544,
  "ĠØ¨ÙĬØ¹Ø¨Ø¯ÙĪÙĩ": 98117,
  "ĠØ¬ÙĬØ±Ø²": 71864,
  "ĠÙĨØµØ§Ø±Øª": 87884,
  "hil": 1994,
  "BY": 75909,
  "ĠÙĩØªØ¯ÙģØ¹": 71925,
  "ØªÙĥÙħÙĦØ©": 83161,
  "ĠØ²ÙĬÙĨ": 56084,
  "ĠØ§ÙĦÙħØªÙĨÙĤÙĦ": 51933,
  "ĠØ§ÙĦÙģÙĤØ±": 6231,
  "ĠØ§ÙĦÙĪØ§ÙģØ¯ÙĬÙĨ": 82797,
  "ĠÙħØ§Ø±ÙĥÙĪÙĨÙĬ": 27193,
  "Ġraised": 23489,
  "ĠÙĬÙħÙĨØ¹Ùĩ": 71117,
  "Ġfisherman": 95317,
  "Ġinfectious": 29245,
  "Ø§ÙĦØªÙĪØ³Ø¹": 40759,
  "Ø§ÙĦØ®Ø±Ø§ÙģØ©": 59497,
  "ĠWedging": 82763,
  "Ġmagn": 4480,
  "Ġrivalry": 35785,
  "Ø§ÙĦÙģÙĩÙħ": 77007,
  "ÙħØ¯Ø§": 77096,
  "ĠØ§ÙĦÙħÙĨØ¨ÙĩØ§Øª": 66985,
  "ĠØ§ÙĨØ³ØªØ±ÙĪ": 79431,
  "aborate": 8739,
  "Ġprisoners": 46886,
  "ĠÙĪØ§ÙĦÙĪØ§ÙĨÙĩØ§": 61845,
  "ĠØ¨Ø¨ÙĨÙĬØªÙĩ": 53462,
  "ÙĦÙĬÙĤØ§Øª": 20583,
  "ĠFemale": 96895,
  "ĠØ§ÙĦÙħØ°": 9790,
  "United": 38223,
  "ĠÙĪØªÙĥØ¨ÙĬØ±": 52169,
  "Ġreprodu": 8935,
  "Ġfired": 36282,
  "Ø¬ÙĪØ±Ø¬ÙĬ": 54536,
  "Fiction": 33361,
  "ĠØ§Ø¨ØªÙĥØ±ÙĩØ§": 59955,
  "ĠØªØ³ØªØºØ±ÙĤ": 69699,
  "ĠØ·ÙģÙĦÙĬ": 55927,
  "walker": 47458,
  "ĠØ§Ø¨ÙĬÙĨÙģØ±ÙĬÙĨ": 84281,
  "ÙĤØ¨ÙĬØ§Øª": 77430,
  "ĠÙħÙģØµÙĦØ§": 93678,
  "ĠØ§Ø¬Ø§Ø²Ø©": 68128,
  "ĠØ§ÙĦØ¯ÙĤØ©": 25419,
  "ÙĥÙĬØ²": 5254,
  "Bak": 75914,
  "ĠAvengers": 52513,
  "ĠAthens": 38075,
  "Oemler": 99224,
  "ĠLloyd": 16831,
  "ĠØ§ÙĪÙĨ": 9797,
  "Ġcaregivers": 35177,
  "ĠSu": 33995,
  "ĠÙĬØ¹ØªØ¨Ø±ÙĪÙĩ": 44112,
  "ĠØ§Ø·Ø§Ø±Ø§Øª": 50669,
  "Ø§ØŃÙĬØ©": 2816,
  "ĠØ¨ØªØª": 1412,
  "ĠØ¬ÙĬÙĨÙĬ": 36497,
  "sych": 2158,
  "ĠÙĪÙĤØ±Ø§Ø±Ø§ØªÙĩØ§": 74275,
  "ĠInvisible": 84810,
  "endemic": 67751,
  "Ġcondensates": 75238,
  "ĠØªÙħØ§ÙĬÙħ": 83745,
  "Ġrepl": 10091,
  "ĠØ§ÙĨØ²ÙĬÙħØ§Øª": 52872,
  "Ġanxious": 74697,
  "itching": 20366,
  "ĠGrang": 82404,
  "ĠWeight": 90162,
  "Ġstarfish": 87889,
  "ĠÙĪØ¯Ø§Ø®ÙĦÙĩØ§": 99035,
  "Ġcondens": 58463,
  "Ġimitation": 49858,
  "ĠØ§ÙĦÙħØªØŃØ¯Ø©": 2273,
  "ÙĪÙĥØ§ØªØ§": 82031,
  "ĠØ§ÙĦÙħÙĪØ§ÙĤØ¯": 82807,
  "Ġoptimization": 23753,
  "ĠÙĪÙħØ¯ÙħØ±": 81829,
  "ĠØ±Ø§ÙĪÙĦ": 80779,
  "ĠØ§ÙĦÙĥÙħÙĪÙħÙĬ": 33890,
  "Ġculvert": 95314,
  "ĠÙĪÙĤØª": 2395,
  "Ġamended": 85818,
  "Ñı": 76917,
  "Ġbotan": 38880,
  "ĠÙĬØ¬ÙĬØ¨": 17627,
  "arded": 26842,
  "ĠØ§ØªÙħÙĨØŃØª": 67738,
  "ĠÙĩÙĦÙĬÙĥÙĪØ¨": 33651,
  "ĠGord": 56654,
  "Ø§ÙĦØ¨Ø·ÙĦØ©": 81395,
  "ĠÙĪØ¬ÙĩÙĪØ¯Ùĩ": 62767,
  "ystem": 731,
  "ĠÙĪÙĬÙģØ±": 67379,
  "ĠØ¨ÙĪØ¬ÙĪ": 43077,
  "ĠÙģØ§Ø±ÙĤ": 52269,
  "Ø³Ø§ÙĨØ¯": 54384,
  "ĠÙĦÙĥØ«Ø§ÙģØ©": 88818,
  "Ġequivalence": 92910,
  "ĠÙĥØ¨ÙĬØ±": 689,
  "ĠDa": 37006,
  "ĠÙĩÙĬØ±ÙĥÙĬÙĪÙĦ": 46416,
  "Ø¨ÙĪØ·Ø©": 16527,
  "ĠØ§ÙĦÙĤÙĬÙģ": 20669,
  "ĠØ§ÙĦÙĪØ±Ø§Ø«": 5703,
  "Planetary": 96622,
  "ĠÙĪÙĬÙĪØŃØ¯": 82912,
  "ĠØ¨ØªØªÙĪØµÙģ": 55233,
  "Ġhotels": 20989,
  "ÙĪÙħÙĬØ±Ø§Øª": 40000,
  "ĠØ¨ØªØ±Ø¹Ùī": 75497,
  "ĠÙĪØ§ÙĥØ«Ø±": 5670,
  "ĠØ¨ÙĬØ´ÙĪÙģÙĪØ§": 38546,
  "Ġden": 10083,
  "ĠÙĬÙĩØªÙħ": 17130,
  "ĠDead": 14715,
  "ĠÙĦÙĦØªØ´": 15523,
  "ĠÙħØ·ÙĪØ±": 8552,
  "Ġlisted": 32931,
  "Ġside": 7727,
  "ĠØ§ÙĦØ³Ø¹Ø§Ø¯Ø©": 11982,
  "hier": 83087,
  "Ġlifeways": 86214,
  "ĠØ§ÙĦØ§Ø¹ØªØ°": 68098,
  "Imp": 14498,
  "ĠÙĪØ§ÙĦØ³Ø§Ø¹Ø§Øª": 37531,
  "ĠÙĩØªÙĥ": 29640,
  "ĠÙģØ¨Ø±Ø§ÙĬØ±": 39056,
  "ĠÙĪÙĦÙĬ": 4552,
  "Ġabolition": 47722,
  "ĠØ§ØªÙĨØ§": 67726,
  "Ø¹Ø§ÙĦÙħ": 15149,
  "ĠÙĬØ¬Ø§ÙĪØ¨ÙĪØ§": 100413,
  "Bal": 42663,
  "ÙĦØ§ÙĨÙĨÙĬ": 71836,
  "ĠØ¨ÙĥØªÙĬØ±ÙĬØ§": 12958,
  "ĠÙĪØŃÙĤÙĬÙĤÙĬØ§Øª": 63253,
  "ĠØ¨ÙĩØ¬ÙĪÙħ": 77600,
  "Ġtubes": 32952,
  "ĠPere": 81342,
  "ĠØ§ØªØ·ÙĪØ±Øª": 9351,
  "ĠØ¨ÙĬØ§ÙĨØ§ØªÙĩ": 70228,
  "ĠØ§ÙĦØ·ÙĦÙĤ": 81041,
  "ĠØ§ÙĦÙħÙĥØªØ¨": 41185,
  "Ø§Ø±Ø¯Ùĩ": 54783,
  "Ø§ÙĦÙģØ§ØªÙĬÙĥØ§ÙĨ": 68829,
  "ÙĩØ§Ø¬Ø±ÙĬÙĨ": 64694,
  "ĠHawks": 93043,
  "ĠØªØ±Ø³Ø¨": 28682,
  "Ġinconsistencies": 73997,
  "ÙĨÙĬØ³Ø§Ø¨Ø§": 99955,
  "proton": 70721,
  "Ġlaure": 8442,
  "ĠØ§ÙĦØ§Ø¨Ø±Ø§Ø¬": 16879,
  "ĠÙĦØ§Ø¹Ø¨ÙĬ": 23764,
  "ĠTesting": 93031,
  "Ø§ÙĬÙĦØ©": 3727,
  "ĠØ§ÙĦÙħØ¬ÙħÙĪØ¹": 64958,
  "Ø¶ÙĬÙģ": 6064,
  "ĠØ§ÙĦØ¨ÙĬØªÙĦØ²": 26806,
  "Ross": 76322,
  "ĠÙĪØ§Ø®ÙĦØ§ÙĤÙĬØ§Øª": 52820,
  "ĠÙĪØ§ÙħØªØ¯Øª": 89191,
  "ĠÙħØºÙħ": 31295,
  "Ġstatus": 7242,
  "ĠÙĪØ¬Ø¹ÙĦÙĩØ§": 62220,
  "ĠÙħØ²ÙĬØ¬": 15154,
  "ĠØ§ÙĦÙħØªØ¯Ø§ÙĪÙĦØ©": 28539,
  "ĠÙĬØ±ÙģØ¶": 78584,
  "rying": 7905,
  "ĠBronze": 29991,
  "ĠØ§ÙĦØ¹Ø¶ÙĦÙĬØ©": 30482,
  "ĠÙħÙĬØ¯ÙĪÙģ": 90799,
  "ĠÙħØªØ³Ø¬ÙĦØ©": 45960,
  "ĠØ§ÙĦØ¯ÙĪ": 12372,
  "ĠØ§ÙĦØªÙĨØ§ÙĤØ¶Ø§Øª": 62127,
  "Smells": 94503,
  "ĠÙĪØ§ÙĦÙĬÙĪÙĨØ§ÙĨÙĬÙĬÙĨ": 95329,
  "ĠØ§ÙĦØ¯ÙĬÙĨØ§ÙħÙĬÙĥÙĬØ©": 20348,
  "ĠØ±ÙĬÙĬØ³ÙĬØ§Øª": 88980,
  "ÙĬØ¯Ø§Ø¯": 37441,
  "ĠÙĪÙħÙĥÙĦÙģ": 66881,
  "Ġmotifs": 69960,
  "ĠØ®Ø§ÙħØ³Ø§": 21130,
  "Ġdisadvantaging": 95416,
  "ĠÙħØ§ÙĥÙĦÙĪÙĬØ¯": 98219,
  "breast": 95284,
  "ĠÙĪÙĬØªÙħØ§ÙĨ": 29122,
  "aspar": 79440,
  "ĠÙĦÙĦÙħØªÙĩÙħ": 25617,
  "healthy": 47698,
  "Seasonal": 90835,
  "ĠØªØ³Ø§ÙĦ": 45084,
  "ĠØ±Ø§Ø¯Ø§Ø±Ø§Øª": 49277,
  "Ġfist": 78530,
  "ĠNear": 44516,
  "Ġtricked": 95297,
  "Resident": 92517,
  "Ø§Ø±ÙĬØ®ÙĩØ§": 15319,
  "roubl": 78911,
  "Ġbacon": 65500,
  "Ġmelancholic": 96141,
  "yration": 64507,
  "ĠÙħØ§ÙĦØ¨ÙĬ": 91562,
  "ĠØ§ÙĦØ³Ø±ÙĬØ§ÙĦÙĬ": 34918,
  "ÙģØ³": 640,
  "ĠÙĦÙĦØªÙĪØ²ÙĬØ¹": 61915,
  "Ø§ÙĨØ§": 2257,
  "ÙħØ¨Ø§Ø¯ÙĬ": 48277,
  "Ø³ÙĬØ¯Ø§Øª": 66167,
  "ØªØ¹ÙħØ§Ø±": 34216,
  "ÙĪÙħÙĬØª": 58283,
  "ĠÙĪØ§ÙĦØ¶ØºÙĪØ·": 71577,
  "Ø§ÙĦÙĬÙĪØ¯": 28345,
  "Papaver": 74817,
  "ĠÙħØ³Ø±Ø¹Ø§Øª": 83533,
  "ĠÙĦÙĦÙĤØ·Ø§Ø¹": 87248,
  "ĠÙĪÙħØ³ØªØ±Ø®ÙĬÙĬÙĨ": 100040,
  "ronze": 12199,
  "ĠÙĪÙĪØ¶Ø¹ÙĩØ§": 73444,
  "ĠBalenci": 93559,
  "ĠØ§ÙĦØ§Ø±ØªÙĤØ§Ø¡": 82982,
  "ĠØ¨ØªÙĪØ¹ÙĩØ§": 38335,
  "Ø§ÙĦØŃØ§Ø¶ÙĨØ©": 57824,
  "ĠÙĦÙĦØ³ÙĬØ§Ø³Ø§Øª": 38352,
  "anthrop": 43313,
  "ĠØ¨ØªØ±Ø¨Ø©": 48834,
  "ĠØ§ÙĦØ±Ø§Ø³Ø®Ø©": 29151,
  "Irish": 47505,
  "Brave": 94097,
  "Ø³ÙĦ": 5236,
  "Ġwitness": 22837,
  "ÙĨÙĬÙħØ²": 81220,
  "Ġneglig": 28890,
  "Ġvow": 18265,
  "Ġexit": 44082,
  "ÙħÙĬÙĬØ©": 49073,
  "Ġaorta": 64882,
  "ĠÙĪØ§ÙģØ¹Ø§ÙĦÙĩÙħ": 52781,
  "ĠØ¨Ø§ÙĦØ·": 11792,
  "ĠØªØªØ§ÙĥØ¯": 23360,
  "ĠÙĩÙĬÙħÙĨØ©": 43680,
  "ĠEva": 94332,
  "ĠØ§ÙĦØ§Ø®Ø±Ø©": 18315,
  "Ġclosing": 70255,
  "ĠÙĪÙĦÙĬØ¨ÙĬØ§": 59461,
  "Ġmaritime": 21759,
  "ĠÙĪØ§ÙĦÙĬÙĪØ§ÙĨ": 92885,
  "ÙĥØ§Ø±ÙĬÙĩ": 47366,
  "ĠØªØ³ØªÙħØ¯": 58909,
  "Ġcoloring": 88798,
  "ĠØ§ÙĦØ¹ÙħØ§ÙĦÙĬØ©": 86424,
  "ĠØ®ÙĬØ±": 20006,
  "ØªØŃØ¯ÙĬØ«": 81585,
  "ĠÙĦÙĦÙħÙĬÙĦ": 55330,
  "Ø³ØªØ§ÙĨÙĦØ³": 89274,
  "ÙĦÙĬÙħØ§": 54800,
  "stat": 31645,
  "Ġbiologists": 69985,
  "ĠØ§ÙĦØ¨Ø·ÙĦØ©": 51369,
  "ØºÙĬØ±Ø´": 44397,
  "ĠØ§ÙĦØ·Ø¨ÙĬ": 1428,
  "ĠThro": 83148,
  "ĠØ§ÙĦÙħØ³ØªÙĤÙĦ": 15309,
  "Ġreleased": 5458,
  "ĠFaust": 74075,
  "Ø¹ØµØ§ÙĬØ©": 74846,
  "ĠØ¹ÙħÙĦØ§Ø¡": 37059,
  "Ġrelieves": 74546,
  "COM": 41472,
  "ÙĤÙģØ²Ø©": 90002,
  "Integ": 35464,
  "Ġpurchased": 71914,
  "ĠØ¨ÙĦØ§Ø³ØªÙĬ": 37296,
  "ĠØ¬ÙħØ±ÙĥÙĬ": 88990,
  "ĠØ³ÙĦÙĪÙĥÙĩ": 30461,
  "ÙĦÙĦ": 2377,
  "Ġfuse": 24059,
  "ĠØ§ÙĦÙĨØ¬ÙĪÙħ": 2100,
  "Count": 9277,
  "OECD": 64048,
  "ĠØ§ÙĦØ®Ø§Ø±Ø¬ÙĬØ©": 4719,
  "ĠØ¨Ø§Ø±Ø¯": 13455,
  "Ġconsolidating": 74430,
  "ĠØ§ÙĦØ¬Ø§ÙĪÙĬ": 80197,
  "Carcassonne": 74800,
  "Ø§Ø³Ø±": 43305,
  "ĠØ§Ø¯Ø§Ø±ØªÙĩØ§": 50020,
  "ĠÙĪØ¬ÙĪ": 44815,
  "isional": 65011,
  "ÙħØ®": 27835,
  "ĠÙħÙĨØŃÙĪØªØ§Øª": 10018,
  "ØŃØªØ§Ø¬": 5582,
  "ĠÙĪØ§ÙĦØ§ØµØŃØ§Ø¨": 61103,
  "ĠÙħÙĤØ¹Ø¯": 68355,
  "Ġacceptably": 90583,
  "ĠÙĪØ¨Ø³ÙĬØ·Ø©": 82829,
  "Ø·ÙĬØ©": 11945,
  "ĠÙĦØµÙģ": 43237,
  "ĠÙĨÙĨØ¸Ø±": 91671,
  "istical": 17205,
  "orem": 3866,
  "ĠAndromeda": 30724,
  "Imag": 29126,
  "ĠØŃØ¨ÙĥØ©": 39763,
  "ĠBest": 9704,
  "ĠØ¨Ø§Ø¶Ø§ÙģØ©": 43065,
  "Ø²Ø¬ÙĬØ¬": 78527,
  "ĠØ²ÙĬØª": 10954,
  "ĠØ¨ØªÙĨ": 1982,
  "utes": 7480,
  "ĠØ³ÙĬØ¬ÙħÙĪÙĨØ¯": 57617,
  "oys": 15346,
  "ĠAssets": 30813,
  "ĠMazz": 66801,
  "Ġjurist": 71734,
  "Ġvisceral": 87957,
  "Ġimprinted": 94600,
  "raun": 80080,
  "ĠÙĪØ§ÙĦØ§ØªÙĨÙĬÙĨ": 59856,
  "ĠÙĪØ§ÙĦÙħØ¨Ø§ÙĦØºØ©": 40235,
  "Ø¬Ø¯Ø§Ø±": 64949,
  "ĠØ§ÙĦØµÙĦØ§Ø¯Ø©": 59367,
  "ĠÙĪØ§ÙĦØªØ¬ÙģÙĬÙģ": 70766,
  "Ġappetizers": 74989,
  "Ġlem": 28391,
  "aping": 26845,
  "ĠØŃÙĪ": 1425,
  "Ġquantity": 14143,
  "ĠÙĬØ³ÙĬØ¨ÙĪØ§": 53470,
  "ĠØ§ÙĦØ¨Ø§Ø²ÙĬÙĦÙĬÙĥØ§": 55488,
  "discipline": 74588,
  "ikhail": 95454,
  "ĠÙĩÙĬÙĦØ¨Ø³": 92484,
  "Ø§ÙĬØ§": 1105,
  "ĠØ§ÙĦØ§Ø³Ø±Ø§Ø¡": 80994,
  "Ø§ÙĦØªÙĦØŃÙĬÙĨ": 92033,
  "Ø§Ø¶ÙĦØ§Øª": 56342,
  "ĠÙĬØ¨ÙĬØ¹Ùĩ": 95556,
  "ĠÙĥØ±ÙĬØ³ØªÙĬÙĨ": 72054,
  "ĠØ¹ÙħØ§": 48480,
  "Ġover": 1383,
  "Ø®ÙħØ©": 4641,
  "ĠÙĥÙĬÙĨ": 12989,
  "ĠFG": 67269,
  "Ø§ÙĬÙĪÙĨ": 78270,
  "Ġcoerce": 82787,
  "ĠØ§ÙĦÙģØ¶ÙĬØŃØ©": 72500,
  "ĠÙĪÙħØ´Ø§Ø±ÙĬØ¹": 58883,
  "ĠØ§ÙĥØ³Ø¨Ø±Ø³": 60148,
  "ĠØ®Ø¨Ø±Ø§Øª": 33050,
  "Ġsedimentation": 60115,
  "ĠÙĬØ´ØªØ±": 13085,
  "Ø±Ø§ØªÙĨØ¬": 37306,
  "Ġloading": 46311,
  "Memento": 47750,
  "azing": 34886,
  "ĠÙĬÙĥØªØ¨ÙĪØ§": 73573,
  "ØªÙģØ³Ø®": 99348,
  "ĠØ§ÙĦØ§ÙĥÙĪØ§Ø¯": 44860,
  "vius": 64484,
  "Ġmine": 65517,
  "Ġferns": 36285,
  "ĠÙĦÙħÙĤÙĬØ§Ø³": 84541,
  "rench": 7116,
  "ĠTirthank": 100007,
  "ki": 17067,
  "ĠÙĦÙĦØ³Ø§ÙĬÙĤÙĬÙĨ": 38972,
  "Ø´ÙĬØªØ²": 58052,
  "ĠØ¨ÙĪØ±ØºØ§Ø±Ø¯Øª": 62018,
  "ÙĪØ¯ÙĨØ¬Ø±": 81237,
  "ĠWrit": 82745,
  "ĠÙĪØ§ÙĦØ³ÙĬÙĪÙĦ": 89439,
  "ĠÙĬØ§ÙħØ±": 54871,
  "ÙĨØ¯ÙĬ": 4724,
  "ĠØ§ÙĦØ¯ÙĬÙĨØ§ØµÙĪØ±Ø§Øª": 4611,
  "ĠØªØ·ØŃÙĨ": 65043,
  "Gard": 26283,
  "E": 42,
  "ĠÙħØµØŃÙĪØ¨": 93387,
  "ĠØ¨Ø¯ÙĪØ±Ø©": 45455,
  "ĠÙĪØ®Ø§Ø±Ø¬ÙĬØ©": 58484,
  "Elizabeth": 35496,
  "uces": 64471,
  "ØªØ§ÙĬÙĦØ§ÙĨØ¯": 77247,
  "aras": 33719,
  "ĠØ§ÙĦØ«ÙĦØ¬ÙĬØ©": 28824,
  "^(-": 42812,
  "ØªÙĤØ§Øª": 14630,
  "Ø§ÙĦÙĦØ§Ø³ÙĦØ·ÙĪÙĬØ©": 53441,
  "ĠIM": 55955,
  "ĠØ§Ø±ØªØ¯Ø§ÙĬÙĩØ§": 100269,
  "ØªØ¹Ø§Ø¯Ø©": 10115,
  "ĠØ§ÙĦÙħØµÙĨØ¹": 50145,
  "ĠHTML": 11360,
  "Ġrecover": 15345,
  "ĠØ§ÙĦØŃØ¨ÙĬ": 26583,
  "Ø±ÙĬØ§ÙĦÙĬØ©": 15909,
  "ĠÙĪØ±Ø³Ø§ÙĬÙĦÙĩØ§": 98521,
  "Ġcapture": 7368,
  "ĠØ§ÙĤØªØ±Ø§ØŃ": 20177,
  "ĠØ¨ÙĨØ§ÙĥÙĦ": 30004,
  "Ġ2300": 73132,
  "ivery": 58624,
  "ĠÙħØªÙĨØ§ÙĪØ¨": 57666,
  "ĠØ¨ØªÙĩØ²Ø±": 94149,
  "Ø±Ùģ": 668,
  "ĠØ¨ØªØªØ³ÙħÙī": 18943,
  "ĠØ¨ØªØªÙĤØ¯Ùħ": 18733,
  "odiles": 80815,
  "ĠØ¨ØªÙĥÙĦÙģØ©": 28054,
  "ĠØ§ÙĬÙĪÙĨ": 31871,
  "ĠØ§ÙĦØªØ±ÙĥÙĬØ¨Ø©": 15118,
  "ĠØ¨Ø§ÙĦØ¹Ø«ÙĪØ±": 88458,
  "ĠÙĪØªØ¯ÙĤÙĬÙĤ": 95030,
  "ĠÙģÙĩÙħÙĩ": 50705,
  "Ø·ÙĦØ¨Ø§Øª": 8143,
  "Ø§ÙĬØ¨Ø©": 33638,
  "ĠØ§ÙĦØ¹Ø±ÙĪØ³": 79395,
  "Ġrotting": 70664,
  "ĠØªØ³ØªÙħØ±": 14716,
  "Ġaf": 22069,
  "Ġductility": 43475,
  "Ġreference": 24940,
  "ĠScala": 25958,
  "Ġante": 56253,
  "Pre": 4980,
  "Ġstimulant": 89093,
  "Bureau": 75949,
  "ĠØ¨ÙħÙĤØ§ÙĪÙħØªÙĩ": 63256,
  "Water": 25051,
  "Ġhead": 5726,
  "Pol": 2152,
  "ĠØ§ÙĦÙħØŃÙĦÙĬ": 6562,
  "Vehicle": 60560,
  "enging": 58491,
  "ĠØ¹Ø¨Ø«ÙĬ": 68654,
  "ĠØ³Ø§ÙħØ³ÙĪÙĨØ¬": 93356,
  "Ġcephalopod": 98657,
  "Philosophy": 3812,
  "Ø¬ÙĬÙĪØªÙĨØ³ÙĬÙĨ": 84370,
  "phinx": 23879,
  "ÙĪØ¨Ø§Ø±Ø¯": 44132,
  "ĠØ§ÙĦØ¨Ø±ØªÙĤØ§ÙĦÙĬ": 44687,
  "ĠØ§ÙĦØªØºØ¨ÙĬØ´": 65433,
  "ĠØ§ÙĦÙģÙĤØ±Ø§": 59914,
  "arian": 9301,
  "ĠØ§ÙĦÙĥÙĬØ³ÙĬ": 49003,
  "chitecture": 2127,
  "ÙĪØ¯ÙĪØ±": 26719,
  "ĠGalile": 20402,
  "Ġswitch": 45995,
  "ribes": 26915,
  "ĠØ§ØªÙĪ": 67723,
  "Kashrut": 99201,
  "ĠØ§ÙĦØ³ÙĥÙĪØ²": 99801,
  "enne": 65101,
  "Ø³ÙĨØ¯": 77495,
  "Ø§ÙĦÙħØ¶ÙĦØ¹": 55898,
  "ĠØ¨Ø§Ø±Ø¨Ø¹Ø©": 64838,
  "Ġbaryonic": 79045,
  "ÙĬÙĪØ¨ÙĬ": 42933,
  "Canis": 33352,
  "ĠDiffusion": 62391,
  "Ġdelivery": 21167,
  "ĠÙĦØªØ´Ø±Ø´ÙĦ": 63390,
  "ĠPerfect": 71529,
  "ĠÙĬØªØ¹Ø§ÙĪÙĨÙĪØ§": 97883,
  "GNSS": 92145,
  "Ġheuristic": 83037,
  "ĠÙĪØ§ÙĦÙĤØªØ§ÙĦ": 58267,
  "Ġ859": 70327,
  "ĠÙĪØ§Ø¹ÙĦÙĨ": 98627,
  "ĠÙĥÙĬØ¨": 18170,
  "ĠÙħØ§Ø¡": 18653,
  "ĠÙĦÙĦØªØ¬Ø²ÙĬØ©": 60576,
  "ĠØŃÙĪØ§ÙĦÙĬÙĥ": 34804,
  "Ġdiary": 89819,
  "ØªÙĪØ²ÙĬÙĨ": 83228,
  "Ġeasier": 13889,
  "Rococo": 48026,
  "ĠØ§ØµÙĦØ§": 8952,
  "ĠÙĬØªØ¹Ø¯Ùī": 93200,
  "Ø¯Ø§Ø«Ø©": 7515,
  "ĠØ§ÙĦ": 191,
  "Ġelement": 4975,
  "ĠÙĨÙĪÙħ": 21353,
  "ÙĪØµØ§Øª": 44876,
  "athology": 58631,
  "ĠØ±ÙĪÙĨØ¯Ø§": 74502,
  "Ġalmon": 56444,
  "Ġblog": 40788,
  "ĠØ§ÙĦØŃÙĨÙĬØ©": 79602,
  "ĠÙĪØ§ÙģØ±Ø§Ø²": 90970,
  "Ġprost": 49230,
  "ĠÙĪØ§ÙĦØŃØµØ¨Ø©": 57794,
  "ĠAppeal": 88949,
  "ĠØ´ÙĬØ¯": 80430,
  "ĠÙĦØŃÙħÙĦØªÙĩ": 73424,
  "ØªÙĦØ©": 77213,
  "ĠØ§ÙĦØ²ÙĪÙħØ¨ÙĬ": 32017,
  "ĠRes": 5478,
  "ĠÙĦØ¨Ø±ÙĬØ·Ø§ÙĨÙĬØ§": 39060,
  "ĠØ§ÙĦØªØ¹ÙĤÙĬÙħ": 49992,
  "ĠØ§ÙĦØ¬Ø²ÙĬ": 5574,
  "ĠÙĪØ§ÙĦÙħØºØ°ÙĬØ§Øª": 24874,
  "ĠConcern": 95461,
  "odym": 80812,
  "ĠProgramme": 42430,
  "ĠÙĪØŃÙĦÙĤØ§Øª": 57641,
  "Ġoutermost": 32279,
  "ĠEnnis": 51359,
  "ĠDSLR": 33257,
  "osperm": 43922,
  "Ø§ÙĦÙĥÙĪÙĬÙĥØ¨Ø§Øª": 87501,
  "ĠØ¯ÙĪØ¨ÙĬÙĦÙĬÙĩ": 98107,
  "ĠØ§ÙĦÙĥØ§ÙĪØª": 25331,
  "Ø§ÙĦØ³ÙĥÙĬÙĨ": 86380,
  "ĠÙĬØ¹ÙĬØ¯ÙĪØ§": 52773,
  "ĠÙĤÙĦÙĦ": 26608,
  "ĠØ§ÙĦÙħØ¬Ø±ÙģØ©": 83180,
  "ĠØ§ÙĦØ°Ø§ØªÙĬØ©": 6098,
  "ĠÙĦÙĬÙĨÙĥÙĪÙĦÙĨ": 23657,
  "ĠÙĪÙģØ§Ø²": 37684,
  "ĠØ§ÙĦÙĦØ§ÙĥØªÙĬÙĥ": 72881,
  "ĠØ¨Ø§ÙĨØ·ÙĪÙĨÙĬÙĨ": 85806,
  "ĠCastle": 38741,
  "ĠAdvertising": 88976,
  "ÙĦÙĦÙĩØ§": 86831,
  "ĠÙħØ³Ø¯Ø³Ø§Øª": 83536,
  "Ø±ÙĥÙĬ": 6120,
  "Colostomy": 93264,
  "ojima": 35698,
  "ĠØ§ÙĦØ·ØŃÙĬÙĨØ©": 41683,
  "Ġbronchi": 75120,
  "ĠØ§ÙĦÙħØŃØªØ§ÙĦ": 88856,
  "ĠØ§ÙĦØ¯Ø±ÙĬØ¯Ø¬": 44045,
  "Ġtook": 16316,
  "ĠÙĪØ§ÙĦØ´ÙĪÙģØ§ÙĨ": 86667,
  "ÙģØ³Ø§ÙĬÙĬØ©": 82549,
  "Ġavail": 5383,
  "Ġreaffirm": 99733,
  "ĠØ§ÙĦØ¬Ø³ÙĪØ±": 16584,
  "ĠÙĪÙħØ²": 34170,
  "ĠØ¨Ø§ÙĦÙħÙĦÙĪØ«Ø§Øª": 61268,
  "ÙĪØ²Ø§ÙĨ": 21646,
  "ĠÙĪØ¬Ø°Ø±ÙĬ": 94883,
  "Ġinvolved": 5662,
  "FR": 53758,
  "ĠÙĬÙħÙĥÙĨÙĨØ§": 31988,
  "ĠØªÙĦØŃÙĬÙĨÙĩØ§": 100495,
  "ĠÙĨØ¨Øµ": 36396,
  "ĠÃŀor": 71559,
  "ĠÙĦÙĦØ§ØŃÙĦØ§ÙĦ": 99702,
  "ĠØ·ÙĦØ¹Ùĩ": 51451,
  "Ø¨ÙĬØ±Ø³ÙĬÙĪØ³": 81681,
  "Ø§Ø³ÙĥØ§": 48576,
  "ĠÙĪØ±Ø§Ø«ÙĬØ©": 35603,
  "ĠSinhala": 62596,
  "Ġtall": 18124,
  "ĠØ¨ØªÙĤØ·ÙĬØ¹": 87057,
  "ĠØ§ÙĦØªÙĪØ§Ùħ": 34653,
  "Ġpermeability": 96145,
  "ĠØ¨ÙĤÙĪÙĦ": 54402,
  "ĠØ§ÙĦÙģÙĨØ§Ø¯ÙĤ": 11356,
  "Ġrelieve": 96916,
  "ĠØ§Ø²Ø±Ø§Ø±": 57874,
  "Ø§ÙĥØ³ÙĬØ¯": 36739,
  "ĠØªØ´ÙĪÙĨØº": 83170,
  "Lori": 63984,
  "ĠØ³Ø§ÙĬØ±ÙĪØ³": 52454,
  "educt": 31477,
  "oIP": 33460,
  "NHL": 93691,
  "Ø³ÙĬÙħÙĪØ³": 37756,
  "ĠØ¨ÙĬØ±ÙĥØ¨": 84788,
  "ĠÙĪØ¨ØªØ®ØªÙĦÙģ": 94194,
  "ĠØ³ÙĥÙĪÙĬØ±": 41883,
  "spiral": 90021,
  "ĠØ§ÙĦØ·Ø¨ÙĬØ©": 10739,
  "ÙĪØ§ÙĤÙĬÙĨ": 34785,
  "ĠÙĪÙħØ²ÙĬÙĥØ§": 56432,
  "Ø®Ø¨Ø·Ø©": 54813,
  "ĠØ¯Ø§": 12769,
  "Ø¯ÙĦÙī": 44764,
  "roducing": 59287,
  "ĠØªÙĨÙģØ³ÙĬØ©": 67788,
  "ĠÙĦØ°ÙĬ": 78149,
  "Ø±Ø¬ÙħØ©": 34587,
  "ĠØ§ÙĦÙħØµØ¹Ø¯": 84043,
  "ĠÙĥÙĪÙĦ": 8566,
  "ocrat": 49607,
  "ĠØ§ÙĦÙĥØ§ØŃÙĦ": 55529,
  "ĠÙĪØ§ÙĦØŃØ±ÙĪØ¨": 57789,
  "ĠÙĪØ§ÙĦØŃÙħØ§ÙĬØ©": 12864,
  "ĠØ§Ø³ØªÙĬÙĨØ§Ùģ": 43760,
  "ĠØ¯Ùģ": 15512,
  "Ø¨ÙĨØ²": 88309,
  "aryons": 57009,
  "ĠØ§ÙĦÙĩØ§Ø¯ÙĬ": 8250,
  "Ġsick": 29643,
  "ĠØ§ÙĦÙħÙĥØªØ³Ø¨": 64964,
  "ĠØªØ¬Ø±ÙĩØ§": 84458,
  "eration": 4659,
  "ĠØ¶Ø¹ÙģØ§Ø¡": 83279,
  "ĠÙĪØªØ¬Ø²ÙĬØ©": 71023,
  "Ġspy": 37230,
  "Ġleg": 1768,
  "ĠTraditional": 35654,
  "ime": 1255,
  "ĠÙĬØ®ØªÙĦØ·": 78596,
  "ĠØªØ®ØµØµØ§Øª": 60453,
  "ĠÙģØ¨ØªÙĤØ¯Ø±": 92395,
  "letoe": 58707,
  "Ġpresiding": 86055,
  "Ġrobust": 42051,
  "ĠØªÙĨØ³Ø®": 73273,
  "Ø§ÙĦÙħÙĦØ¬Ø§": 91895,
  "ÙħØªÙĪØ±Ø³": 88434,
  "ĠMg": 44181,
  "ĠØ¨ÙĪØ´Ùĩ": 96112,
  "insure": 86968,
  "ĠØ¨ØªØªØ®ÙĦØµ": 65625,
  "ĠÙĪØ§ÙĦØªØ¬ÙĪÙĬØ©": 70764,
  "ĠØ¨Ø±ÙĪØŃ": 59055,
  "Ludwig": 39177,
  "ĠØ¨Ø§ÙĦØ´Ø¹Ø§Ø¨": 89531,
  "ĠÙĦÙĦÙģØ§Ø³": 88446,
  "ĠÙĪØ¬Ø³Ø¯": 68070,
  "Ġfle": 20592,
  "ĠØ§ÙĦØ«Ø§ÙĨ": 9840,
  "ĠØ§Ø³Ø¨Ø§Ø¨": 12152,
  "Atom": 92674,
  "Ġupdrafts": 72732,
  "ÙĬØ±ÙħØ²": 14855,
  "ĠØ¹ÙĦØ§Ø¡": 36384,
  "ĠØ§ÙĦØ¬ÙĬÙĪØ³ÙĬ": 45473,
  "oem": 76720,
  "Grav": 33367,
  "ĠØ§ÙĦÙħÙĩÙħÙĬÙĨ": 87836,
  "Ġmarriages": 88554,
  "ĠÙĦØ¹Ø§ÙħØ©": 69850,
  "Ø§ÙĦØ«Ø¹Ø§ÙĦØ¨": 70120,
  "ĠÙĪØ§ÙĦØ®ÙĦÙĪØ¯": 73382,
  "ĠØ§ÙĦØ¯ÙĬÙĨØ§ÙħÙĬ": 6038,
  "ØªØ¹ÙĨÙĬ": 34215,
  "ĠØ¨Ø§Ø¨ÙĨÙĩ": 91564,
  "ĠØ¨ØªÙĥÙĪÙĨ": 1434,
  "Ġresources": 3477,
  "ĠØ¬ÙĬØ§ÙĨÙĬ": 45467,
  "ĠÙħÙĪØ®Ø±Ø§": 67593,
  "ĠSaffir": 55918,
  "ĠØ§ÙĦØ±ÙĤÙħÙĬ": 10796,
  "ĠØ§ÙĦØ§Ø³ÙĦØŃØ©": 14902,
  "Image": 18570,
  "ĠØ¨Ø¯Ø±Ø¬Ø©": 16265,
  "Ġsession": 78374,
  "achrome": 50355,
  "ĠØ§ÙĦØ¨ÙĦÙĪØ±ÙĬØ©": 34673,
  "unky": 43871,
  "ed": 266,
  "Ø¬ÙĦÙĬØ©": 77851,
  "ĠÙħÙĨØ§Ø¹ÙĬ": 54958,
  "ĠÙĨØµÙģÙĩ": 51130,
  "ĠØ§ÙĦØ³Ùĥ": 43803,
  "ĠHosp": 82216,
  "Ġfloating": 30984,
  "ĠÙĪØªÙĦØªØµÙĤ": 52732,
  "Ø§ÙĦÙħÙĨØ·ÙĪÙĤØ©": 70321,
  "frost": 76583,
  "ĠÙĦÙĤØ¯Ø§Ùħ": 28859,
  "ĠÙĪÙĬØŃØ§ÙĪÙĦ": 45871,
  "Ġlargest": 3561,
  "Ġconsumers": 7701,
  "Ġslower": 32765,
  "ĠÙĥÙĦÙĬØ©": 15271,
  "ĠØ§ÙĦØ·ÙĦØ¨Ø§Øª": 30590,
  "ĠØ§ÙĦØ§ÙĨÙĬÙĦÙĬÙĨ": 63036,
  "Picard": 53865,
  "ÙĨØ´Ø±": 19840,
  "ĠØ§ÙĦØ®Ø§ÙħØ©": 34112,
  "Ġsupernov": 15734,
  "ĠØ§ÙĦÙĨØ¶": 43600,
  "Brutalism": 39047,
  "ĠØ³ÙĪØ¨Ø±ÙħØ§ÙĨ": 14166,
  "ĠØ¨Ø§ÙĦØ·Ø±ÙĬÙĤØ©": 41925,
  "ĠÙĦØ±Ø¨Ø·": 36217,
  "ĠÙĪÙĨØ´Ø±ÙĪÙĩØ§": 62632,
  "ĠÙĪÙĨØ®ÙĦØ©": 57573,
  "ÙĨØ¨ÙĬØ©": 77170,
  "ĠÙĨØ³Ø§Ø¹Ø¯": 79134,
  "ĠResponsibility": 53225,
  "Ø§ÙĦØªØ±ÙĪÙĬØ¬": 70845,
  "Ø§ÙĦØ§ÙĨØ´ÙĤØ§ÙĤ": 87021,
  "ĠØ§ÙĦØ¨Ø¯ÙĬÙĬØ©": 79789,
  "abol": 11449,
  "Ø§Ø±Ø¨Ø¹Ø©": 37670,
  "ØªØŃØ§Ùħ": 56310,
  "ĠØ¨Ø±Ùħ": 4409,
  "Ġcontagion": 98282,
  "Ġsuccession": 16952,
  "Ġwheels": 26893,
  "ĠÙĦÙĦØ§ÙĥØ³Ø¯Ø©": 28088,
  "ĠÙĪØ´Ø§ÙĬÙĦØ©": 87298,
  "ĠÙĦÙĦÙģØ¶Ø§Ø¡": 16132,
  "Ġcompared": 10130,
  "ØµÙħØ©": 25174,
  "ĠØ§ÙĦØªÙĪØ¶ÙĬ": 25753,
  "Ġrelaxation": 27602,
  "ĠÙĪØ§ÙħØ§ÙĨÙĥ": 51425,
  "Ġplayfulness": 84863,
  "ĠÙĪØ·ÙĦØ¹": 39423,
  "ĠÙĨØ§ÙħÙĬØ©": 39708,
  "ĠØ¨Ø§ØŃØ¯Ø§Ø«": 41611,
  "ĠØ§ÙĦÙĥØ±ÙħÙĦÙĬÙĨ": 47585,
  "ĠØ¨Ø§ÙĦØ´ØŃÙĨØ§Øª": 62727,
  "ĠÙħØ¹ÙĦÙĪÙħØ§ØªÙĬ": 86907,
  "ĠÙĦØªØ´Ø±": 54692,
  "ĠØ¨ÙĪØ±ÙĪØ²": 89973,
  "ĠØ¬ÙĨØ¯": 79657,
  "Ġautumn": 24565,
  "Ġobligates": 73992,
  "Ø¨Ø±Ø§ÙĨÙĬ": 80553,
  "ĠØ§ÙħØ±Ø§": 16134,
  "ÙħØ±Ø³ÙĪÙħ": 82566,
  "ĠØ§ÙĦØ·ÙĪ": 18258,
  "Ġdisplacement": 13807,
  "ÙħÙĪØ¬Ø©": 36045,
  "Ø§Ø±Ø¶Ø§Øª": 50821,
  "ÙĪÙģØ§ÙĨØª": 34352,
  "Philosop": 33398,
  "ĠØ¨ÙĪØµØ§ÙĬØ§": 77619,
  "ĠØ§ÙĦÙħØµØ±ÙģÙĬ": 52562,
  "ĠÙĪÙģØ±ÙĪÙĩ": 58693,
  "Ġekpyrotic": 79505,
  "Ġpus": 21312,
  "ĠSirleaf": 73114,
  "ĠÙĪØ§ÙĪØª": 77657,
  "ĠØªØ¯Ø®ÙĦÙĩ": 89963,
  "ĠÙĦÙħØ³Ø§Ø¹Ø¯ØªÙĩÙħ": 60197,
  "ĠFort": 30042,
  "ĠÙĦÙĦØªØ¬ÙħÙĬØ¹": 91524,
  "ĠØªÙĬØ±Ø§ÙĨÙĪØ³ÙĪØ±Ø³": 97142,
  "ĠBreak": 17744,
  "ĠPrejudice": 35435,
  "Ġliverworts": 93811,
  "ĠÙĨØ¸Ø§ÙħÙĩÙħ": 84589,
  "ĠØ§ÙĦØ´Ø§Ø´Ø§Øª": 43868,
  "ĠØ§ÙĦØŃØ§Ø³ÙĪØ¨ÙĬ": 91003,
  "ĠØ§ÙĦÙħØ¯Ø±ÙĥØ©": 57713,
  "ĠÙĪÙħÙĩØ¯Øª": 97712,
  "ste": 6693,
  "Ġautoimmune": 47489,
  "ĠØ§ÙĨÙĥØ³": 55268,
  "ĠÙĪØ§ÙĦØªÙģØ§ÙĨÙĬ": 71248,
  "dict": 33431,
  "ĠØ¨Ø§ÙĦØŃÙĪØª": 59420,
  "ĠWool": 28403,
  "ÙĬÙĨÙĥÙĪ": 54838,
  "ĠLim": 21528,
  "Ø±ÙĪØ²Ø§": 80074,
  "ĠÙĦÙĦØ¨Ø±ÙĪ": 15757,
  "Ġdrives": 27167,
  "ĠÙĪØ§ÙĦØ§ÙĨØ§ÙĤØ©": 86485,
  "hya": 82551,
  "ĠØ§ÙĦÙħÙĦØ§ØŃØ¸Ø©": 14101,
  "ĠHunting": 98818,
  "intel": 57734,
  "ĠPortuguese": 27692,
  "Ġinjecting": 65370,
  "ĠØ§ÙĦÙģØ±ÙħÙĦØ©": 50434,
  "ĠØŃØ¬ÙħØ§": 30803,
  "ĠMartens": 46062,
  "ĠÙĪØŃØ¶ÙĪØ±": 75212,
  "ĠØ§ÙĦØ¬Ø±Ø§ÙģÙĬÙĨ": 61517,
  "raq": 19981,
  "ĠÙģÙĤÙĬØ±Ø©": 35427,
  "Ġconditional": 86525,
  "ÙĥØªØ¨ÙĩØ§": 27268,
  "ĠØ¨ÙħÙĪ": 7253,
  "Ġtropes": 51853,
  "ancos": 78431,
  "ĠContributions": 90143,
  "Ġchaos": 23877,
  "Ø³ÙĪÙĦØ§Ø±ÙĬØ³": 97571,
  "Concepts": 6445,
  "ÙĤØ§ÙĬÙĤ": 14814,
  "ĠÙħØªØºÙĬØ±Ø§Øª": 57663,
  "axia": 85088,
  "ĠØ§ÙĦØªÙĥØ³ÙĬØ±": 63002,
  "Ġdiversity": 11409,
  "ĠÙĦØªØ´ØºÙĬÙĦ": 21059,
  "Ġprohib": 29861,
  "Ø¶ØŃØ©": 54966,
  "ĠMesoamerica": 53528,
  "ĠØ±Ùĥ": 15954,
  "ØªÙĤØ¹": 14933,
  "judging": 91558,
  "ĠØ§ÙĦÙĩØ§Øª": 49551,
  "Ġevokes": 58123,
  "ĠØ¹Ø§ÙĬÙħÙĬÙĨ": 87159,
  "Ø±Ø§Ùģ": 1091,
  "ĠÙĥØ¹ÙĨØ§ØµØ±": 52544,
  "Ballistic": 96164,
  "ĠCesar": 66435,
  "Ġ1608": 62146,
  "ĠØ¨ÙĬØªØŃØ¯Ø¯": 29063,
  "ĠMust": 44183,
  "Ø§Ø¹Ø¯Ø©": 2149,
  "ĠEch": 66820,
  "Maria": 92384,
  "ĠÙĪØ§ÙĦØ¹Ø¯Ø¯": 50540,
  "Ġempower": 46399,
  "ĠØªØ²ÙĬÙĬÙĨ": 53179,
  "Ø§Ø³Ø±Ø©": 78381,
  "ĠØ§ÙĦÙĥØªÙĦ": 33887,
  "ĠØ§ÙĦØ¨ÙĪØªÙĬÙĥ": 89104,
  "Ġchampion": 17536,
  "Ø³ØªÙĬÙĨ": 17168,
  "ĠÙħÙĤÙĦ": 27865,
  "ĠTCP": 34137,
  "ĠMustard": 97273,
  "HrimÃ¾urs": 99189,
  "ĠÙĪØŃÙĤÙĤØª": 96602,
  "Ġthinking": 13412,
  "2022": 71784,
  "Ø§Ø¨Ø³Øª": 31582,
  "Ġtelescopes": 33303,
  "ĠÙĦÙĤØªÙĦ": 45674,
  "ĠÙĪÙĬØªÙĥØ§Ø«Ø±": 82907,
  "ĠÙĪØ¹Ø¸ÙħØªÙĩØ§": 68587,
  "Ġpolype": 84439,
  "ĠØ§ÙĦØ´Ø±ÙĤ": 10099,
  "Haskell": 63929,
  "sweat": 74839,
  "ĠÙĬØ´ÙģÙĬ": 84531,
  "ĠÙĪØ§ÙĦØªØ§ÙĨÙĬØ©": 40773,
  "ĠÙħÙĬÙĪØ²ÙĬÙĥ": 75740,
  "ĠÙĩÙĪØ±Ø§ÙĬØ²ÙĪÙĨØ²": 61904,
  "Ġrevital": 71253,
  "ĠØªÙĬØªØ§ÙĨØ²": 96979,
  "Ġcasual": 26216,
  "Ø§ÙĦØ²Ø¬Ø§Ø¬": 35263,
  "esus": 15876,
  "Ġhearing": 24370,
  "Ġagent": 15662,
  "Ġnine": 26652,
  "ĠÙĦÙĦØ¨ÙĨÙĬØ©": 70562,
  "ĠØ¨ÙĬÙĨÙĩ": 34118,
  "ĠØ§ÙĦØ§Ø®ØªÙĬØ§Ø±": 16012,
  "Griswold": 98558,
  "Ø¶ÙĪØŃ": 19916,
  "ther": 741,
  "Ġpowders": 98451,
  "Ġdrib": 78968,
  "Ġveil": 52956,
  "Ã°": 39299,
  "ÙĩÙĪÙĬØ©": 77255,
  "Ø³ÙĦØ§ØŃÙģ": 89353,
  "Ġremember": 21692,
  "ĠÙĦÙħÙĦØ§Ø¨Ø³ÙĩÙħ": 96152,
  "Ġ189": 16513,
  "ĠÙĪØªØŃÙĦÙĬÙĦÙĩØ§": 23653,
  "Ġmales": 33771,
  "ĠÙĪØ§ÙĦÙħÙĥØ«Ùģ": 93128,
  "Ġgr": 4164,
  "ĠÙĦØ¯ÙĪØ±Ø©": 38304,
  "ĠØ¨ÙĬÙĤÙĪÙĦÙĩ": 28813,
  "Ġfundament": 27146,
  "fumato": 62836,
  "ĠØ§ÙĦØ¹ÙĤØ§Ø±": 37983,
  "ĠØ®Ø¨Ø²": 24235,
  "Ø§ÙĦÙħØ´Ø±Ùģ": 94438,
  "ĠØªØŃØ¸Ø±": 66951,
  "ĠÙĪØ§ÙĦØ·ÙĤ": 65326,
  "Ø±ÙĬØ³Øª": 79279,
  "ĠØ·ÙĤÙĪØ³": 18599,
  "Ġmangroves": 42106,
  "ØŃÙĬØ·Ø§Øª": 15292,
  "rographic": 38553,
  "ĠOrdov": 90195,
  "uckoo": 71345,
  "Ġaer": 36131,
  "ĠØ§ÙĦØ§ÙĤÙĪØ§ÙĦ": 84165,
  "ĠÙĬÙĨØ·Ø·": 84889,
  "Ġphotons": 23584,
  "ĠØ§ÙĦØ§ÙĬÙĪØ³ÙĬÙĨÙĬ": 85160,
  "ĠØ§ÙĪÙĨÙĦØ§ÙĬÙĨ": 18571,
  "ĠBecause": 21958,
  "ĠÙħØªØŃØ¬Ø±Ø©": 89435,
  "Ġdolphins": 65470,
  "ĠÙĦÙĦØ¹Ø§ÙĩÙĦ": 69220,
  "ĠTechno": 72549,
  "ĠØ§ÙĦÙĦØ§Ùħ": 40182,
  "ØªÙĤØ¨ÙĦ": 67092,
  "Ø§ÙĦØ¬ÙħÙĦØ©": 69046,
  "vaveda": 76850,
  "ĠÙħØ¹ÙĩØ§": 23113,
  "ĠÙĪÙħÙĬÙĥØ§Ø¨": 92868,
  "ÙħÙĬÙĪÙĨ": 31669,
  "ĠØ§ÙĦØ±Ùħ": 8805,
  "Ø´ÙĨÙĪ": 26027,
  "ĠÙħÙĨØ¯ÙĦ": 36325,
  "uals": 1904,
  "Ġcloves": 83350,
  "ĠØ¹Ø§ÙĦÙħÙĬØ©": 11323,
  "ĠÙĬØ´ØªÙħÙĦ": 25662,
  "ĠØ§ÙĦÙħØ®ÙħØ±Ø©": 50583,
  "ĠSurreal": 71870,
  "ĠProblem": 69408,
  "Ġshame": 40550,
  "ĠÙĩØ§ÙħØ§": 17118,
  "Ø§ÙħØ§ÙĨØ©": 78760,
  "Ø¹ÙĥØ³": 12738,
  "ĠÙĪØ§ØŃØµÙĨØ©": 37142,
  "ĠMycology": 93126,
  "ĠÙĦÙĦÙĩÙĦ": 79516,
  "ĠÙĪØ¨ÙĬØµÙĦØŃ": 83794,
  "ĠExclusion": 69083,
  "ĠØ§ÙĦØ¬Ø§ÙĦÙĬÙĥÙĬØ©": 43837,
  "ĠØ§ÙĦØ´ÙĥÙĪÙĥÙĬØ©": 63021,
  "ĠØªÙģØ§ØµÙĬÙĦÙĩØ§": 60460,
  "ĠÙĪØ¯ÙĬÙĨ": 31324,
  "entance": 43558,
  "Read": 88143,
  "ÙĥØ§Ø±Ø§": 85712,
  "ĠØ§ÙĦØ®Ø·Ø§": 30450,
  "ĠÙħØªØ³ÙĦØ³ÙĦ": 89300,
  "ĠÙĨØ§Ø¯Ø±": 17653,
  "ĠØ§ÙĦØ§Ø³Ø·ÙĪØ±ÙĬ": 7712,
  "Ġmundane": 99624,
  "ĠAida": 81089,
  "ĠØªØ§Ø±ÙĬØ®ÙĬØ©": 7698,
  "ĠÙħÙĥØªØ¨Ø§Øª": 69605,
  "Ġcatalogued": 97002,
  "fab": 48115,
  "Ø§ÙĬØªØ¯": 48551,
  "ĠØ¨ÙĬÙħÙĬÙĦÙĪØ§": 74047,
  "ĠØ§ÙĦÙĨÙĤØ±Ø³": 38863,
  "ĠLauren": 62239,
  "Ġinstead": 16479,
  "fere": 7648,
  "ĠØ¨ÙĬØªØ¨Ø§Ø¯ÙĦ": 65581,
  "ĠÙĪØ§ÙĦØ®Ø´Ø¨": 25823,
  "ĠØ§ÙĦÙħØºÙĨÙĬØ³ÙĬÙĪÙħ": 26100,
  "ĠCurrently": 74420,
  "Ġproved": 24465,
  "Ġclassify": 34812,
  "ĠØªØ±ØªØ¯": 58028,
  "ĠØ§ÙĦØºØªÙĩØ§": 82063,
  "ĠØ®Ø±Ø§ÙĬØ·": 16360,
  "ĠØ§ÙĦØ§Ø«": 1394,
  "Ġdeteriorated": 99108,
  "ĠØ¨ÙĨØ®ÙĦÙĬ": 67064,
  "ĠÙĪØ«Ø¨ØªØª": 88329,
  "ĠØªØªÙĥØ§Ø«Ø±": 22988,
  "ĠÙĦÙĦØ§ÙģØ±Ø§Ø¯": 7932,
  "ĠÙĬÙĪÙĨØ§ÙĨÙĬØ©": 15779,
  "Ġ1937": 32678,
  "Ġgram": 55674,
  "ĠÙĪØªØŃÙĪÙĦ": 57996,
  "Ġtrilobites": 75030,
  "ĠØ³ÙĬÙģ": 50278,
  "Ġforbidden": 55604,
  "ĠØ¯ÙĬÙĨØ§ÙħÙĬÙĥÙĬØ§": 91769,
  "ĠÙĤÙĬØ§Ø¯ØªÙĩØ§": 68832,
  "forte": 71392,
  "paste": 54087,
  "ĠØ¯Ø®Ø§ÙĨ": 65542,
  "ands": 5395,
  "ĠAndre": 38230,
  "ĠVLC": 68398,
  "ĠÙĪØªØŃÙħÙĬÙĩØ§": 68675,
  "ÙĨØµÙĪØµ": 54273,
  "ĠÙĪÙĬØ¨ÙĬØ¹ÙĪØ§": 74206,
  "Ø§ØªÙĦØ§": 77808,
  "ĠØ§ÙĦØ±ÙĪØ¨ÙĪØª": 29165,
  "ĠIl": 55956,
  "ris": 4656,
  "ĠAusten": 56070,
  "ĠÙĪØ¸ÙĬÙģØªÙĩÙħ": 71263,
  "ÙĪÙħØªØ±": 7559,
  "ÙħÙĪØ³Ùħ": 77127,
  "yaasaat": 93698,
  "ĠØ§ÙĦØ§ÙĩÙħØ§ÙĦ": 21814,
  "Ġsucceeded": 35728,
  "ĠÙĥÙĪÙĩÙĬÙĨ": 47779,
  "ĠØ¨ÙĩØ¯Ùģ": 12310,
  "Ġcinquain": 98658,
  "Ġprunifera": 67553,
  "ĠÙĪØªÙĪÙĦÙĬØ¯": 34037,
  "ÙģØ¹ÙĦ": 54305,
  "Nath": 64023,
  "ĠØ§ÙĦØ§ØªÙĩØ§Ùħ": 50484,
  "ÙħÙĨØªØ¬Ø§Øª": 80969,
  "ĠØ¨ÙĬØªØ³ÙħÙī": 10269,
  "ĠØ¯ÙĬØ³ÙĪÙĨ": 56158,
  "Ġannounce": 62808,
  "cessible": 83132,
  "ĠØ³ÙĬÙĨØ§Ø±ÙĬÙĪ": 15774,
  "ĠØ§ÙĦØ§ÙĥØ§Ø¯ÙĬØ©": 84440,
  "ĠØ§ÙĦØ¹Ø¯Ø³Ø§Øª": 13852,
  "Ø§ÙĦØªØŃØ±": 59946,
  "ĠØ¹ÙħØ§ÙĦÙĤØ©": 47331,
  "ĠOscill": 67984,
  "ĠGlut": 70961,
  "Ġmarketplace": 25800,
  "Ø¨ÙĬØªÙĩØ§": 36621,
  "sectional": 75399,
  "Ø²ÙĬØª": 17231,
  "ĠÙĬØªØ¨ÙĨÙĪØ§": 42238,
  "Ġtap": 54389,
  "ĠÙħÙģØ§ÙĩÙĬÙħ": 9495,
  "Ø§ÙĦØ§ÙħØ¨Ø±Ø§Ø·ÙĪØ±ÙĬØ©": 60259,
  "Ġextinctions": 61375,
  "Ameritrash": 75906,
  "ĠÙĪÙĥØ°ÙĦÙĥ": 22500,
  "ĠÙĦÙĨÙĥÙĪÙĦÙĨ": 28716,
  "ĠGenesis": 38237,
  "ĠÙĪØ§ÙĦØ¬ÙĦ": 33703,
  "estration": 18289,
  "access": 56731,
  "ĠØ¨ØªØŃØ¬Ø²": 85003,
  "ÙģÙĦÙĪØ³": 11335,
  "ĠPayne": 97263,
  "ĠØ§ÙĦØ¯ÙĬØ§ÙĨØ©": 6486,
  "ÙĦÙĩ": 42931,
  "ĠÙĦÙħØ¹Ø¯ÙĦØ§Øª": 60446,
  "ĠØ§ÙĦÙĥÙħØ§Ø©": 37536,
  "ĠØ³Ø·ØŃÙĩØ§": 50655,
  "ĠØ§ÙĦØ¬Ø¨Ø±ÙĬØ©": 18014,
  "Ø§ÙĦÙħØ®ÙĦÙģØ§Øª": 80668,
  "ĠØ§ÙĦØªØ¹ÙĦÙĬØ¨": 37814,
  "Ø§Ø¬ÙĪØ±ÙģÙĬØ¯Ø§": 55755,
  "Ġarbit": 16433,
  "Ġmeticulous": 53213,
  "Ø§ÙĦÙĦØ¹Ø¨Ø©": 17441,
  "given": 76607,
  "edad": 78737,
  "ĠTogether": 81646,
  "rolites": 85942,
  "ĠØ§ÙĦÙĪÙħ": 77151,
  "ØªØªØŃ": 48295,
  "atib": 77817,
  "ØªÙģØªÙĬØª": 83252,
  "ĠØ§ØªØ³ÙĪÙĤØª": 94069,
  "Theatre": 55402,
  "Ġclaim": 17779,
  "ĠØ§ÙĦØ§ÙĨÙĪØ§Ø¹": 2758,
  "ĠØªÙģÙĩÙħ": 13340,
  "ĠØ§ÙĦØ«ÙĦØ§Ø«ÙĬ": 24826,
  "ĠÙĦÙĦØ¨ÙĪØ±ØªØ±ÙĬÙĩ": 89330,
  "Ġbutter": 13090,
  "ardous": 82985,
  "ÙĥØ¨Ø¯": 45336,
  "ore": 862,
  "demand": 52518,
  "ĠØ¹Ø±": 16674,
  "non": 29478,
  "ĠBron": 25505,
  "ĠTube": 56333,
  "plete": 23351,
  "Ġgenetically": 34370,
  "ĠØ§ÙĦÙĦØ§Ø²": 6646,
  "ÙħÙĥ": 19837,
  "ĠCorpus": 46736,
  "ĠÙĪØ§ÙĦØ¹Ø³ÙĥØ±ÙĬØ©": 68711,
  "ĠÙĦÙĦØªÙĥÙĪ": 79579,
  "ĠÙĦØ¬ÙĪØ¯ØªÙĩØ§": 69403,
  "Ġgrip": 80150,
  "Ġrisks": 10454,
  "ĠØ§ÙĦØ±Ø§ÙĬÙĨ": 28312,
  "oda": 12808,
  "ĠÙĬØ°ÙĪØ¨": 33698,
  "Ġentreprene": 69423,
  "Drainage": 76022,
  "ĠGal": 10117,
  "ĠØ´ÙĤ": 49176,
  "day": 5030,
  "elve": 31613,
  "ĠÙĪØªØ±ÙĬØ³": 56000,
  "ython": 28712,
  "ĠØ§ÙĦØ§Ø³Ø¯": 18809,
  "ĠØ¨ØªØŃÙħÙĬÙĥ": 92017,
  "Ø§ÙĪÙĬ": 2349,
  "ĠÙĬÙħÙĨØŃÙĩ": 52074,
  "ĠÙĪØ§ÙĦØªØ¹ÙĦÙĬÙħ": 8275,
  "Dust": 47918,
  "ĠØ§ÙĦØµØŃÙģÙĬ": 13890,
  "ĠFuture": 44436,
  "ĠMystery": 49540,
  "ĠØ¨ÙĬÙĥØªØ³Ø¨Ùĩ": 62582,
  "Ø±Ø§Ø¬Ø¹": 35072,
  "ĠØ¨Ø§ØªØµØ§ÙĦØ§Øª": 91091,
  "ĠÙģØ§ÙĤ": 77915,
  "Ø§ÙĬØ±ÙģÙĬÙĨØº": 63397,
  "ĠØ§Ø³Ø·ÙĪØ§ÙĨØ©": 95362,
  "Ġwolf": 48731,
  "ĠØ§ÙĦØ±Ø¹Ø§Ø´": 70269,
  "Ø³ÙĪØ¨Ø±Ø§ÙĩÙħØ§ÙĨÙĬØ§ÙĨ": 96463,
  "ĠÙĪØªØ¨Ø§Ø¯ÙĦ": 16613,
  "Ġte": 2072,
  "Ø°Ø§Ø¨": 55380,
  "ĠØ§ÙĦÙĥÙĪÙħÙĬÙĨØªØ§ÙĨØº": 99758,
  "ĠØ§ÙĥÙĦ": 6636,
  "Sine": 53884,
  "Ø¨Ø¹Ø¶": 3651,
  "itively": 39579,
  "ÙĦØ¬ÙĦØ©": 76957,
  "ala": 9423,
  "intrase": 84841,
  "Ġphysics": 11752,
  "ÙĪØ§ÙĬÙĨ": 27841,
  "iCal": 48145,
  "Ġfunctionality": 17368,
  "ĠØ§ÙĦØ´ÙĪ": 18237,
  "ĠMcCloud": 91647,
  "ĠÙħØªØ¬Ø§ÙĪØ±ØªØ§ÙĨ": 97858,
  "ĠÙĪØ§ÙĦÙĩÙĬØ¯Ø±ÙĪØ¬ÙĬÙĨ": 38082,
  "ĠØ§ÙĦÙħØ¬ÙģÙģØ©": 44567,
  "Ġactors": 21612,
  "ĠØ§ÙĦØ§Ø²ÙħØ§Øª": 20957,
  "ĠØ§ÙĦØ²ÙĦØ²Ø§ÙĦ": 12092,
  "ĠYemen": 58671,
  "ĠÙĪØ§ÙĦÙĦØŃ": 35096,
  "ĠØ¨ÙĬØªØµÙĪØ±": 21135,
  "ØªØ§Ø±Ø©": 27847,
  "ĠØ¨Ø§ÙĦØ¯Ùĩ": 80467,
  "ĠÙĪØ§ÙĦØŃÙģØ±ÙĬØ©": 84975,
  "Ø§ÙĦÙħØ³ØŃØ©": 90675,
  "ĠSoup": 88121,
  "ĠÙĪØ³Ø¹ÙĬÙĩ": 85234,
  "ĠÙĬØ±": 2520,
  "ternality": 84049,
  "ĠÙĪØ§ÙĦÙħØŃØ¯Ø¯Ø©": 90359,
  "Eclect": 47038,
  "Ġrefere": 15647,
  "ĠØ¨Ø§ÙĦÙħÙĦØ§ØŃØ¸Ø©": 52459,
  "Ø§ÙĬÙħÙĪÙĨ": 41201,
  "Bryophytes": 62541,
  "ĠÙĪØ³Ø§ÙĬÙĦ": 3807,
  "Ø§ÙĦØ²ÙĬØ¨ÙĤ": 77057,
  "Wetlands": 39221,
  "ĠÙĪØ§ÙĦØ§Ø³ØªØ¨Ø¹Ø§Ø¯": 86118,
  "Survival": 35487,
  "ĠÙĪØ§ÙĦØ§ÙĦÙĥØªØ±": 39622,
  "ĠÙĪØ§ÙĦØ¨ÙĤÙĪÙĦÙĬØ§Øª": 42591,
  "Ġmaps": 21348,
  "ĠØ§ÙĦØ«ÙĦØ§Ø«ÙĬÙĨÙĬØ§Øª": 71624,
  "ØªÙĩÙħ": 2390,
  "Ġmaximizing": 46298,
  "Hypot": 76127,
  "ĠCanterbury": 62201,
  "ĠÙħØ³ÙĦÙħØ§Øª": 83529,
  "Ġwedding": 62271,
  "ĠØ§ÙĦØ³Ø§ÙĦÙħÙĪÙĨ": 66013,
  "ĠTBS": 81637,
  "Ġseabirds": 83118,
  "preserved": 53372,
  "Ġstead": 66142,
  "ĠØ¨ØªØŃØ¯Ø«": 85001,
  "ĠÙĦÙģØªØ±Ø§Øª": 23528,
  "ĠHurricane": 82234,
  "ĠØ¨ÙĬØ·Ø¨ÙĤ": 19938,
  "ĠØ§ÙĦÙħØµØ§ÙĦØŃ": 21585,
  "ĠØ´Ø§Ùģ": 21417,
  "ĠÙĪØ§ÙĨÙģØ§Ø°": 34618,
  "ĠØ§ÙĦØ²ÙĦØ²Ø§ÙĦÙĬ": 21864,
  "Ġdeterior": 73280,
  "Ġbest": 5639,
  "ĠMaasai": 61603,
  "izontal": 40106,
  "ĠMaxwell": 52804,
  "ĠRea": 87400,
  "ĠCombat": 85846,
  "Ġincised": 67350,
  "ont": 1510,
  "ender": 12848,
  "13": 25014,
  "Nirvana": 42749,
  "ĠØ¨ØªÙģØªØŃÙĩ": 62800,
  "tariff": 97085,
  "Ġparameters": 27669,
  "ĠÙĪÙĬØ¹Ø¯ÙĦ": 41493,
  "ĠÙĪØ¬Ø±ÙĬÙħØ©": 50219,
  "ĠViete": 52072,
  "ĠØ§ÙĦÙĦØ¨ØªÙĪÙĨØ§Øª": 40184,
  "Ġsacrificing": 73296,
  "Ġstability": 7886,
  "ĠÙģØ±ÙĬØ¬Ùĩ": 89504,
  "ĠØ¬ÙĪØ¯Ø§": 79672,
  "Ġstomach": 35718,
  "ĠØ§ÙĦÙģØ¶ÙģØ§Ø¶Ø©": 26240,
  "Ġwires": 43467,
  "Bress": 33346,
  "Ø¬Ø¨ÙĬÙĦ": 54532,
  "ĠÙħØŃØ§Ùħ": 31978,
  "ĠÙĦØ¨Ø·Ø§Ø±ÙĬØ©": 62853,
  "ĠØ§ÙĦØ¨Ø±ÙĪ": 3523,
  "ĠCaribbean": 46158,
  "Ġpron": 10421,
  "ĠØ§ÙĦØ®ÙĪÙĬØ³Ø§ÙĨ": 99994,
  "ĠÙĬØŃØ§Ø±Ø¨": 50276,
  "ĠØ§ÙĦÙħÙĨØ§Ø·ÙĤ": 2909,
  "Ġ132": 72137,
  "ØŃÙħØ§ÙĤØ©": 77791,
  "ĠÙģØªÙĬØ§Øª": 43174,
  "ĠØ§ÙĦØ¬Ø¯ÙĬØ±ÙĬ": 92065,
  "Ø§ÙĦØªÙĩÙĥÙħ": 91038,
  "ĠØ¨ÙĤØ¯Ø±Ø©": 43072,
  "ĠØ§ÙĦÙĥØ¹Ø¨Ø©": 79851,
  "ĠStandard": 26212,
  "ucible": 76837,
  "Ġinput": 11408,
  "Ø±ÙĤØµ": 11288,
  "Micro": 27768,
  "Ø§ÙĦÙĤØ±Ø§Ø¡Ø©": 77042,
  "Ġapatite": 84181,
  "ĠØ§ÙĪØ³ÙĦÙĪÙģÙĬÙĪØ±Ø¯": 95701,
  "Ø¹ÙĦØ§Ø¬": 5757,
  "ĠØ§ÙĦØ§Ø²Ø¯ØŃØ§Ùħ": 32402,
  "ĠÙĦØ¨Ø´Ø±": 89634,
  "Ġshear": 19025,
  "ĠØºØ§ÙħØ¶Ø§": 61301,
  "Ġmile": 43506,
  "ĠØ§Ø¹ÙħØ§ÙĦÙĩÙħ": 22668,
  "Ø§ÙĦØ§Ø¯Ø±ÙĬÙĨØ§ÙĦÙĬÙĨ": 91218,
  "ĠØªÙģØªÙĬØªÙĩØ§": 57970,
  "ÙĪÙĥÙĩÙĪÙĦ": 23234,
  "ĠÙĦÙĦÙħØºÙĨÙĬØ©": 44721,
  "Ġwound": 39670,
  "oussi": 66934,
  "ĠØ§ÙĦØ®Ø§ÙĦØ¯ÙĪÙĨ": 97269,
  "Ġcircumstances": 22882,
  "HTML": 27675,
  "ĠØ§ÙĦØ¯Ø±Ø§Ø¹": 34789,
  "Shabbat": 60335,
  "ĠATP": 49350,
  "arah": 39638,
  "ĠÙĪØ§ÙĦÙĪØ±Ø¯ÙĬ": 97175,
  "ĠØ§ÙĦØŃØ¯Ø©": 79599,
  "Ġrope": 37084,
  "ĠÙħØªØ·": 16058,
  "ĠÙĪÙģÙĩÙħÙĨØ§": 60336,
  "ĠSumerians": 47502,
  "ĠØªØ§ÙĨÙĬØ©": 1370,
  "ĠØ§ÙĦÙħØ¹Ø§ØµØ±ÙĬÙĨ": 62301,
  "Ġsignifies": 30212,
  "ĠØ§ÙĦØ±Ø§ÙħØ§ÙĬØ§ÙĨØ§": 81667,
  "ĠPrince": 34581,
  "ĠÙħØªØ³ÙħÙĬØ©": 37341,
  "ĠØ¨ÙĬØªÙģØ±Ø²": 67861,
  "Ġantiquities": 98436,
  "ĠØ§ÙĦØ§Ø¬ÙĨØ¨ÙĬ": 16998,
  "ĠÙĦÙĦÙħØ¹ÙĦÙħÙĬÙĨ": 83874,
  "ĠÙĦØ§Ø®ØªØ¨Ø§Ø±": 36227,
  "ÙģÙĪÙĨ": 17577,
  "Ø§Ø¹Ø·": 43480,
  "ĠÙĥØªÙĦ": 9675,
  "Ġtoxins": 52871,
  "Ø¨ÙĪØ¯ÙĬØ§": 20533,
  "ĠØ§ÙĦØªÙĪÙģØ±": 68840,
  "ĠÙĨØ´Ø±": 4579,
  "ĠØ§ÙĦØ§Ø±ÙħÙĬÙĨÙĬØ©": 82984,
  "Ġhue": 80172,
  "ĠÙĪÙħÙĪØ§Øµ": 81824,
  "Ġpriest": 67550,
  "ĠØ§ÙĦØ§ÙĪÙĩ": 49727,
  "Ġcontractions": 60371,
  "ĠØ¯ÙĬØ±Ø¯ÙĬÙģÙĬÙĦ": 38725,
  "Ø¬Ø§Ùħ": 7321,
  "Ġpaideia": 98664,
  "Sustainability": 48040,
  "ĠØ§ÙĦØ§Ø¶ÙĦØ§Ø¹": 24647,
  "ĠÙĦÙĦØ«ÙĤØ¨": 33003,
  "Ġ1793": 42277,
  "ĠØ¨Ø§Ø®ØªÙĦØ§Ùģ": 52133,
  "Ġmisconceptions": 53443,
  "%),": 63722,
  "ĠØ§ÙĦÙģØ±Ø¹ÙĬØ©": 11138,
  "ĠØ¨ØªØ´ØªØ±ÙĬÙĩ": 42167,
  "ĠÙĦÙĦØŃØ¯ÙĪØ«": 73016,
  "ĠÙĬØµØ¹Ø¨": 32707,
  "Ø¸ÙħÙĬØ©": 48929,
  "ĠØ§ÙħØ§ÙħÙĥ": 90955,
  "ĠØ§ÙĦØ¹Ø¨Ø§Ø¡Ø©": 70201,
  "ĠØ§ÙĦÙĤÙĬØ§Ø¯Ø©": 6825,
  "ĠØªÙħÙĪÙĬÙĦÙĩØ§": 92137,
  "ĠØ³ÙĬØ¬ÙĦ": 57611,
  "ĠÙĪÙħÙĪØªÙħØ±Ø§Øª": 59735,
  "ashow": 85908,
  "ĠØ§ÙĦØ¨Ø§Ø±Ø¯": 9949,
  "ĠApart": 45881,
  "ĠÙĪØ§ÙĦØ±Ùħ": 45590,
  "adata": 66660,
  "Guy": 73082,
  "Ø§ÙĦÙħÙģÙĥØ±": 80690,
  "Ø§ÙĦÙĥÙĪÙĦÙĬØ±Ø§": 96456,
  "ĠÙĥØµØ±Ø§Ùģ": 99579,
  "ĠØªÙĥØ³ÙĬØ±": 13918,
  "ĨĴ": 27824,
  "ĠÙĦÙĬØµØ¨ØŃÙĪØ§": 62622,
  "ducation": 2827,
  "ØªÙĦØ³ÙĥÙĪØ¨": 81558,
  "lows": 44729,
  "ĠÙĪØ¨ÙĪØ²ÙĪÙĨØ§Øª": 67362,
  "ĠØ§ÙĦØ®Ø±Ø³Ø§ÙĨÙĬ": 38009,
  "ĠÙĪØ§ÙĦØ§Ø¯Ø¨": 13391,
  "ĠÙĪØ¨ÙĬØ³ÙĬØ¨": 67826,
  "Fly": 76051,
  "Ġdays": 19927,
  "Oncology": 93172,
  "ĠÙħØ¶ØºÙĪØ·Ø©": 70253,
  "Ġseedling": 89536,
  "aty": 43140,
  "GDP": 14783,
  "Ġdenial": 60646,
  "Ġtreating": 30525,
  "igone": 66019,
  "ÙĪØ§Ùĩ": 13272,
  "ĠÙĦØ¹ÙĬ": 43235,
  "ĠØ§ÙĦÙħØªØ©": 84052,
  "Ø²Ø±Ø¹": 8877,
  "ĠAdjacent": 88973,
  "ÙħØªØ¯Ø±Ø¨": 97101,
  "printed": 91407,
  "ĠÙĦØªØ¹ÙĦÙħ": 58189,
  "Ø§ÙĦÙħÙĪÙĦ": 36691,
  "Mariachi": 72153,
  "Ø§ÙĦØªÙĨØ¯Ø±Ø§": 38109,
  "Ġposthumously": 39109,
  "ĠÙĦØ¬ÙħØ¹ÙĬØ©": 54724,
  "legal": 16186,
  "ĠØ§ÙĦØªØ¹ÙĪÙĬØ¶Ø§Øª": 83485,
  "aulk": 38218,
  "ĠJohnson": 29025,
  "RM": 18075,
  "ĠÙħØºÙĦÙĤ": 19772,
  "ĠØ§ÙĥØªØ³Ø¨Øª": 35729,
  "ĠSpeech": 38119,
  "ĠÙĪØ³Ø§Ø¯Ø§Øª": 85222,
  "ĠCRIS": 66447,
  "ĠChanging": 57959,
  "ĠÙĪØ§ÙĦÙģØ±Ø´": 59891,
  "Ġenhance": 10318,
  "oustic": 31864,
  "ĠÙĪØ¸ÙĬ": 25133,
  "ĠØ¹Ø¨Ø¯": 37455,
  "ĠØ³ÙĬØ·Ø±Øª": 31014,
  "ĠØ§ÙĦØªÙĪØŃØ¯": 50600,
  "Ø§ÙĦÙħØ±Ø¨ÙĬ": 51939,
  "Ø§ÙĦÙħÙĬØ©": 33986,
  "Ġ1989": 12480,
  "Sed": 31184,
  "ĠØ§ÙĪÙĬØ³Ø³": 42595,
  "ĠØ¨ØªØªÙĨØ§ÙĪÙĦ": 30284,
  "ĠGuidel": 60888,
  "ĠÙĥØ§ÙĨÙĪÙģØ§": 81538,
  "Ġseemed": 52668,
  "Ġpoint": 2472,
  "ĠPrinciples": 85196,
  "Ġinflam": 32076,
  "ĠÙĪÙĬÙģØ³Ø±": 44481,
  "Ġtranslates": 30829,
  "ĠPadres": 74907,
  "ĠØªÙĥØ±Ø§Ø±Ø§Øª": 91221,
  "Ø®Ø¯ÙħØ§Øª": 2513,
  "ĠØ§ÙĦØ¯ÙĬÙĨØ§ØµÙĪØ±": 15002,
  "ĠØµØŃØ±": 49401,
  "ĠPhobia": 66611,
  "ĠÙĨØ²ÙĪÙĦ": 26537,
  "Jim": 76145,
  "Wings": 76452,
  "ĠÙĥÙĬØ®": 37743,
  "Ġsubscription": 97793,
  "ĠÙĦÙĦØ§ØŃØ³ÙĨ": 90718,
  "ĠÙĥØ§Ø±Ø«Ø©": 21749,
  "ĠClaw": 88538,
  "ĠÙĬÙĤÙĬÙħ": 24062,
  "ĠØ¨ÙĬØ²ÙĪØ¯": 7467,
  "ĠØ«ÙĤ": 67406,
  "ĠØ§ÙĦØ§Ø¨Ø¯Ø§Ø¹ÙĬ": 42427,
  "lingwood": 69948,
  "Ø§ÙĦØªØ´ÙĬØ²ÙĬÙĨØ¬": 92042,
  "ĠÙħØ±Ø§ÙĩÙĤØ§": 98298,
  "Ø«ÙħØ±ÙĪØ§": 52046,
  "aud": 14501,
  "ĠÙĪØ§ÙĦÙħÙĨØ¸ÙħØ§Øª": 15709,
  "ĠØŃØ§Ø¯Ø«Ø©": 26111,
  "ØŃÙĥÙħ": 29586,
  "untime": 40524,
  "ĠØ¨ÙĩØ§Ø±Ø§Øª": 51022,
  "ĠExcavation": 28737,
  "ĠÙĪØ¨ÙĬØ®ÙĦÙĬÙĥ": 51851,
  "posed": 5138,
  "ĠSinger": 55909,
  "ll": 3262,
  "ĠØ§Ø¹Ø·": 50315,
  "transitive": 92456,
  "ĠÙĥÙĦØ§Ø³ÙĬÙĥÙĬØ§": 72507,
  "Ġunbear": 83399,
  "Ġelders": 39774,
  "ĠÙĪÙĦÙĬØ§Ùħ": 88852,
  "Ġbasis": 11708,
  "ĠÙĪØ§ÙĤØ§ÙħØ©": 59171,
  "ĠØªØ¬Ø§ÙĪØ²ÙĩØ§": 93970,
  "ĠØ§ÙĦØ¨ÙĪØ¨": 11424,
  "Ġmedieval": 32299,
  "ĠÙħØªÙĥ": 13195,
  "ÙĪØªÙĪ": 2394,
  "ĠØ·Ø±ÙģÙĬØ§Øª": 62730,
  "ÙĪÙĪÙĦ": 42979,
  "ĠÙĪØ§ÙĦØªÙĪØ±Ø¨ÙĬÙĨØ§Øª": 98368,
  "ĠØ³ÙħÙĬÙĥ": 32802,
  "odesic": 51997,
  "Ø§ÙĦÙĩØ¯ÙĬØ©": 87122,
  "Ġscler": 85495,
  "esthesia": 100077,
  "ĠÙĦØ§Ø±ØªØ¯Ø§Ø¯": 92406,
  "ĠÙĨØ³ØªØ®Ø¯Ùħ": 5970,
  "ØªÙĦÙĪØ«": 6867,
  "Ø¸ÙĨÙĪÙĨ": 65798,
  "ĠÙĪÙĨØ¬ÙĬØ¨": 68182,
  "ĠÙĪØ¨ØªØ·Ø¨ÙĤ": 69099,
  "ĠID": 18250,
  "ĠTycoon": 74913,
  "tension": 88008,
  "conduct": 19481,
  "ÙģÙĬØ¨Ø§Ø³Ø§ÙĨØ§": 99935,
  "ĠØ¨Ø§ÙĦØªØ¹Ø±ÙĬØ¶": 38450,
  "ĠÙĪØ§ÙĦØŃØ¯Ø§Ø¯": 44993,
  "Ġcrit": 4024,
  "isor": 65007,
  "ĠConsumption": 73753,
  "Ġleading": 2763,
  "ĠÙĪØ§ÙĦØªØ·Ø¨ÙĬÙĤØ§Øª": 34561,
  "ĠÙĪØ¨ØªÙĥ": 82822,
  "us": 305,
  "Ø§ØªØ¬Ø§Ùĩ": 77803,
  "henck": 68744,
  "Frost": 76059,
  "ĠÙħØ³ØªØ¹Ø¯": 67997,
  "Ġchosen": 20770,
  "ØµÙĬØ§ÙĨØ©": 10979,
  "ĠCultures": 49332,
  "Ġdevast": 24665,
  "Ġtender": 51695,
  "ĠÙħØ¨Ø§Ø´Ø±": 4874,
  "Elephas": 71625,
  "open": 44060,
  "Ġdistorts": 61049,
  "ĠØ§Ø¹Ø·Ø§Ø¡": 16870,
  "Ø¨Ø§Ø¨ÙĦÙĪ": 37831,
  "Ø§ÙĩÙĬØ±": 17255,
  "Ø¯ÙĬØ²": 11255,
  "ĠØªØªÙģ": 15489,
  "ĠÙĦÙĦÙħØŃÙĬØ·": 83869,
  "ĠØ§ÙĦÙĤÙħÙħ": 39888,
  "Ġgrate": 88608,
  "ĠÙħØ§ÙĬØ§": 29541,
  "Ġornamental": 52694,
  "ĠÙĦÙĦØ°Ø±Ø§Øª": 52107,
  "ĠÙĪÙĬØªØµÙĦ": 82920,
  "ob": 845,
  "ĠÙħÙĦØŃÙħÙĬØ©": 33068,
  "ĠKahn": 26967,
  "andel": 66851,
  "ĠÙĦÙĦØ§ÙĦØªÙĩØ§Ø¨Ø§Øª": 75514,
  "ĠÙħÙĥØ§ÙĨØ©": 18416,
  "Ġ73": 69950,
  "ÙħÙĪÙĤØ¹": 54231,
  "ĠÙĪÙħØŃØ§ÙģØ¸": 89722,
  "ĠØ§ÙĦÙĤØ§ÙĬØ¯": 31664,
  "Ġcodes": 17613,
  "ĠÙħÙĪØ§Ø²ÙĨ": 57035,
  "Ġfirst": 1376,
  "Ø§ÙĦØ§Ø«ÙĨÙĬØ©": 62680,
  "Ġperformance": 5342,
  "ĠDickens": 52700,
  "ĠØ³Ø®Ø±ÙĬØ©": 55562,
  "ĠÙĪØ§ÙģÙĥØ§Ø±Ùĩ": 42330,
  "ĠÙĪØ§ÙĦÙģÙĬØªØ§ÙħÙĬÙĨØ§Øª": 71679,
  "Ġglobalization": 15746,
  "Ġ4": 2366,
  "ĠÙĪØ§ØµØ¨ØŃØª": 32808,
  "'\"": 53670,
  "ĠHunger": 34213,
  "oiding": 34887,
  "Ø¶ÙĬØ¹": 65398,
  "ĠRacing": 67161,
  "ĠÙħØ°ÙĩÙĦØ©": 64776,
  "ĠÙĦØ¹ÙħÙĦØ§ÙĬÙĩØ§": 71635,
  "è´Ľ": 76924,
  "Ø¬Ø±ÙĬ": 64939,
  "ĠCivilization": 15074,
  "ĠØ¨Ø§Ø±Ø§Ùĥ": 87674,
  "ĠÙģØ§ÙĨØª": 32404,
  "ĠProjects": 28781,
  "ĠÙĦØ§ØµØºØ±": 61387,
  "Ø§ØºÙħØ§Øª": 16046,
  "Three": 41322,
  "cosystem": 4389,
  "ÙĥÙĦØ§Ùħ": 80163,
  "ĠØ¨Ø§Ø³ØªÙĪØ±": 27001,
  "Ġmonks": 58984,
  "ĠØ¨Ø§Ø±ÙĬÙĨØ¬": 87680,
  "Ġstr": 2809,
  "Ġdarken": 51518,
  "climate": 58520,
  "Ġpolice": 26952,
  "Aerodynamics": 74118,
  "Ø²Ø§Ø±": 22116,
  "Vent": 48057,
  "Jakob": 99195,
  "ĠØ§ÙĬØ·Ø§ÙĦÙĬ": 21816,
  "Ġkilts": 92222,
  "ĠØ§ÙĦØ¬Ø§Ø¯": 66068,
  "ĠÙģÙĦ": 5780,
  "ĠØ§Ø¯Ùī": 4465,
  "ĠÙĪÙħØ¶Ø§Ø¯": 42228,
  "ĠÙĨØ§Ø¨ÙĪÙĦÙĬ": 61427,
  "ÙĤÙĬØ§": 49444,
  "ĠØ§ÙĦÙħÙĩÙħØ´ÙĬÙĨ": 37807,
  "Ġcapital": 3014,
  "Ġblend": 19543,
  "Ø§Ø®ÙĬØµ": 21475,
  "ĠÙĦØ³ÙĨ": 22096,
  "Ġtrader": 68635,
  "ĠÙĬÙĤÙĬÙħÙĪÙĨ": 94981,
  "ĠEF": 19424,
  "ĠØ§ÙĦØ¨ÙĨØºØ§ÙĦ": 87707,
  "ØªØ´ÙĩÙĬØ±": 56710,
  "Ġconstitutes": 41090,
  "ĠØ³ÙħØªÙĩ": 88350,
  "Ġdigital": 5626,
  "Ġcyl": 30486,
  "ĠÙħÙĪÙĤÙģØ§": 91779,
  "ĠØ§ÙĦÙħØ±ÙĬØ¶": 24667,
  "Ġuncomp": 67640,
  "ØªÙĪ": 785,
  "ĠÙĨØ³Øª": 16724,
  "Ġfaint": 29663,
  "ĠØ¨ÙĨØ¹Ø²Ùģ": 72669,
  "ĠÙĪÙħØµØ§Ø¯Ø±": 27437,
  "OC": 42751,
  "ØµØ§ÙĬÙĬÙĬÙĨ": 78121,
  "ĠPandas": 74908,
  "ĠØ·ÙĪØ§Ùģ": 43952,
  "ĠØ§ÙĦØªÙĬØ±": 55014,
  "ĠÙħØ·Ø§ÙĦØ¨": 52033,
  "OI": 12717,
  "Ø§ØªÙģØ§ÙĤÙĬØ©": 42312,
  "ĠÙĦØªØ§Ø«ÙĬØ±Ø§Øª": 35724,
  "Ġcrater": 45432,
  "ĠØ¨Ø¨Ø³Ø§Ø·Ø©": 3565,
  "ĠØ³ØªØ±Ø§Øª": 49020,
  "Ġresearc": 14128,
  "Ġagg": 10984,
  "etw": 901,
  "ĠSupper": 38153,
  "ĠØ§ÙĦØ®ÙĬ": 5274,
  "ĠØ§ÙĦØ§ÙĨØªÙĤØ§Ø¯Ø§Øª": 51974,
  "ĠØ§ØŃØµØ§ÙĬÙĬØ§": 74720,
  "ĠØ¨ÙĨØ¸Ø±ÙĬØªÙĩ": 63051,
  "nes": 64382,
  "Ġunderwent": 68316,
  "ĠØ§ÙĦÙĤÙĦØ§Ø¹": 39891,
  "ĠØªØ§ÙĪÙĨ": 43207,
  "ĠÙĪØ¨Ø¯ÙĬÙĩÙĬØ©": 82849,
  "ĠÙĦÙĦØ¨Ø±": 19947,
  "ĠØ§ÙĦÙħØªØ¨ÙĤÙĬØ©": 24848,
  "ĠAppian": 93982,
  "ĠÙĪØµØ¹Ø¨": 34925,
  "ĠÙĥÙĥÙĦ": 25228,
  "ĠØ¨ÙĪØ¯Ø±Ø©": 38633,
  "ĠÙĪØ§ÙĦÙħØ§Ø³": 56466,
  "Ø§ÙĦÙĬÙĤ": 82078,
  "Ġbrush": 69340,
  "Ġste": 5298,
  "ĠØ§ÙĦØŃØ§ÙĬØ²Ø©": 55383,
  "ĠGard": 20772,
  "ĠØ§ÙĬØ±Ø§Ø¯Ø§Øª": 25495,
  "ÙģÙĬØ±ÙĪØ³Ø§Øª": 47237,
  "ĠØŃØ°": 65712,
  "Ġventure": 19768,
  "ored": 5112,
  "ĠØ¨Ø§Ø³ÙĦÙĪØ¨Ùĩ": 30900,
  "ĠØ§ÙĦØŃØ²ÙĬÙĨØ©": 61390,
  "ĠNineveh": 53146,
  "yorn": 64508,
  "romones": 67106,
  "ÙĨØ§ÙĨÙĩ": 69325,
  "ĠØ§ÙĦØ³ÙĬÙĦÙĬÙĥØ§": 15795,
  "ĠØ¨Ø³ÙĪÙĤ": 49852,
  "ĠÙĪÙĨÙĪÙģØ±": 84474,
  "ĠØ¨ÙĬØ²ÙĪØ³": 97625,
  "ĠØ§ÙĦØ¯ÙĪÙĦÙĪÙħÙĬØª": 87750,
  "ĠÙĪØ§ÙĦØªÙģØ§ØŃ": 90716,
  "sis": 3693,
  "enity": 39553,
  "Skeletal": 76381,
  "ĠØ§ÙĦØ±Ø¶Ø¹": 49509,
  "BL": 75908,
  "Superlative": 92770,
  "Postcolonial": 41965,
  "ĠØªÙĦØ¹Ø¨Ùĩ": 38254,
  "ĠÙĪÙĬÙħÙĥÙĨÙĩØ§": 51501,
  "Ø§ÙĦÙħØ§ÙĨÙĬØ§": 33992,
  "Ġtinct": 64792,
  "ÙħÙĪØ¯": 26349,
  "ĠØªØ¸ÙĩØ±": 7378,
  "ĠViz": 68390,
  "Ø§ÙĦØªØ¯Ø¹ÙĬÙħ": 84945,
  "ithic": 19894,
  "Ġasteroid": 10911,
  "arfire": 46418,
  "Creat": 10666,
  "perm": 14321,
  "ified": 3773,
  "ĠAllocating": 71113,
  "ĠØ§ÙĦØ¨ÙĦØ¯ÙĬ": 50638,
  "ĠØ¯Ø±Ø§ÙģÙĬØ¯ÙĬØ©": 83270,
  "ĠÙĦÙħØ³Ø§ÙĩÙħØ§ØªÙĩÙħ": 98459,
  "ĠØ¨ÙĬØ±ÙĬÙĨÙĬ": 84789,
  "Ġdiscl": 34640,
  "ĠØ¨Ø´Ø¹Ø§Ø±": 58255,
  "ĠSantana": 52880,
  "ĠØ§ÙĦØµÙĨÙģØ±Ø©": 37725,
  "ĠÙħØ¶ÙĬÙĤ": 27267,
  "ĠÙĦØ¯Ø§ÙħÙĬØ§ÙĨ": 99473,
  "ĠØ¨Ø¯Ø±Ø§Ø³Ø§Øª": 23990,
  "ĠInter": 8174,
  "Ġ1605": 73646,
  "Ø§ÙĦØ§ØŃØªÙĪØ§Ø¡": 91325,
  "ĠØ§ÙĦØ§Ø¯ÙĬÙĨÙĬÙĨ": 84162,
  "ĠÙĦÙħØ§Ø±Ùĥ": 43251,
  "ĠÙĪØ§ÙĦØ¨Ø±ÙĪØ«": 92662,
  "ĠHem": 13792,
  "Ø§ÙĦÙħØŃÙĦÙĦØ§Øª": 80696,
  "ĠØªØ§Ø«Ø±Ø§": 91507,
  "ÙĨÙĬÙĥÙĬØ©": 56127,
  "Ġmental": 4732,
  "ĠØ¨Ø«ÙĤØ§ÙģØ©": 33555,
  "Ø¨Ø·ÙĬ": 24492,
  "Ġshoot": 88244,
  "ĠÙħØ§Ø¨ÙĤØªØ´": 74637,
  "Ġinternment": 69324,
  "ĠØ¨ØªØ§ÙĬØ¯": 65609,
  "ĠØªÙĤØ¯ÙĬÙħÙĬ": 97746,
  "ĠÙħÙĪØ±Ø¬ÙĨØ³ØªØ±ÙĨ": 90174,
  "Ġelicits": 96985,
  "ĠØ¨Ø§ØªØ´ÙĬØ³ÙĬÙģØ§ÙĦÙĪØµÙĪØ±ÙĪØ³": 100593,
  "italization": 34648,
  "ĠÙĦØ¨Ø§Ø¨ÙĦ": 89635,
  "Ø§ÙĦØªÙģØ§ÙĪØª": 61324,
  "ag": 450,
  "ĠÙĪØ³ÙĪÙĨÙĬØªØ©": 57901,
  "ĠØ§ÙĥØ²ÙĦÙĪÙĨØªÙĬÙħ": 99998,
  "ĠØ§ÙĦØµØ§ÙģÙĬ": 40089,
  "ĠØ¨ØªÙħØ«ÙĦ": 6263,
  "ĠØ³Ø¬ÙĨ": 21391,
  "ĠBooks": 22345,
  "ĠÙħØµÙĨÙģØ©": 68103,
  "ĠØ§ÙĦØ®ÙĪØ§Ø±Ø²ÙħÙĬ": 75599,
  "ĠØ±ÙĬØ²Ø¯ÙĨØª": 63250,
  "Ġconsent": 24402,
  "ĠÙħÙĪØ³Ø³": 10616,
  "ĠØ¹ÙĪØ§Ø·ÙģÙĩÙħ": 42003,
  "erosion": 77976,
  "Ġincorporates": 16182,
  "ĠÙħÙĬÙĦØªÙĪÙĨ": 45657,
  "ĠÙĪØ§ÙĦØ®ÙģØ§ÙģÙĬØ´": 78701,
  "ĠØ§ÙĦÙħØ±ØªÙģØ¹Ø©": 18898,
  "ĠSimulation": 46622,
  "Inventions": 4761,
  "ardment": 40416,
  "Ġturned": 60381,
  "Ø¬ÙĬØ¨ÙĪÙĨ": 45933,
  "ĠØªØ§ÙĪØ±Øª": 63383,
  "ĠØ¨Ø´ÙĩØ§Ø¯Ø§Øª": 86008,
  "Ġselections": 91544,
  "is": 228,
  "Ġunsubstantiated": 100621,
  "ĠØ§ÙĦØªØ§Ø«ÙĬØ±": 3681,
  "ĠÙĦØºØ²ÙĪ": 45746,
  "ĠÙĦØ¯ÙĪØ±Ø§ÙĨ": 65087,
  "ĠÙħÙģØ±Ø·": 30879,
  "Ø§ÙĦØ·Ø±ÙĬÙĤ": 32703,
  "ØªØ±ÙĥØ§ÙĨ": 80019,
  "ĠØ¨ÙĤÙĪØ§Ø¹Ø¯": 19552,
  "ĠUrey": 68048,
  "ĠÙĨØ¸Ø±": 4921,
  "Ġstup": 66136,
  "Crack": 63816,
  "Ø§ÙĦØ¯ÙĩÙĪÙĨ": 33501,
  "ĠHusse": 67043,
  "ĠØªØ³ØªØºØ±ÙĤÙĩ": 69702,
  "ĠØ¨ÙĬØºØ·ÙĬ": 20620,
  "Ġluxurious": 27627,
  "Ġwrit": 2239,
  "loor": 48158,
  "ĠØ§ÙĦÙĥØ§ÙħÙĬØ±Ø§Øª": 16524,
  "ĠØ¨ÙĪØ²ÙĨ": 36109,
  "ĠØ¨ÙĬÙħØªÙĦÙĥÙĪØ§": 62150,
  "ĠØ¬ÙĬØ§ÙĨØºØ´ÙĬ": 98411,
  "ouriakoff": 100333,
  "ĠÙĦÙĦÙĥÙĩØ±Ø¨Ø§Ø¡": 30552,
  "ĠØ¨Ø§ÙĦÙħÙĪØ¬Ø§Øª": 37778,
  "ĠØ§ÙĦÙħÙĪØ§ÙĦÙĬØ¯": 9112,
  "ĠØªØ¹Ø¨ÙĬØ©": 40327,
  "ĠØ¨ÙĬÙĦÙģ": 19307,
  "ialectalism": 82395,
  "ĠØ§ÙĦØªÙĩØ¯ÙĬØ¯": 23707,
  "ĠÙĤÙĦØª": 23679,
  "Wolfenstein": 47753,
  "ÙĪØ±ÙħÙĬÙĥ": 78932,
  "Ø§ÙĦØµ": 3293,
  "ĠØ§ÙĦØ³ÙĦØ§ÙħØ©": 10550,
  "ĠØ§ØªØ§Ø³Ø³Øª": 24400,
  "ĠØ§ÙĦÙħÙĨØ·ÙĤÙĬ": 24867,
  "ĠØ§ÙģØªÙĥØ±": 84699,
  "Ġdiarrhea": 100560,
  "ĠÙĪØ§ÙĦØªØŃÙĬØ²": 20995,
  "ĠÙħÙĪØµÙĦ": 19475,
  "Ġaccre": 83773,
  "ungary": 34965,
  "ĠÙĥÙĦØ§Ø³ÙĬ": 14635,
  "ÙĪÙĬÙĥØ¨Ø§Øª": 33956,
  "Ġinvalid": 58584,
  "Punnett": 99239,
  "lying": 4781,
  "Canon": 74002,
  "áŀģáŀĺáŀļ": 75820,
  "atic": 2590,
  "ĠBefore": 18850,
  "ĠØ§ÙĦØ§ÙĦÙĥØªØ±ÙĪÙĨÙĬØ§Øª": 42028,
  "ĠØ§ÙĦØ§Ø±Ø´ÙĬØ¯": 82980,
  "ÙĪÙĤÙĬØª": 28271,
  "Ġsignaling": 37288,
  "ĠIsis": 43966,
  "ĠØ§ÙĦØ§ÙĨÙĥØ¨ÙĪØªÙĬØ©": 63531,
  "ĠBrando": 73005,
  "ĠPoem": 90145,
  "ĠÙĩÙĪØ¨ÙĥÙĨØ²": 35368,
  "ĠÙĪØ§ÙĦØªØ´Ø®ÙĬØµ": 71454,
  "Ġdispute": 35459,
  "ĠLaetoli": 71553,
  "ĠØªØ´Ø§ÙĬÙĦØ¯": 44563,
  "Ġsections": 52507,
  "Ġreasoning": 19700,
  "Ġbay": 79027,
  "ĠÙĬØªØ¹Ø¯ÙĦ": 72536,
  "ake": 3027,
  "ĠÙĪØ§ÙĦÙħØ³Ø§ØŃØ©": 28870,
  "Ġvectors": 81248,
  "ĠØ§ÙĦÙĪØ³Ø§Ø¯Ø©": 71467,
  "Ġconstruction": 7428,
  "ĠØ§ÙĦØ¯Ø§Ø®ÙĦÙĬØ©": 4532,
  "Ġincandescent": 37046,
  "ĠØªØ³Ø±Ø¯": 68648,
  "ØµÙĬÙĨØ§Øª": 65063,
  "SV": 64116,
  "Ø§ÙĦÙĦÙĪ": 14514,
  "ĠÙĪÙħØ±ÙĥØ¨Ø§Øª": 56434,
  "ĠØ¨Ø§Ø·Ø¨Ø§ÙĤ": 94011,
  "ĠØ§ÙĦÙħØ¹Ø¯ÙĬØ©": 40228,
  "Ġnarrowcasting": 92750,
  "ĠVulgar": 32194,
  "ĠÙĪÙħÙĨØµØ§Øª": 37733,
  "Ø§Ø¬ÙĬØ¯ÙĬØ§": 89275,
  "ĠÙĨÙħØ«ÙĦ": 48779,
  "egative": 32203,
  "Ø§ÙĦØ§ÙĥØ³Ø¬ÙĬÙĨ": 71810,
  "ĠÙĥØ±ÙĬØ³": 59963,
  "ĠØ§ÙĦØ¨ÙĨÙģØ³": 16926,
  "Ġtransportation": 4875,
  "ĠHemisphere": 17048,
  "ĠØ§ØªÙĥØ³Ø±Øª": 75689,
  "ĠÙħØŃÙĤÙĤØ©": 56937,
  "ĠØ§ÙĦÙħØ¬Ø§ÙĨÙĬØ©": 28450,
  "Ø±ÙĬØ·": 5930,
  "ĠHig": 15994,
  "Ġrendition": 94690,
  "ÙĬÙĦÙĩ": 36796,
  "ĠÙĪØ§ÙĦØªØŃÙĦÙĬ": 59318,
  "Ġrewarded": 72195,
  "ÙĤØ§Ø±": 54344,
  "ĠÙĪØ®ØµÙĪØ¨ØªÙĩØ§": 96754,
  "ĠAverage": 66472,
  "ĠØ§ÙĦØªØŃØ¬ÙĬÙħ": 68440,
  "inae": 64893,
  "ĠØ¨ÙĬØ³ØªÙĥØ´ÙģÙĪØ§": 60462,
  "ĠÙĪØ§ÙĦØŃØ´Ø±Ø§Øª": 32199,
  "Ġreflection": 23394,
  "Ġimaginary": 52071,
  "ĠØ§ÙħÙĪØ±": 57363,
  "Ġtoes": 79347,
  "ĠØ¶ØŃÙĦ": 44586,
  "Phishing": 93494,
  "ĠFather": 30043,
  "ĠÙĪØ§ÙĦÙģØ§ÙĬØ¯Ø©": 69248,
  "ĠØ§ÙĦÙģÙĪÙĦØ¬Ø§": 89687,
  "ÙģØ§ÙģÙĬØ¯Ø§": 77294,
  "Ø¨Ø§ÙģØªØ§": 77381,
  "ĠØ§ÙĦØ§Ø²ÙĩØ§Ø±": 30448,
  "ĠØ§ÙĦÙħØªØ³ÙħÙĬ": 60272,
  "Ø§ÙĦØ®Ø·": 17079,
  "ĠØªØŃØ§Ø±Ø¨": 56508,
  "Ġakin": 77716,
  "ÙĩÙĪØ¨": 54300,
  "Ġautocrat": 69164,
  "ĠØ§ÙĦØ¹ÙħÙĬØ§Ø¡": 79403,
  "rinsic": 39276,
  "ĠÙĦÙĦÙħØ±ÙĬØ¶": 44720,
  "ĠØ§ÙĦØŃÙĪØ§ÙģØ²": 53029,
  "ÙĥÙĩØ±Ø¨Ø§Ø¡": 64713,
  "ĠØ³Ø¨ÙĨØ³": 45568,
  "driven": 23743,
  "ĠÙħÙĥØ¯ÙĪØ±ÙħØ§ÙĨØ¯": 87383,
  "ĠØ§ÙĦØ±Ø¯Ø§ØªÙĬØ±": 75607,
  "Ġouter": 11144,
  "ĠDeg": 37008,
  "Ø§ÙĦÙģØŃÙħ": 45177,
  "ĠÙĪØ§Ø¹Ø¯Ø§Ø¯Ø§Øª": 77665,
  "ĠØ¨ÙĪØ¶ÙĪØŃ": 23470,
  "ĠÙĬÙĤØ§ÙĦ": 20896,
  "uxedo": 46276,
  "Ġinfer": 44733,
  "ĠPisa": 31044,
  "ĠÙĪØ§ÙĦÙĪØ¬ÙĪØ¯": 65325,
  "ĠØ§ÙĦØ¬Ø³Ùħ": 1600,
  "Ġmusic": 3940,
  "Ġdiscrepancies": 98382,
  "ĠDiv": 40340,
  "itated": 54820,
  "DBM": 15826,
  "ÙĤÙĬÙĬÙħ": 4461,
  "Ø§Ø¨Ø±Øª": 72284,
  "Ø§ÙĨÙĪ": 7655,
  "ĠØ¨ØªÙĩØ¨": 94146,
  "ĠPerutz": 91197,
  "ĠØ¨Ø§Ø¨Ø·Ø§ÙĦ": 77596,
  "ĠCNN": 36749,
  "ĠÙĪØ§ÙĦØ¬Ø²ÙĬÙĬÙĬ": 58292,
  "ĠHorizon": 62666,
  "Ø·ÙĬØ®": 68727,
  "Ġbill": 12767,
  "ĠÙħÙħØªØ§Ø²Ø©": 61670,
  "Tri": 29446,
  "Ø¨Ø±Ø¬": 5937,
  "ĠØ¹ÙĨÙĨØ§": 49159,
  "Ø¸Ø§ÙĩØ±ÙĬØ©": 79590,
  "ÙĨØªÙĪØ³": 85093,
  "en": 235,
  "ĠØ§ÙĦÙħÙĥØ³ÙĪØ±": 77905,
  "Ġwrongdoings": 98482,
  "Ġsilicate": 30616,
  "Deforestation": 29223,
  "bic": 18628,
  "ĠÙĩÙĪØ±ØªØ§": 94667,
  "ĠØªÙĩÙħÙĬØ´": 96210,
  "ĠØ§ÙĦØ®ÙĨÙģØ³": 49449,
  "ĠØ§ÙĦÙħØ®ØªØ§Ø±Ø©": 40886,
  "ĠØ¨ÙĨØªØ¹ÙĦÙħÙĩØ§": 62336,
  "shor": 76778,
  "ÙĦÙĬÙģØ²ÙĬÙĪÙĨ": 28924,
  "ĠØ¨Ø°ÙĪØ±ÙĩØ§": 71761,
  "ĠØ§ÙĦØ´Ø·Ø©": 80385,
  "Ġchaotic": 61700,
  "Ġcounterintuitive": 72684,
  "Ġvarieties": 28680,
  "ÙħÙĪÙĬØ©": 18107,
  "Ġbrilliant": 86796,
  "ĠÙĪØ§ÙĦÙĥØ±Ø§ÙĪØ³ÙĪÙĨ": 94134,
  "Ø§ÙĬÙĦÙĬ": 43271,
  "poraries": 90470,
  "Ġterracotta": 41676,
  "packing": 74299,
  "Ġfeeding": 29133,
  "Ġstructuration": 85149,
  "ĠØ§ÙģÙĦØ§ÙħØ§": 70270,
  "Savanna": 76373,
  "ĠÙĪØ§ÙĦÙĥØ³ÙĦØ§ÙĨ": 98068,
  "ĠØ§ÙĦØ§Ø³ÙĦØ§Ùģ": 49320,
  "ĠÙĪØŃÙħÙĦØ§ØªÙĩ": 98910,
  "ĠØ´Ø§ÙĬÙĦØ©": 43883,
  "unn": 49172,
  "ĠÙĥØ±ÙĬ": 6415,
  "ĠØ³Ø¹ÙĪØ§": 79935,
  "Ġwine": 25245,
  "portable": 67462,
  "ØŃÙħ": 12311,
  "ĠÙģÙĬÙħØ§": 7323,
  "ĠØ§ÙĨØ®ÙģØ¶": 55272,
  "ĠØ§ÙĦÙħØ³Ø§ÙĪÙħØ©": 37123,
  "ĠÙĥØªØ§Ø¨": 4002,
  "ĠØ§ÙĦÙĦØ§ÙĪÙĬÙĬÙĨ": 63042,
  "ĠSalad": 94566,
  "ĠØ§ÙĦØ´Ø®ØµÙĬ": 9128,
  "Ġfertil": 14154,
  "ĠØ§ÙĦØ¶ØºØ·": 3053,
  "ĠØ§ÙĦØ§Ø®ØªØ²": 34294,
  "ĠÙĪÙħÙĦÙĪÙĨØ§Øª": 90805,
  "ĠÙĪØªØºÙĬÙĬØ±ÙĩØ§": 60857,
  "ĠØ¬ÙĪÙĦØ¯Ø´ÙħÙĬØª": 100654,
  "RPs": 51794,
  "ĠØ¨Ø¯ÙĬÙĦØ§": 73155,
  "ĠÙĬÙĤØ¹Ø¯ÙĪØ§": 51405,
  "!\"": 23904,
  "ours": 40712,
  "ĠÙĦÙĦØºØ°Ø§Ø¡": 70172,
  "ĠØªØµØ·Ø¯Ùħ": 23332,
  "ĠØ§ÙĦØ·Ø¨ÙĤÙĬ": 32366,
  "Ø§ÙĨÙĪØ§Ø¹": 25142,
  "ĠÙĪØªÙĥØª": 55986,
  "ĠØ¨Ø§ÙĬØ±ÙĥØ³": 90069,
  "particularly": 35748,
  "Ġdatabase": 15112,
  "ĠØ¨Ø±Ø§Ùĥ": 44694,
  "ĠØ¨ÙĬÙĤØ¹Ø¯": 69853,
  "main": 64363,
  "rensm": 58094,
  "ĠØ§ÙĦØªØ¹Ø¯ÙĬ": 83481,
  "ĠÙĪØ§ÙĦÙĦØ²ÙĪØ¬Ø©": 78714,
  "Ġein": 79499,
  "Ġmillion": 12700,
  "ĠÙĬØªØŃØ¯Ø«ÙĪÙĨ": 93593,
  "ĠØ§ÙĦÙģÙĪÙĦØ§Ø°": 11189,
  "Ġshifts": 22850,
  "ĠTrack": 81626,
  "Ġpetition": 72751,
  "Ø§ÙħÙĨ": 9090,
  "PlayerUn": 71568,
  "Ġphrase": 9907,
  "ĠBuzz": 82184,
  "ÙĪÙĪØ±Ùģ": 36054,
  "Ġhouseholds": 38836,
  "ĠØªØ¬Ø¯ÙĬØ¯": 30215,
  "ĠEvening": 33178,
  "ĠÙħØ³Ø§ÙĥÙĨ": 50012,
  "Ø±Ø¨ÙĨ": 28274,
  "ĠØ¯Ø§ÙĪ": 33783,
  "Anth": 21630,
  "Ġecot": 38189,
  "Issuing": 63327,
  "ĠÙĦØ¯Ø±Ø¡": 97592,
  "ĠØªØ±Ø§ÙĥÙĬØ¨": 34624,
  "ichord": 34932,
  "ĠØŃØ±Ùģ": 7470,
  "ĠØ§ÙĦÙħÙĬØ²Ø§Øª": 29086,
  "Ġdensities": 46236,
  "abilistic": 90770,
  "Ġtrading": 17358,
  "Ġencour": 9268,
  "Ġpelvis": 61964,
  "Ġstews": 62885,
  "ĠØ§ØŃØªÙĬØ§Ø¬Ø§Øª": 6239,
  "ĠÙĪØ²ÙĨÙĬØ§Ùĥ": 89948,
  "Ġsparking": 96093,
  "Ø§ÙĪØºÙĪØ³ØªÙĪ": 83379,
  "ĠØ§ÙĨØ¯": 12565,
  "Garth": 76081,
  "ÙģÙĬØªÙĨØ§Ùħ": 81071,
  "ĠAld": 40077,
  "ĠÙĪØ§ÙĦØ¨ÙĪØ³ØªØ§Øª": 100435,
  "Ø§ØŃØªØ´Ø§Ø¡": 99865,
  "ĠØ§ÙĦØ§ÙĦÙĩ": 7691,
  "Leo": 71786,
  "ĠÙĬØŃØª": 36288,
  "ĠMand": 18279,
  "ĠÙĦÙĦØ³ÙģÙĨ": 45373,
  "ĠØ§ÙĦØ§Ø¬Ø§Ø²Ø©": 67151,
  "ĠØ§ÙĦÙħÙĤØ¯Ø¯": 68873,
  "ĠÙĪØ§ÙĦØŃÙħÙĬÙħÙĬØ©": 84974,
  "Induct": 71038,
  "ĠØ¨ØªØ¬Ø±Ø¨Ø©": 29733,
  "ĠÙħØ¬ÙĩÙĪÙĦ": 50112,
  "ĠØ§ÙĦÙħÙĤØ¯Ø³Ø©": 14451,
  "ĠØ§ÙĦÙħÙĩØ§Ø¬Ø±ÙĬÙĨ": 14471,
  "Ġcommitted": 14653,
  "Ġfueled": 38290,
  "Ø§Ø¶ÙĦØ©": 40172,
  "being": 7767,
  "Ø§ÙĦØ§Ø¬ØªØ±Ø§Ø±": 60782,
  "ĠÙĨÙĩØ¬": 22153,
  "Ġdodder": 98099,
  "Ġnickname": 23830,
  "ĠÙĤØ§ÙħÙĪØ§": 30571,
  "ĠÙĦÙĦØ´Ø±Ùģ": 86957,
  "ĠGreeley": 87901,
  "Ġaway": 6740,
  "ĠChains": 85361,
  "Ġpneumonia": 47637,
  "lands": 7172,
  "ĠÙĪÙĤØ§Ø¨ÙĦÙĬØªÙĩØ§": 53503,
  "Ġtorch": 73309,
  "ĠØ§ÙĦØ§Ø±Ø³ØªÙĤØ±Ø§Ø·ÙĬØ©": 75188,
  "ĠBlood": 45929,
  "Perception": 52365,
  "Ø§Ø«ÙĪÙĦÙĬÙĥ": 75154,
  "asty": 19483,
  "Ġmanipulated": 61130,
  "ØªØ§Ø¬Ø±": 84845,
  "ĠØ¬Ø§ÙĥÙĬ": 89975,
  "ĠØ§ÙĦØ®Ø±ÙĬØ¬ÙĬÙĨ": 35610,
  "ĠØ§ÙĦØ§Ø´Ø¬Ø§Ø±": 4974,
  "ius": 6406,
  "ĠÙĨØ§Ø«Ø§ÙĨÙĬØ§ÙĦ": 97198,
  "zouki": 99303,
  "Ø´ÙģÙĬØ±": 8833,
  "ĠØ§Ø«Ø¨ØªØª": 26099,
  "**,": 2040,
  "ĠØ§ÙĦØ´ÙĩØ±Ø©": 30463,
  "ĠTexas": 34140,
  "Ġprint": 6651,
  "Ġthriller": 82262,
  "Congress": 62962,
  "ĠØ§ÙĦØ§ÙĨØ¯ÙĦ": 66646,
  "Ġaxis": 19777,
  "ÙĩØ±ÙĨÙĩ": 15272,
  "ĠÙĪÙħØ¶ØºÙĪØ·Ø©": 73059,
  "Ġsubstitutes": 88710,
  "ĠØ§ÙĦØ§ÙħØ±ÙĬÙĥØ§ÙĨ": 58252,
  "ĠØ¶ØºØ·ÙĩØ§": 70307,
  "Ø§Ø®ÙĦØ§ÙĤÙĬØ§Øª": 35801,
  "ĠØ´Ø±ÙĬØ§ÙĨ": 26667,
  "ĠØ§ÙĦØ¯Ø±Ø§ÙģÙĬ": 56104,
  "Ġcare": 6633,
  "ĠÙĪØ¬ÙĪØ±Ø¬ÙĬØ§": 96597,
  "Ø±ÙĪØ®": 55627,
  "ĠÙĪØªØ´ÙĬÙĦÙĬ": 63033,
  "ĠÙĦÙĥÙħÙĬØ§Øª": 59444,
  "Ġ196": 3676,
  "attain": 77820,
  "Ø·ÙĬØ±Ø©": 48496,
  "ĠØ²Ø§ØŃÙĩ": 81128,
  "ĠÙĪØ§ÙĦØªØµÙĪÙĬØ±": 35205,
  "ĠØ¨ÙĬØµ": 14567,
  "ACE": 71275,
  "ĠMontfaucon": 75799,
  "Wii": 95745,
  "Insula": 95241,
  "Antiquite": 72061,
  "ĠÙĪØ§ÙĥØªØ´ÙģÙĪØ§": 95915,
  "ĠØµØ¨Ø§Ø¹ÙĩØ§": 95929,
  "ÙħÙĪÙĦÙģ": 15841,
  "ellan": 44602,
  "ĠDest": 18863,
  "Ø¹ÙĤØ§Ø¨": 43026,
  "ØªÙĬØ±": 26357,
  "ĠØ¯ÙĪØºØ²": 60530,
  "Ġeducational": 10997,
  "ĠÙĪØªÙģØ¶ÙĦ": 90860,
  "ĠØ¨ØŃØ¯Ø§ÙĬÙĤÙĩØ§": 62071,
  "Ġovercomes": 85138,
  "ĠParticipants": 98510,
  "Ġ1886": 46631,
  "ĠØ§Ø¨ÙĨØ§Ø¡": 84273,
  "Ġundergarment": 75216,
  "ĠØ´ÙĪÙĬØ¨Ø³": 63022,
  "alers": 78317,
  "Ġdoctoral": 41985,
  "Ġcounter": 16193,
  "Generally": 98970,
  "ĠØ§Ø¬Ø§ÙĪØ¨": 84388,
  "empt": 10101,
  "Suprachiasmatic": 93886,
  "ĠÙĪØ§Ø®Ø·Ø§Ø¡": 89112,
  "ĠØ§ÙĦØ¨ÙĦØ³": 36517,
  "ĠØªÙĦØª": 45671,
  ",'": 11378,
  "ÙĨÙĩ": 5958,
  "ĠÙĨØ¹": 3034,
  "ĠÙĦØ§ØŃÙĬØ§ÙĬÙĩØ§": 88607,
  "ĠÙĪØ¨ÙĬØ¶Ø§Ø¡": 83781,
  "ĠØ¯Ø±Ø¬Ø§Øª": 4843,
  "ĠØ§ÙĦÙħØ³ØªÙģÙĬØ¯Ø©": 83929,
  "ĠÙĪØ§ÙĥØ³Ø¬ÙĬÙĨ": 23543,
  "Ġsweet": 19759,
  "Ø§ÙĦØ¯Ø§Ø±ÙħØ§": 54225,
  "Ø¯Ø§ÙĪÙĦ": 8063,
  "ĠÙĬØ¨Ø¯ÙĪÙĨ": 78605,
  "ĠØ´Ø§ÙĥØªÙĬ": 80455,
  "Ø§ÙĬØ¯": 2011,
  "ĠØ¨Ø§Ø¬ÙĩØ²Ø©": 26392,
  "Ø§ÙĦØªØ§ÙĥÙĦ": 44986,
  "Ġquantifiable": 89058,
  "ificial": 5023,
  "ĠØ§ÙĦØªÙĩ": 7327,
  "ĠØ§ÙĦØ±ÙĪÙħØ§ÙĨØ³ÙĬÙĬÙĨ": 51606,
  "Ġsunk": 59410,
  "Ġhallmarks": 94316,
  "ĠØ¯ÙĬÙĦØ§": 66551,
  "ĠÙĪØ§ÙĦØ¶ÙħØ§ÙĨ": 41777,
  "ĠØ§ÙĦØ±Ø³ÙĪÙħÙĬØ§Øª": 58761,
  "ĠÙħØ§ÙĨØ³ÙĪÙĨ": 35085,
  "Ġcaste": 65132,
  "ĠØ§ÙĦÙĩÙĬ": 1341,
  "ĠKy": 23392,
  "ĠÙĬØµØ¯ÙĤ": 24744,
  "ĠØ´Ø±Ø§ÙĬ": 28201,
  "ĠØ§ÙĦØºÙĨØ§": 66968,
  "ĠÙĪØªØµØ±ÙģØ§ØªÙĩÙħ": 45795,
  "Ġrip": 48223,
  "Ġagility": 68705,
  "ĠÙĦÙĥÙĦÙĬØ§Øª": 88817,
  "ĠÙħØ±Ø§Ø±Ø§": 83450,
  "Ġchopsticks": 53487,
  "ĠØ§ÙĦÙĦØ§ÙĪØ¯ÙĬ": 93653,
  "ĠÙĤØ¯Ø§Ùħ": 6118,
  "igr": 14270,
  "ĠÙĪØ§ÙĦØ³Ø¹ÙģØ©": 58206,
  "ĠÙĪØªØ³Ø±Ø¨": 60000,
  "ĠØ¨Ø§ÙĦØºÙĨØ§Ø¡": 71157,
  "usz": 48849,
  "Ġvoiced": 96543,
  "Ġfaded": 65272,
  "Kw": 53811,
  "ĠØ¯ÙħØ§Ø±": 33784,
  "ĠØ§ÙĦØ¬Ø¨ÙĨ": 43836,
  "ĠØ§ÙĦØ¬Ø§Ø±ÙĬØ©": 28173,
  "mberto": 75393,
  "Bonnet": 63799,
  "ĠØ§ÙĦØ§ÙĪØ¬Ùĩ": 13053,
  "Ġdiscriminate": 71511,
  "Ġmirrorless": 73755,
  "ĠØ§ÙĦØ³ÙĪÙħØ±ÙĬÙĬÙĨ": 52766,
  "Ø¹ÙĬÙĨ": 39374,
  "ĠØ§ÙĦØ´ÙĤÙĬÙĤ": 55766,
  "Ø³ØªÙĬØ©": 43691,
  "ĠÙĪÙħØªÙĤ": 31852,
  "ĠBoard": 20762,
  "transport": 72185,
  "School": 76352,
  "ĠÙħÙĤØ·ÙĪØ±Ø§Øª": 84861,
  "Ġinternship": 86774,
  "ÙĤÙħØ§Ø´": 54348,
  "archus": 86364,
  "Ġrenders": 38822,
  "Mycorrhizae": 46669,
  "ĠÙĪØ§ÙĦÙĦØ¨": 23022,
  "ĠÙĪØ±ÙĬÙĨÙĪØ§Ø±": 63368,
  "ĠØ§ÙĦÙħÙĨØ·ÙĤ": 8253,
  "Keystone": 74130,
  "ĠÙħÙĪØ§Ø·": 37116,
  "ĠØ¨Ø¹ÙĨØ§ØµØ±": 16395,
  "asaki": 65694,
  "ĠØ§ÙĦÙĥØ±Ø²": 43732,
  "ĠAurelius": 49351,
  "ĠÙĪØ§ÙĦØ³ÙĨØ¯Ø§Øª": 23454,
  "Arthur": 17814,
  "Ġquinine": 34605,
  "ĠØ¬ÙĬØªØ³": 37695,
  "ĠFantagrap": 74076,
  "ĠØ§ÙĦØ¨Ø±Ø§Ø²": 37181,
  "Ø¨Ø·ÙĦ": 27860,
  "Ġgenocide": 40519,
  "Ø§ÙĦØŃØ¬Ø©": 50395,
  "ĠStieglitz": 47841,
  "ĠØ§ÙĦÙĥÙĪÙĦÙĪØª": 90914,
  "ĠBing": 34203,
  "Ø¬ÙĦÙĬØ²ÙĬØ©": 6291,
  "ĠÙĦØ³Ø§ÙĨØªØ§ÙĨØ§": 100459,
  "ĠÙĪØ§ÙĦØ¨ØµÙĦ": 69282,
  "ĠÙĪÙħØŃØªÙĪÙī": 51574,
  "ĠØ§ØµØ·Ø¯ÙħØª": 74226,
  "ĠØ§ÙĦØ§Ø³ØªÙĤØ·Ø§Ø¨": 23804,
  "plicated": 44347,
  "ĠÙħÙĪØµÙĦØ§Øª": 73068,
  "ĠÙĦÙĦØªÙĨ": 8310,
  "ĠÙĪØ±ÙĥØ§Ø¨ÙĩØ§": 99424,
  "Ġpayout": 70630,
  "ference": 11910,
  "ĠÙĪØ§ÙĦÙĤØ·": 45236,
  "ĠØ§ÙĦØ·ÙĪØ§ÙĬ": 56055,
  "ĠØ§ÙĦØ§Ø¶Ø§ÙģØ©": 69856,
  "MPs": 76227,
  "Ġadopted": 27481,
  "ĠØªÙĥÙĦÙģØªÙĩ": 48514,
  "ĠØ§ÙĦÙĥÙĬØªØ²Ø§ÙĦÙĥÙĪ": 61002,
  "ĠØ§ÙĨÙĥØ³Ø§Ø±": 26556,
  "ĠØªØ·Ø§ÙĦØ¨": 68424,
  "CCN": 70899,
  "ĠØ§ÙĦØ§Ø³ØªØ¬Ø§Ø¨Ø©": 9450,
  "ĠÙĦÙĩØ°Ùĩ": 12051,
  "ĠØ§ÙĦÙģØ±Ø§ÙĬØ³": 50436,
  "Ġgenerates": 28690,
  "Ġinclusive": 62500,
  "ĠØ³ÙĪØ¬Ø§ÙĬ": 99761,
  "paleobotany": 97969,
  "ĠVinci": 44980,
  "Ø§ÙĦØ§ÙĦÙĥØªØ±ÙĪÙĨ": 54212,
  "ĠStrat": 57456,
  "ĠØ§Ø³Ø§Ø·ÙĬØ±": 79965,
  "ĠØ§ÙħØ¯ÙĩØ§": 84021,
  "Ġacrost": 83775,
  "ĠÙĪØ§Ø±Ø³Ø§ÙĦ": 62169,
  "ĠØ¹Ø§Ø±ÙģÙĬÙĨ": 17008,
  "ĠØ¨ÙĬÙħÙĪØªÙĪØ§": 70867,
  "Ø¬Ø§Ø¨ÙĪØ´ÙĥÙĬÙĨ": 72372,
  "rophy": 23386,
  "ÙĪØ³ÙĪÙħ": 49390,
  "ĠInterference": 51895,
  "ĠØ§ÙĦØ¨Ø·ÙĪÙĦÙĬÙĬÙĨ": 94622,
  "Ø±ÙĪØ¯ÙĪÙĦÙģ": 52457,
  "Ġtherapeutic": 35838,
  "Ġadvising": 32418,
  "ĠØ§ÙĦØ±ÙĬØ§Ø¶ÙĬÙĪÙĨ": 41629,
  "ĠÙħØ¬ÙĪÙģÙĬÙĨ": 73953,
  "ĠØ²ÙĪØ¬": 24253,
  "ÙĪØªÙĬØª": 90286,
  "ĠØ§Ø³ÙĩÙħØ§": 55581,
  "purpos": 35980,
  "ĠPLO": 66616,
  "Ġpulsation": 52831,
  "luid": 27012,
  "ĠMovie": 59670,
  "Ġchrom": 15999,
  "ĠØ§ÙĦØ§ØŃØ§ÙĦØ©": 44581,
  "ĠÙĬØ¨Ø¯Ø¯": 91421,
  "ĠØ§ÙĦØ§Ø´Ø¹Ø§Ø±": 84197,
  "ØªØµØ¨": 56715,
  "Ġaerosols": 53560,
  "ĠÙĪØ§ÙĦÙħØªØ¨Ø§Ø¯ÙĦ": 81928,
  "ĠØ§ÙĦØ§Ø®ØªØµØ§Øµ": 31957,
  "ØµÙĨØ§ÙĬØ¹ÙĬ": 97143,
  "ĠØ§ÙĦÙĨØµØ§Ø¨": 88760,
  "Ġmist": 16304,
  "ĠØªØ¨ÙĨÙī": 58366,
  "ĠRespons": 33169,
  "ĠØ§ÙĦÙģØ®Ø§Ø±": 24199,
  "ĠØ§ÙĦÙħØªÙĩÙħÙĬÙĨ": 35237,
  "Buy": 63802,
  "Ġcroissant": 62817,
  "ĠÙĬÙĦÙħØ³": 21067,
  "Ø§ÙĦØŃÙĥØ§ÙĬØ§Øª": 85049,
  "tage": 12940,
  "Ġpassengers": 30509,
  "ĠØ²ÙĪØ§ÙĬØ§Ùĩ": 66487,
  "ĠØ¯ÙĬÙģÙĦ": 56157,
  "Ġhomogenization": 52567,
  "ĠØ¹Ø²ÙģÙĩØ§": 62453,
  "Ø¨ØªØŃ": 64723,
  "ĠØ¨ØªÙĩØ¯Ø¯": 61678,
  "ĠØ§ÙĦØ§Ø³ØªØ«ÙħØ§Ø±": 5702,
  "Ø§ÙĦØ³ÙģØ±": 69122,
  "ĠØ¨ØªÙĤØ¯ÙĬÙħÙĩ": 74566,
  "ĠØ¨ØªØ¹ÙĪÙĬØ¶": 85986,
  "ĠÙĦÙĦØ§ÙĨÙģØµØ§Ùħ": 88089,
  "ĠØ¨Ø§ÙĦØ§ÙħØ±Ø§Ø¶": 42265,
  "ĠÙĪØ§ÙĦÙĦØºØ©": 11063,
  "ĠØ§ÙĦÙĪØ¸ÙĬÙģÙĬ": 67340,
  "Ġmax": 7464,
  "ĠÙĪØ§Ø¯": 5816,
  "De": 2702,
  "ĠØ§ÙĦØ§Ùĥ": 1133,
  "Ġdriving": 12887,
  "Good": 23915,
  "Ġconstituent": 53287,
  "bag": 53959,
  "ĠØ§ÙĦÙĪÙĪØ±Ø´Ø³ØªØ±": 82796,
  "ĠÙĨØ¸Ø¨Ø·": 55165,
  "ØµØ¯ÙĬØ±": 33620,
  "ioux": 58130,
  "Ø§ÙĦÙĪØ¨ÙĬØ«ÙĥØ³": 31116,
  "Ø³ÙĬÙħÙĪÙĨ": 37755,
  "Ġprehistoric": 32133,
  "Ø§ÙģØªØ§": 39807,
  "ĠBranding": 73006,
  "Ġframe": 5895,
  "Ø¨ÙĬØ±ÙĨÙĩØ§Ø±Ø¯": 81683,
  "ĠØ§ØªÙĥÙĦÙħØª": 98302,
  "ĠMitz": 44189,
  "Ġexhibiting": 73004,
  "ĠØ§ÙĦÙħÙĬØ«ÙĪÙĦÙĪØ¬ÙĬØ§": 11491,
  "Skullcap": 98523,
  "ĠØ§ÙĦØ¯ÙĬÙĥØ§Ø±ØªÙĬØ©": 63100,
  "Ø´ØªØºÙĦ": 2843,
  "ĠÙĤØ¨Ø±ÙĬ": 55506,
  "ĠPhysicists": 10846,
  "ØªØ±Ø§Ø¨Ø§Ø³": 72414,
  "ĠÙĪÙħÙĬÙĥØ§ÙĨÙĬÙĥØ§": 36124,
  "ĠØ«ÙħØ§ÙĨÙĬØ©": 37958,
  "ĠÙĪØ§ÙĦÙĥØ§ÙĦØ³ÙĬØªÙĪÙĨÙĬÙĨ": 96493,
  "ĠØ¨ÙĬØ¬Ø¨Ø±": 60696,
  "ĠØ¨ÙĨÙģÙĬÙĨÙĪØªÙĪ": 56622,
  "Ġemuls": 67793,
  "ĠØ¨ÙĬØ§ÙĥÙĦÙĩ": 72247,
  "ĠØ¨Ø§ÙĦØ¹ÙħÙĪÙĦØ©": 63195,
  "Ġvulcanization": 39011,
  "Ġdel": 4805,
  "Metallica": 71852,
  "Ġapplicable": 31104,
  "Ġfunerals": 45049,
  "ĠÙĬØºØ§Ø¯Ø±ÙĪÙĨ": 74586,
  "ÙĦØºØ§Øª": 48233,
  "ĠØ¨Ø±ØŃÙĦØªÙĩØ§": 97322,
  "ĠÙĪØ¨ØªÙĨØªØ´Ø±": 93048,
  "ĠØ§ÙĦØ±ÙĬÙĪÙĥØ§ÙĨ": 56743,
  "ĠØ§ÙĦÙģÙĤØ±Ø§Ø¡": 23673,
  "motel": 89706,
  "ĠØ§ÙĦÙĩÙĪØ§Ø©": 89892,
  "ĠÙĦÙĦØ³ÙĬØ§ØŃØ©": 60572,
  "elong": 55410,
  "ĠØ¨ØªÙĥÙĪÙĬÙĨØ§Øª": 94680,
  "now": 616,
  "ĠØ§ÙĦÙĩØ¬ÙĬÙĨ": 81768,
  "ills": 5375,
  "ĠØ§ÙĦØ¨Ø±ÙĪÙģÙĬØ³ÙĪØ±": 88018,
  "ĠImmune": 90685,
  "ĠØ¨Ø§ÙĨØ¯": 85795,
  "Ø§ÙĦÙĥÙĦØ§Ùħ": 93505,
  "curs": 16075,
  "ĠNH": 17765,
  "Ġpowdered": 98452,
  "Economies": 69644,
  "ĠØ§ÙĦØ¨Ø§ÙĨØ¯Ø§": 35550,
  "Ø§ÙĦØ§ÙĪØ¨": 26008,
  "ĠÙĦØ²ÙĬØ§Ø¯Ø©": 10707,
  "Ġreinfor": 11898,
  "ĠÙĪÙĨØ¹Ø§ÙĦØ¬": 97346,
  "ØªÙħÙĦ": 16252,
  "Ø§ØºÙĬØªÙĬ": 34451,
  "ĠØ§ÙĦØŃÙĪØ§Ø¯ÙĬØª": 96826,
  "Ġcrawling": 78308,
  "ĠØ§Ø±Ùħ": 13589,
  "ĠMichelangelo": 42453,
  "Ġavocado": 74758,
  "ĠÙĬØ®ÙĦÙĬ": 7544,
  "Ġpaper": 13723,
  "ÙĨÙĬØ®ÙĬØ©": 81226,
  "ĠÙĪØ§Ø¨Ø§Ø²ÙĬÙħ": 93192,
  "ĠØªÙĦÙĪØ«Ø§": 71962,
  "ĠFaithful": 97486,
  "ØªÙĬØ³": 14629,
  "Cristo": 42678,
  "ĠØ¨Ø§ÙĦÙĦØ§ØªÙĬÙĨÙĬØ©": 73047,
  "urbit": 65895,
  "ĠMassive": 93656,
  "ĠAlias": 58547,
  "Ġpack": 13472,
  "ĠØ¨Ø¬Ø±ÙĬÙħØ©": 28768,
  "ÙĨÙĬÙĩÙĪÙĨ": 92568,
  "ĠØ§ØŃØªÙĬ": 17786,
  "ĠØŃØµØµ": 65724,
  "ĠÙĬÙĩØ§Ø¬Ùħ": 52328,
  "ĠØ§ÙĦÙĥØ«Ø§ÙģØ©": 14878,
  "ĠÙĪØ§ÙĦØ¶ØŃÙĥ": 54918,
  "ĠFifthly": 62310,
  "map": 31218,
  "ĠMarg": 36868,
  "ĠJan": 34465,
  "ØªØ²Ø§": 18962,
  "ĠØ¨Ø§ÙĦØªØ³Ø®ÙĬÙĨ": 60989,
  "ĠØ´ÙĬØ·Ø§ÙĨ": 62112,
  "Ġreserve": 44732,
  "ĠÙĦÙĦØ¹ØµÙĬØ§ÙĨ": 69221,
  "Ġprivilege": 35726,
  "ĠØ§ÙĦÙģØªØ§Ø©": 43849,
  "ĠÙħØ§Ø¬Ø³ØªÙĬØ±": 47406,
  "ĠReflection": 30837,
  "ĠØ§ÙĦØ§ÙģÙĪÙĥØ§Ø¯ÙĪ": 37235,
  "ĠÙĪØ§ÙĦØ¹Ø´Ø§Ø±ÙĬ": 85567,
  "ĠÙħÙĪØ±Ùģ": 70962,
  "Ġ&": 10503,
  "ÙħØ²": 1440,
  "yrian": 76875,
  "ĠÙĪØªØ®": 5577,
  "Ø°Ø¨Ø§Øª": 39798,
  "hell": 54483,
  "Ġcommun": 1543,
  "undamental": 25465,
  "Comp": 5380,
  "Ø§ÙĤØ±Ø¨": 23105,
  "ĠÙĥÙĪÙĦÙĬÙĪÙĨÙĬ": 61591,
  "ĠÙħÙĨØªØ¬Ø©": 35284,
  "ĠÙĪØ¨ÙĦØº": 94729,
  "ĠJoseph": 25639,
  "Ġbooking": 41394,
  "ĠÙĪØ¹Ø´Ø§": 85271,
  "Metallurgical": 60714,
  "horized": 16522,
  "ĠØ§ÙĦØ¬ÙĨØ©": 19362,
  "ĠÙĦÙĦÙħØµÙģÙĪÙģØ©": 37203,
  "ĠÙĥÙĨØ³Ø¨Ø©": 33728,
  "ĠØ§ÙĦØ³Ø¬ÙĪØ¯": 62108,
  "ĠØ¨Ø§Ø³ÙħØ§Ø¡": 57892,
  "ĠØ§ØµÙĬÙĦ": 68089,
  "ÙĥÙĬÙĦ": 2650,
  "ĠØ·ÙĨÙĬÙĨ": 80755,
  "ĠØ§ÙĦÙģÙĨØ¯ÙĤ": 6325,
  "ĠØ§ÙĦØ³ÙĬØ·Ø±Ø©": 9727,
  "uy": 23949,
  "ĠÙĪØ¬ÙĨ": 57463,
  "Ġtut": 43049,
  "ĠØ¨ØªÙĩØ§Ø¬Ø±": 61679,
  "ĠØ³Ø§ÙĥØ§Ø¬Ø§ÙĪÙĬØ§": 74490,
  "ÙĬØ§ØªÙĬ": 44396,
  "ĠØ§ÙĦØ§Ø³ØªØ±ÙĪÙĨÙĬØ²ÙĬØ©": 91813,
  "FTAs": 52471,
  "FEA": 42704,
  "ĠØ§ÙĦÙģØ±ÙĬØ³Ø©": 52232,
  "ĠØ§ÙĦØŃØ§ÙĦÙĬÙĬÙĨ": 30827,
  "ĠÙĪØ§ÙĦØ§Ø±Ø§Ø¡": 32704,
  "ĠSparrow": 87465,
  "Ġcomponent": 8742,
  "Ġangiography": 89415,
  "Ġpickling": 73571,
  "ÙĪØ³ÙĪØ±Ø³": 66543,
  "Ġexplored": 10595,
  "Ø«ÙĦØ§Ø«ÙĬ": 28330,
  "ĠØ§ÙĦØŃØ±Ø¨ÙĬ": 57146,
  "cribed": 76537,
  "ĠØ§ÙĦÙħÙĪØ³ÙĬÙĤÙī": 5223,
  "ĠÙĨÙħÙĪØ°Ø¬Ø§": 35047,
  "ĠÙĨØŃ": 2178,
  "ĠBluetooth": 35814,
  "ĠØ§ÙĦØ³ÙĪÙĦÙĬÙĦÙĪÙĥÙĪÙĬ": 87276,
  "Ø¨ÙĨÙĪØ¹": 77356,
  "ĠØªÙĪØŃÙĬØ¯Ø§": 97759,
  "ĠCrusoe": 74343,
  "Ø§ÙĤØ¨ÙĩÙħ": 88678,
  "ÙĪÙĥØ§Ø¯ÙĪ": 25494,
  "Ø§ÙĦØ§ÙĨØ¬Ø§Ø²": 58679,
  "ĠÙĪØ¬ÙĬØ¨": 84254,
  "ĠOak": 40608,
  "educ": 78738,
  ")).": 39116,
  "ĠÙħØ§ÙĥÙĪÙĬÙĨ": 29140,
  "Ø§ÙĥØ²": 14900,
  "Ø±ÙĬØªÙĬØ¯": 43555,
  "ĠÙĬØ¯ÙĬØ±ÙĪØ§": 52916,
  "Ø§ÙĦÙħØ§Øª": 40002,
  "Governmental": 60449,
  "Ġgridlock": 95094,
  "ĠØ¨ØªÙħÙĦÙĥÙĩ": 93214,
  "Feminist": 95482,
  "Ġcreatively": 57214,
  "Ø§Ø±Ø¯ÙĬ": 65184,
  "ĠÙĦÙĦØ§Ø³ØªØ±Ø§ØªÙĬØ¬ÙĬØ©": 59326,
  "Ġ193": 5610,
  "Ø±ÙģØ§ØªÙĩÙħ": 44457,
  "ĠÙĪØ´Ø±Ø§Ø¡": 35633,
  "ĠØ³Ø²Ø¨ÙĬØ±Ø§Ø¬ÙĨ": 99782,
  "Dynamic": 63848,
  "ĠÙĦÙĦØ±Ø§ØºÙĨØ§Ø±ÙĪÙĥ": 91160,
  "Ġacanth": 57266,
  "Ġresidential": 57327,
  "ĠØ§ÙĦÙĬØ³Ø±Ùī": 52358,
  "ĠØµØ¨ØºØ§Øª": 91312,
  "Ġmallet": 60569,
  "ĠÙĦÙģÙĬØ±ÙĪØ³Ø§Øª": 87484,
  "Ġshirt": 32054,
  "ÙĥÙħØ§": 31276,
  "Ġgrounds": 41362,
  "ĠØ§ÙĪØ¨ÙĨÙĩØ§ÙĬÙħØ±": 39072,
  "Ġvulture": 81244,
  "taiga": 90968,
  "ÙĬØ²": 1405,
  "ĠÙĪØ§ÙĦÙĥÙĦÙħØ§Øª": 30912,
  "ĠÙĪØ§ÙĦØ¬ÙħØ§ÙĦÙĬØ©": 61635,
  "Ø¯ÙģØ¹ÙĦÙĥ": 83337,
  "£.": 54138,
  "ĠÙĦØªØ±Ø¬ÙħØ©": 92471,
  "Ø³Ø©": 703,
  "assa": 83332,
  "ĠØ¯Ø§ÙĬØ±ÙĬØ©": 21024,
  "ĠÙĦØªØ´ÙĬ": 30671,
  "Ġsustained": 19052,
  "ĠØ§ÙĦÙģØ±ÙĨØ³ÙĬ": 16069,
  "Ġ).": 76929,
  "RNA": 26295,
  "ĠÙĦØ§ÙħØ±Ø§Ø¶": 71068,
  "ĠØ´Ø§ÙĬØ¹Ø§": 14442,
  "ĠÙĦÙĦÙģØ±Ø§Ø¹ÙĨØ©": 53073,
  "ĠØ§ÙĦÙħØ¬Ø±ÙĬ": 20812,
  "ĠÙĥÙĪØ±ÙĪÙĥØ´ÙĬØªØ±Ø§": 100562,
  "Ø§ÙĦØ§ÙģÙĥØ§Ø±": 52268,
  "ĠØ§ÙĦÙĤØµØ¨": 33913,
  "ĠØ¬ÙĪØ§Ùĥ": 51562,
  "Gas": 63891,
  "Ø¨ÙĬØªØ³ÙħÙĬ": 99824,
  "ç§¦å§ĭçļĩ": 100684,
  "ĠÙĦÙĦØ§ÙĥØªÙĬØ§Ø¨": 73584,
  "ĠØ§ÙĦØªØ®": 4300,
  "ĠØªÙĦØªØµÙĤ": 88044,
  "Ø§ÙĦØ§ÙĨØ¹Ø§Ø´": 87022,
  "okovic": 85621,
  "ĠØ¨Ø§ÙĦÙĤÙĪØ§Ø¹Ø¯": 88336,
  "ØªÙĥÙĬ": 64677,
  "ĠØ§ÙĦÙħØ³ØªØ¹Ø±Ø§Øª": 28531,
  "Ġmenus": 91519,
  "ĠØªØ±Ø§ØªÙĬÙĦ": 65052,
  "ĠÙĪØ§Øª": 3743,
  "ĠØ§ÙģÙĥØ§Ø±Ùĥ": 90080,
  "ĠÙĪÙģÙĩÙħÙĩØ§": 32817,
  "Ø²ÙĬÙĦ": 26470,
  "Ġstagn": 80370,
  "Ø·Ø±Ø§Ø¨Ø§Øª": 6871,
  "Ġreason": 6854,
  "ĠÙĥÙĬÙĦÙĪÙħØªØ±": 12089,
  "ĠÙĦÙĦØ¯ÙħÙĪØ¹": 52801,
  "ĠØ§ÙĦØŃØ§Ø¬ØªÙĬÙĨ": 52922,
  "ĠØ§ÙĦÙħÙħ": 5239,
  "ĠØ¨ÙĦØ§ÙĥØ³ØªÙĪÙĨ": 93850,
  "Ø±Ø§ÙģÙĬØª": 68088,
  "ĠØ§ÙĦØªØ§ÙĨØ¬ÙĪ": 43450,
  "ĠSveriges": 35850,
  "Ø§ÙĦÙĥØ´ÙħÙĬØ±": 87499,
  "ĠÙĪØ¹ÙħÙĦÙĩ": 91780,
  "Ġconsiderable": 71385,
  "ĠColumb": 22679,
  "ĠÙĤÙĬÙħØ§": 40896,
  "ĠØ§ÙĦÙħÙĨØµÙĩØ±Ø©": 33141,
  "cultivation": 92993,
  "ĠÙĪØªØ¬ÙĦØ·": 99914,
  "ĠØ§ÙĦØ°Ø¨ØŃ": 66527,
  "ĠØ¨ÙĬØ³Ø§Ø¹Ø¯": 2691,
  "Ø§ÙĦØª": 1292,
  "Ġabs": 3105,
  "ĠØªØ§ÙĩÙĬ": 54641,
  "Ġdeficit": 38528,
  "Ġsucculent": 99099,
  "Ġmoai": 82204,
  "ĠØ§ÙĦØ§Ø³Ø§Ø³ÙĬØ©": 1533,
  "ĠÙĪØ§Ø¹ÙĦÙī": 54445,
  "ØªÙĪØ¡Ø§Øª": 24934,
  "ĠØ§ÙĨØ¯Ø±ÙĬ": 79415,
  "ĠØ§ÙĦØªØ¯Ø®ÙĬÙĨ": 24684,
  "ĠMitter": 81727,
  "Ø§ÙĦØŃÙĬÙĪÙĬØ©": 93784,
  "ĠØªÙĥØªÙĪÙĨÙĬ": 47251,
  "ÙħØ§Ø±": 1008,
  "ĠÙĪÙĬØ¯Ø±Ø³": 67384,
  "imum": 29816,
  "Ġtandoor": 99382,
  "ĠØ¨ØŃÙĥÙħØ©": 68887,
  "aracter": 32143,
  "apture": 45417,
  "ĠØ§ØŃØ¶Ø§Ø±": 57140,
  "itolina": 65231,
  "ĠWeapons": 90165,
  "ĠPhotograp": 8146,
  "ĠÙĦØ§Ø±ØªÙģØ§Ø¹": 41950,
  "ĠØ§ÙĦØ¹Ø±Ø§ÙģØ©": 55264,
  "ĠÙĦÙĦØ§Ø±ØµØ§Ø¯": 72333,
  "Ġaccurate": 10854,
  "ĠÙħØªÙĨØ§ÙĤØ¶ØªÙĬÙĨ": 97832,
  "ĠØ³ÙĬÙģÙĬÙĦÙĬ": 37327,
  "ĠØŃØ§Ø³ÙĪØ¨ÙĬ": 88836,
  "ĠØ¬ÙĨØ§ÙĬÙĬØ©": 13868,
  "Ġcarburetor": 63264,
  "ĠÙħØ³ÙĬÙĦ": 77466,
  "Ġtransatlantic": 68348,
  "ĠÙģØ¹Ø´Ø§ÙĨ": 90070,
  "ĠCost": 26706,
  "ĠÙĦØ§ÙĨØªØ±ÙĨ": 25661,
  "ÙĪØ±ÙĬÙĦØ§": 31505,
  "ĠÙĪØ§ÙĪØ¯ÙĬÙĦ": 92696,
  "PC": 64052,
  "Esp": 25027,
  "ĠÙĦØªÙħØ¯ÙĬØ¯": 60431,
  "ĠÙĪØ§ÙĦÙħØ³ÙĬØŃÙĬØ©": 56485,
  "Ġshrubs": 63243,
  "Ġhinged": 80180,
  "ĠÙĪØ§ÙĦØ§ØŃÙģÙĪØ±Ø©": 88178,
  "ĠØ¨Ø§ÙĦØ¹ÙĪØ§Ø·Ùģ": 88460,
  "Ġconsole": 11607,
  "ĠØ§ÙĦÙħØ¶Ø§Ø¯Ø©": 13878,
  "ĠØ³ÙĬØ§Ø³ÙĬØ§": 40694,
  "ĠBrecht": 27662,
  "Ġartworks": 85853,
  "Ø§ÙĬØ¹ÙĬ": 78275,
  "ØªØ§ÙħØ©": 54291,
  "Ġdependents": 71667,
  "Ġapproximation": 93876,
  "ÙĤÙĤØª": 69694,
  "ĠÙĩØ²ÙĦÙĬ": 65162,
  "ĠÙħÙĦØŃÙĪØ¸": 18062,
  "ÙħÙĦÙħÙĦ": 80003,
  "ival": 4013,
  "ĠGoya": 75648,
  "ĠKafka": 75713,
  "2020": 91710,
  "Vacc": 33418,
  "ĠÙĦÙĦØ´Ø·Ø±ÙĨØ¬": 86964,
  "Uz": 64166,
  "ĠØ¯ÙĤØ©": 12336,
  "ĠØªØ³ØªØ®Ø¯ÙħÙĩØ§": 10986,
  "ĠØ¨ØªØŃÙĥÙĬ": 8931,
  "ĠÙĪØ¶ØºÙĪØ·": 45877,
  "Liquid": 63977,
  "Ġcurs": 37613,
  "Ø«ÙĨØ§ÙĬÙĬØ©": 65512,
  "ĠÙĪÙĤØ³Ø·ÙĨØ·ÙĬÙĨ": 84433,
  "Ø±ÙĬØ¬": 15908,
  "ĠÙĪÙĬØ¹ÙĬØ¯": 82902,
  "ĠUrbana": 98505,
  "ĠÙħÙĪØ°ÙĬ": 49931,
  "ĠØ§ÙĦØ¨ØµÙħØ©": 18602,
  "Ġderive": 59845,
  "ÙĪØ§ØŃÙĬØ§ÙĨØ§": 87604,
  "ĠÙĦÙĦØ¹ÙĦÙħØ§Ø¡": 21373,
  "Ġthrottle": 90240,
  "\"),": 63718,
  "ĠÙģØ±Ø³Ø§ÙĬ": 17525,
  "ĠÙĦØ§Ø¬ÙĩØ²Ø©": 16283,
  "ĠØ§ÙĪÙħÙĬ": 31570,
  "ĠÙĦØªÙħ": 8872,
  "ĠStructures": 42376,
  "ĠÙĪØ§ÙĦÙĩØ´": 90395,
  "ĠØ§ÙĦØ§Ø²ÙħÙĬÙĦ": 32401,
  "ĠØ§ÙĦÙĤØ¨Ø¹Ø©": 33915,
  "Performance": 92765,
  "Ġemails": 52322,
  "ĠØ§ÙĦÙĩØ¯Ø§ÙĦ": 66842,
  "ĠØ§ÙĦØ¹ÙģÙĪÙĬ": 53127,
  "ĠØ§ÙĦÙħØ²Ø§ØŃ": 87546,
  "Ġcodify": 92797,
  "ĠAccount": 47126,
  "ĠØ¨Ø±ÙĬØ§": 51102,
  "ĠÙĨØ¬ØŃØª": 20302,
  "opanspermia": 66521,
  "Ġastronauts": 74153,
  "ĠÙĦØªØ·ÙĪØ±": 20207,
  "Mike": 53832,
  "ĠUtility": 95879,
  "ĠÙĪØ§ÙĦØ³ÙĬØªÙĪØ¨ÙĦØ§Ø²Ùħ": 100545,
  "Nisaba": 64033,
  "abres": 66640,
  "Ø¶Ø§Ø¯Ø§Øª": 78795,
  "Ø¯ÙĬÙĪÙĩØ§Øª": 21381,
  "ÙħÙĬÙĥØ§ÙĨ": 55639,
  "stra": 43737,
  "ÙħØ³Ø¬ÙĦ": 49894,
  "ĠÙĦÙĦØªØ±": 7878,
  "ĠÙĦÙĦÙĤÙħØµØ§ÙĨ": 87247,
  "Ġantivirus": 89347,
  "Postcolonialism": 47737,
  "ĠÙĪØ§Ø³ØªØ¨Ø¯Ø§ÙĦ": 68007,
  "achevsky": 99106,
  "Ġsalmiana": 70276,
  "ĠØ¨Ø´Ø§Ø¹Ø©": 86006,
  "ĠÙĬÙĨÙģØµÙĦ": 44978,
  "Ġappraisal": 45330,
  "Ġtin": 43048,
  "Ġenthalpy": 63644,
  "ĠØ§ÙĦÙħØµÙĪØ±ÙĬÙĨ": 10836,
  "ØªØ³ÙĪ": 58906,
  "Ġrasps": 73515,
  "ĠØµÙĪØ±Ùĥ": 87651,
  "ĠØ§ÙĦØ°ÙĥÙĬØ©": 10253,
  "ĠØ§ÙĦÙģÙĬÙĨÙĬÙĤ": 18054,
  "ĠVenezuela": 53632,
  "ĠSavage": 66294,
  "ĠÙĩÙĬÙĪÙħØ§ÙĨÙĬØªÙĬ": 74486,
  "Ġgrasshopper": 100646,
  "ĠØ¨Ø§ÙĦØªØ²": 23144,
  "ĠÙĨØ¨Ø¶": 29722,
  "Ø³ÙĦØ·Ø©": 35066,
  "Ġalle": 16804,
  "Ġadjacent": 24426,
  "ĠGabl": 67130,
  "ĠÙĪÙħÙĤØ§Ø±ÙĨØªÙĩØ§": 91682,
  "ĠÙĪØªÙĨÙĤØµ": 87430,
  "Gangs": 74128,
  "Ġmod": 1596,
  "ĠØ§ÙĦØªØ±ØªØ§ÙĨ": 34532,
  "ĠØ§ÙĤØµØ±": 10435,
  "ĠÙħØ±ÙĥØ¨Ø©": 13645,
  "wick": 35998,
  "Ġrainbows": 42327,
  "ĠØµØ¨Øº": 71583,
  "ĠÙĦÙĦØ¬ÙħÙĦØ©": 69674,
  "ĠØ§ÙĦÙģØ·Ø±ÙĬØ©": 28181,
  "ĠØªÙĬØªÙĪ": 58998,
  "under": 1122,
  "ĠØ¨Ø§ÙĦØ¯ÙģØ§Ø¹": 80497,
  "ĠÙĪÙħÙĥØ¨Ø±Ø§Øª": 72626,
  "Neptune": 26086,
  "ĠØªØ±Ø§Ø®ÙĬØµ": 34623,
  "atman": 39465,
  "ØºØ±ÙĬØº": 79015,
  "ĠÙĪØ§ÙĦØ³ÙģÙĨ": 28713,
  "ĠØ§ÙĨØªÙħØ§ÙĬÙĩÙħ": 62871,
  "ĠØ§ÙĦÙħÙĪØ§Ø·ÙĨÙĪÙĨ": 31068,
  "ĠØ§ÙĦØ²Ø¨Ø§Ø¯ÙĬ": 71065,
  "ĠØ¯ÙħØ¬ÙĩØ§": 46323,
  "ĠÙĥÙĪØ¨ÙĬ": 78821,
  "Ø²ÙĬÙĪÙħ": 81416,
  "ĠSymphony": 97246,
  "Ġvoice": 12818,
  "Ġgermination": 35756,
  "ĠØ¨ÙĪÙĦÙĬÙħØ±Ø§Øª": 91833,
  "ĠÙĪØ§ÙĦÙħÙĨØ´ÙĪ": 87266,
  "ĠBhishma": 98249,
  "ĠÙĬÙħÙĨØ¹": 7137,
  "ishop": 85102,
  "ĠAndreas": 96661,
  "ĠØ¨ØªØŃÙĦÙĬÙĦ": 32204,
  "ĠLynx": 97298,
  "Ġdevelop": 942,
  "ĠØ°Ø±Ø§Ø¹": 56798,
  "Ø´ÙĨØ±ÙĬ": 90177,
  "ĠÙĥÙĬÙģÙĨ": 46020,
  "Ġ1600": 41547,
  "Ø¯ÙĪÙħ": 9287,
  "ĠØ¨Ø§ÙĦØ§ÙģÙĦØ§Ùħ": 55818,
  "ĠØ§ÙĦÙĦØ¯ÙĨ": 56360,
  "ĠÙĬÙħÙĥÙĨ": 754,
  "Ġrept": 13750,
  "ĠØ¬Ø§Ø¡": 36493,
  "kins": 22912,
  "Ġdoll": 24093,
  "ĠØ§ÙĦØ¨ÙĪÙĦÙĬØ©": 55475,
  "Ø§ÙĦÙħÙĦ": 10694,
  "ĠMarvel": 15764,
  "ĠFORTRAN": 53333,
  "Ġstreets": 69882,
  "ĠDungeons": 47429,
  "ĠØªØ±ÙĪØŃ": 25173,
  "inqu": 64889,
  "ĠNadal": 96906,
  "Ø·ÙĪØ±ÙĬÙĨ": 12407,
  "ĠØ§ÙĦÙĨØ³ÙĤ": 87754,
  "ĠÙħØªÙĪØ·ÙĨ": 89810,
  "anslaughter": 49774,
  "ĠÙĥÙħØ¨ÙĬÙĪØªØ±Ø§Øª": 70460,
  "ĠØ¹ÙĬÙĦØ©": 12969,
  "ĠÙħØªØª": 57659,
  "input": 77731,
  "Ø¯Ø¹Ø§ÙħØ§Øª": 28845,
  "ĠØ®Ø¯ÙĩØ§": 90857,
  "Ġcareer": 20357,
  "ĠØ±ÙħØ¶Ø§ÙĨ": 28231,
  "ĠØ§ÙĨØ·ÙĪÙĨÙĬ": 92948,
  "ĠØ§ÙĦØ«": 655,
  "ĠIUCN": 19381,
  "ĠÙĪØªØŃØ¬Ø±": 57998,
  "ĠLeprecha": 82732,
  "neakers": 34912,
  "ĠØ¨Ø¯Ø®ÙĦ": 87042,
  "ĠØ§ØªØ¶Ø±": 83591,
  "Ġbanality": 96504,
  "Ġdiscusses": 60803,
  "ĠMoreno": 71912,
  "Ø·Ø§Ø¨Ùĩ": 78046,
  "ĠÙĬØµØ¯ÙĬØ´": 89885,
  "discovered": 97537,
  "ĠØ¨ÙĬØ¹ÙħÙĦ": 3614,
  "ÙĪØ§ÙĦÙĬ": 15468,
  "ĠØªØ°Ùĥ": 48504,
  "ĠInvestment": 23847,
  "ĠÙĪÙĨÙĬ": 31320,
  "ĠCherry": 44018,
  "ĠÙĬØ¨Ø·ÙĬ": 43368,
  "ĠGranger": 100120,
  "ĠØ¨Ø§ÙħØ§ÙĨ": 14467,
  "ĠØªØµÙħÙĬÙħÙĩØ§": 24553,
  "ĠØ§ÙĦØªØ¯Ø§ÙĪÙĦ": 48715,
  "opamine": 15567,
  "veda": 58997,
  "ÙħÙĦØ§ÙĬÙĥØ©": 55602,
  "Ġmetallic": 47354,
  "ĠEuro": 34159,
  "ĠÙĪØ§ÙĦÙĤØ±ÙĪØ¶": 50660,
  "arna": 60355,
  "ĠÙĤØµØ§ÙĬØ¯": 24653,
  "ĠÙĦØŃÙĪØ§ÙĦÙĬ": 26999,
  "ĠØ¹Ø¶ÙĪ": 14447,
  "ĠØ¨ØªØ¨ÙĬØ¶": 39729,
  "ĠØªØ¨ØªÙĦØ¹": 41001,
  "Ġantioxidants": 73742,
  "ĠØ§ÙĦÙħØ¨Ø±ÙħØ¬": 26167,
  "Ø¯ÙĩÙĨ": 49581,
  "ĠÙĪÙħÙħØ«ÙĦØ©": 81847,
  "Ġsandflies": 91908,
  "Ø²ÙħØ©": 7136,
  "ooks": 7587,
  "nings": 27805,
  "ĠÙĩÙĨØ§Ùĥ": 4037,
  "ĠList": 20786,
  "Ø§ÙĦØ³ÙĪÙĬØ¯Ø§Ø¡": 98394,
  "ĠÙĦÙĦÙĤØ¶Ø§Ø©": 69547,
  "Ġev": 1748,
  "Cryopreservation": 96692,
  "ĠHalley": 72423,
  "ØµØ®ÙĪØ±": 78115,
  "ĠØ¶Ø§Ø¹": 67584,
  "Ġdatab": 11024,
  "ĠØ§ÙĦÙĩÙĬÙĬØ©": 16065,
  "Tony": 42789,
  "ĠØ§ØŃØ¯Ø§Ø«ÙĬØ§Øª": 59694,
  "Ġcolostomy": 68231,
  "ØªÙĦØ§ÙĦÙĩØ§": 81557,
  "ĠÙħÙĬÙĥÙĪÙĨØº": 85694,
  "ĠØ§ÙĦÙħØ®": 1729,
  "Ġnuns": 80217,
  "uper": 6251,
  "ĠØŃÙĤØ¨Ø©": 23624,
  "Dreamcast": 53365,
  "ĠØªØªÙģÙĪÙĤ": 72611,
  "Apical": 70692,
  "ĠÙĦÙĦØ§ÙĨØ´Ø§Ø¡": 88084,
  "Ġ1973": 13642,
  "Ġseals": 44540,
  "Ø·Ø§": 15869,
  "Ø§Ø³ØªØ§ØªÙĬÙĥØ§": 90712,
  "ICC": 39168,
  "ĠTattoo": 56339,
  "ĠShubin": 69996,
  "ĠØ§ÙĤÙĦÙĬÙħ": 45007,
  "ĠÙĤØ¶Øª": 32840,
  "Ø§ÙĦÙħÙĨ": 4458,
  "Ø§ÙĨØ¯Ø±ÙĬØ§": 87990,
  "ĠÙģÙĬØ©": 5240,
  "Ø±ÙĬØ§Ø¡": 31557,
  "ĠÙĦÙĦÙĪØ§ØŃØ¯": 79549,
  "ĠØ§ÙĦØ¹ÙĨÙĬÙģØ©": 99674,
  "Ġambig": 52404,
  "ÙģØŃØµ": 64707,
  "ØªÙĤØ±": 20768,
  "ĠØ§ÙĦØªÙĥØ§ÙĦÙĬÙģ": 8849,
  "Ġtraffic": 6342,
  "Lox": 47981,
  "ĠÙĪØ§Øµ": 8112,
  "ĠØ§ÙĦÙĥÙĦØ§Ø¨": 21689,
  "Ø§Ø³Ø§Ø³": 39570,
  "Ø¯Ø±Ø§ÙĬÙĬØ©": 22312,
  "Ø±Ø¯Ø©": 11042,
  "ĠÙĩÙĬÙĥÙĦÙĬØ©": 37827,
  "ĠØ§ÙĦØ¯Ø¨ÙĤ": 49363,
  "ĠÙĪØ´ÙĤØ§ÙĬÙĤ": 87301,
  "successional": 99294,
  "ĠÙĩÙĬØ¯Ø±ÙĪØ¬ÙĬÙĨ": 15210,
  "ĠØ§Ø´ØªØ±ØªÙĩØ§": 52740,
  "ĠØ¨Ø±ÙĥØ¨ØªÙĬ": 60170,
  "ĠGlamping": 90156,
  "ĠSk": 40008,
  "ikilothermic": 87759,
  "Ø¬ÙĪØ±ÙĬ": 77855,
  "Ġsus": 6141,
  "ÙĨÙĥ": 11386,
  "Ġscy": 78367,
  "Ġstereotype": 93814,
  "ĠØ¨Ø§Ø³ØªØ®Ø¯ÙħÙĩØ§": 99113,
  "ĠÙĪØ§ÙħÙĨ": 22676,
  "Ø®ÙĪØ®Ø©": 17526,
  "ĠØ¨ØªØ´ØªØ±ÙĬÙĩØ§": 61555,
  "ĠØ§ÙĨØ´Ø·": 51658,
  "ĠÙĪØ³Ø§Ø¹Ø¯": 23991,
  "ĠØ§Ø·Ø±Ø§Ùģ": 37560,
  "sculpture": 48193,
  "ĠÙĨØ´Ø§Ø·ÙĩØ§": 52022,
  "ĠAperture": 49349,
  "ÙĬÙĪØ±": 76966,
  "ĠØ§ÙĦØ¹ÙĨØµØ±ÙĬÙĨ": 51591,
  "Ø§Ø±ÙĤ": 29651,
  "ĠÙĬØ¬Ø§ÙĪØ¨": 86271,
  "ĠTypically": 31084,
  "Ġvol": 3700,
  "ĠPolicies": 53526,
  "ĠØªØ±ÙĪØª": 62261,
  "ĠØŃØ³Ùħ": 55300,
  "nas": 64384,
  "ĠØ§ÙĦØ³Ø§Ø®ÙĨØ©": 33092,
  "ĠÙĪÙħØªØŃÙģÙĩØ§": 97280,
  "ĠØºÙĪÙħØ¨ÙĬ": 40031,
  "ĠÙĪØ§ÙĦÙħØ±Ø¶Ùī": 95399,
  "ĠÙħØµØ±ØŃ": 41479,
  "Ġtsunamis": 63153,
  "ĠCanyon": 27727,
  "ÙĪØ¡Ø©": 20164,
  "leen": 79092,
  "wide": 18097,
  "ĠØ§ÙĦÙĤØ±Ø·Ø§Ø¬ÙĬ": 44940,
  "ĠØ¹ÙĩØ¯": 16275,
  "ĠÙĦØ¨ÙĨØ§Ø¡": 16575,
  "Ġdemonstrate": 29039,
  "Ø§ÙĤØ´": 9686,
  "ĠØ§Ø®ØªÙģØª": 40335,
  "ÙĥÙĦÙĪØ±ÙĬØª": 97229,
  "ĠØ§ÙĦÙħÙĦÙĤØŃØ§Øª": 19796,
  "ÙħÙħØ§Ø±Ø³Ø©": 25095,
  "Ġrounded": 30898,
  "ĠØ§ÙĦØ¹Ø¯Ø¯ÙĬØ©": 60300,
  "ĠØ§ÙĦÙħÙħØ§Ø«ÙĦØ©": 35068,
  "ĠEnhancement": 74570,
  "ĠRevolutions": 98981,
  "ÙħØ§Ø±Ø¬ÙĪØ±ÙĬ": 84007,
  "ĠÙĪØ§ÙĦØ®ÙĪØ§Ø±ÙĤ": 87071,
  "Ø§ÙĦÙĥÙĬØ§": 87489,
  "Ġevaluation": 46664,
  "ĠÙĪÙĬØªØŃØ¯Ùī": 62059,
  "ĠÙĦÙĦØ´ÙĦÙĦ": 86959,
  "Ø¬ÙĪØ¨ÙĬ": 77862,
  "ĠØ§ÙĦØŃØ¯Ø§Ø«Ø©": 11969,
  "Ġwatching": 55060,
  "Ġpedagogy": 93904,
  "ĠNumPy": 72887,
  "Ġexpectancy": 46044,
  "rice": 44805,
  "ĠØ§ÙĦÙħØªØŃ": 1519,
  "Ġga": 19987,
  "Ø§ÙĦÙĦÙĤØ¨": 64623,
  "ĠÙĦÙĦØ§Ùĥ": 25302,
  "word": 54125,
  "casts": 26128,
  "ĠØŃØµÙĦÙĪØ§": 70063,
  "(": 14,
  "Ø¬ÙĪØ§": 31344,
  "ĠÙĪØ§Ø²Ø±Ø§Ø±": 72919,
  "ĠÙĥØ·Ø±ÙĬÙĤ": 55006,
  "ÙĬØ§Ø¯": 54172,
  "ĠÙĦØ´Ø®Øµ": 12464,
  "ÙĬÙħÙĪØ³": 56940,
  "ĠÙĬÙĤØ¯Ø±ÙĪØ§": 8780,
  "ĠØºØ²ÙĬØ±": 36718,
  "Ġdistribute": 15096,
  "aval": 81970,
  "ĠØ§ÙĦÙħØªÙĪØ±Ø·ÙĬÙĨ": 84071,
  "cile": 43826,
  "Ø§ÙĦÙħØµÙħÙħØ©": 96267,
  "supernovae": 96723,
  "ÙĬØ³ÙħÙī": 10506,
  "Lusitania": 76193,
  "ĠÙħØŃÙģÙĪØ¸": 83064,
  "Ġsuic": 40286,
  "ĠØ§ÙĬØ²ÙĬØ³": 31874,
  "ĠÙĦÙĦØ§Ø®ØµØ§Ø¨": 91343,
  "ĠØ·Ø±Ø¯": 43950,
  "Ġdisobedience": 30119,
  "ĠTikTok": 53414,
  "ÙĨØ¯": 658,
  "Ġinstructions": 19799,
  "Ø§ÙĦØªÙĪ": 9781,
  "ÙĦÙĬØ¬": 78440,
  "ĠÙħÙĨØªØ²Ùĩ": 24080,
  "ĠÙĪØ§ÙĦÙģÙĦØ³Ø¨Ø§Ø±": 42413,
  "ĠØ§ÙĦÙħØºÙĨÙĪÙĦÙĬØ§Øª": 99444,
  "neken": 69912,
  "ĠÙĦØ·": 13716,
  "ĠØ§ÙĦØ¨Ø§ÙĨÙĥ": 17678,
  "Ġtrigon": 29115,
  "ĠØªØ¯ÙĦ": 31380,
  "Ġcuriosity": 63638,
  "ĠTibet": 81636,
  "Ġdetailing": 70653,
  "Ġgly": 26642,
  "eded": 78735,
  "Mexican": 99215,
  "ØªØ±Ø²": 31659,
  "Ø¬ÙħØ¹ÙĬØ©": 49472,
  "ĠØªÙĪØ³ÙĬØ¹": 26891,
  "ĠØ§ÙĦØªØ¹Ø±ÙĬØ¶": 11298,
  "ĠØ§ÙĦØ´ÙħÙĬØ©": 31714,
  "++": 26276,
  "ĠÙĪÙĬØ¹Ø¯ÙĦÙĩ": 96994,
  "ellishments": 34357,
  "ÙĨÙĬØ±Ø©": 11557,
  "Ġairspace": 58403,
  "ĠØ¬Ø²ÙĬ": 4194,
  "ĠÙĤØ§ÙģÙĬ": 29792,
  "mills": 31221,
  "ĠØµÙĪØ§ÙĨ": 56181,
  "ĠØªØªØ³": 19505,
  "Ø§ÙĦØ¨Ø©": 13443,
  "Ġpressures": 34883,
  "ĠØ§ÙĦØ¹ØµØ§Ø¨Ø§Øª": 51211,
  "ĠØ±Ø§Ø¨Ø¹Ø©": 55942,
  "ĠØ¨Ø§ÙĬÙĪÙĪÙĬØ±": 70920,
  "ĠØ§ÙĨÙĤØ±Ø§Ø¶": 15204,
  "ĠÙħØ·ÙĪÙĦ": 64763,
  "ĠÙĪÙħØ±Ø¬Ø¹": 66874,
  "Accretion": 59934,
  "ĠØ§ÙĦØ¬ÙĪØ§Ø²": 22574,
  "Ø§Ø¬Ø²": 7399,
  "ĠØªØŃÙĪÙĦ": 6869,
  "Trap": 53913,
  "ĠØ§ØŃØªØ§Ø¬": 67691,
  "ĠEverett": 75619,
  "ĠFarm": 40351,
  "ĠØ§ÙĦÙĩÙĬØ©": 44200,
  "Ġsurg": 50449,
  "Ġrevolutionized": 10856,
  "Ø§ÙĬØ¯Ø§": 31408,
  "elacanth": 99712,
  "Ġ20": 2304,
  "Ġfraud": 19900,
  "ĠÙĪØ§ÙĦØŃÙĦÙĤØ§Øª": 50381,
  "Ġ3500": 73627,
  "Ġdiptych": 89820,
  "ĠØ¹ÙĤÙĦÙĬØ©": 33001,
  "ĠØ§ÙħÙĨÙĬ": 51596,
  "ĠÙĥÙĬØ®Ø§ÙĨÙĪ": 96634,
  "ĠØ¨ØªØ¯ÙĬÙĥ": 24696,
  "ĠÙģØŃØµ": 13461,
  "Ġasbestiform": 98205,
  "antum": 13777,
  "ĠØ§ÙĨÙĪØ±": 79406,
  "Ø¨Ø³Ø¨Ø¨": 39367,
  "Ġcoron": 50886,
  "ĠÙĪØ¯Ùħ": 77620,
  "ĠØ¨ÙĨÙĩØ§ÙĬØ©": 56607,
  "Cap": 7714,
  "ĠÙĪØ¨ØªØ±ÙĪÙĦÙĪØ¬ÙĬØ§": 92837,
  "ĠÙĪØ§ÙĦØ§Ø³ØªØ¬Ø§Ø¨Ø§Øª": 45266,
  "ĠÙĪØµØ¯ÙħØ§Øª": 88100,
  "ĠÙĦÙĦØ¨Ø±ÙĪØ¨ÙĬÙĪØªÙĬÙĥ": 93396,
  "Ġdataset": 38793,
  "ĠØ§ÙĦØ²Ø¬Ø§Ø¬": 5797,
  "ĠØ§ÙĦØºÙĨ": 49624,
  "ĠRoebling": 75653,
  "ĠØ§ÙĦÙħÙĥØ§ÙĨÙĬ": 33591,
  "ĠÙĪÙĪÙģÙĬØ§Øª": 39432,
  "Ġcars": 21308,
  "Ġsupernatural": 18480,
  "ĠØ®ØµÙĪØµÙĬØªÙĥ": 38905,
  "ĠÙħØ¨Ø§ÙĨÙĬ": 17820,
  "ĠÙĪÙħØ¨Ø§Ø¯ÙĬÙĩ": 73814,
  "ĠÙĤÙĪÙĬØ§Øª": 79830,
  "ĠWears": 49788,
  "ĠØ§ÙĦÙĦÙģØ§Øª": 81693,
  "Ø¨ÙĬØ±Ø©": 24297,
  "Ġstepmother": 91592,
  "ĠÙĦØ§ÙĩÙħ": 54682,
  "ĠÙħØ±ÙĥØ²ÙĬÙĩÙħØ§": 52406,
  "ĠØ§ÙĦØµÙĦØµØ§Øª": 59368,
  "Ø§ÙĦØ§Ø®Ø±": 77024,
  "ĠÙĪØ§ÙĦØ´Ø®Øµ": 69266,
  "Ġweak": 9244,
  "orce": 43312,
  "ifically": 80950,
  "esterday": 53019,
  "enburg": 16685,
  "ĠÙĦÙħØ¹ÙĩØ¯": 91252,
  "Ø¶Ø¹ÙĬ": 54968,
  "ĠÙħØ³Ø§ÙģØ§Øª": 10972,
  "ĠÙĪÙħØ³Ø·ØŃØ©": 63539,
  "ĠØ§ÙĦØ²": 837,
  "Focus": 63874,
  "ĠØŃÙĤÙĨØ§": 89215,
  "ĠØ§ÙĦØµØ±": 20018,
  "Ġrepos": 29778,
  "ranging": 90927,
  "ØµÙĦÙĥ": 54673,
  "Ġmim": 26523,
  "Wag": 64193,
  "ĠØ®ÙĦØ§ÙĦÙĩ": 30126,
  "ĠLuke": 44448,
  "ÙĩØ±ÙħØ§ÙĨ": 31917,
  "Ø§ÙĦØ³ÙĦØ§Ùħ": 86370,
  "Ø§Ø¹ÙĦ": 751,
  "ĠÙĦÙĦØªÙĥÙĬÙģ": 23492,
  "ĠÙĪØªÙĤÙĦÙĬØ¯Ùĩ": 58517,
  "ĠWave": 28402,
  "ĠÙĪØ®ÙĦÙĬ": 77625,
  "ĠØ§ÙĦÙħØ±Ø¨ÙĬØ©": 77884,
  "ĠCopern": 24931,
  "ĠÙĬÙĦÙħØ³Ùĩ": 42278,
  ".*ØĮ": 75869,
  "Sumatran": 97063,
  "ĠØªØªÙĪÙĦØ¯": 67988,
  "ĠØ§ÙĦÙħØ§Ø¯ÙĬ": 19242,
  "ital": 1738,
  "ĠØ¨ÙħØŃØªÙĪØ§Ùĩ": 63255,
  "ĠØ§ÙĨÙĥ": 2926,
  "aden": 66656,
  "ĠÙĦÙĬÙĥ": 21538,
  "ØºØ§ÙħØ±Ø©": 55093,
  "ĠØ§ÙĦÙĥÙĪÙĥØ¨ÙĬØ©": 24835,
  "Ġappellate": 32336,
  "ĠEternal": 56395,
  "Gl": 10337,
  "SERM": 72525,
  "Ġactual": 14987,
  "ĠÙħØ³ØªØ´Ø¹Ø±": 24433,
  "ilet": 30399,
  "ĠÙĪØ²ÙĪØ¯ÙĪØ§": 98628,
  "Ġmust": 4807,
  "Ø§ÙĦØ³ÙĬØ±Ø©": 25788,
  "ĠØŃØ±": 1953,
  "Ġunderstandings": 50608,
  "ĠOrganic": 30682,
  "ĠFeynman": 47830,
  "ĠØ¨ÙĬØ§ÙĨØ§ØªÙĩÙħ": 45807,
  "ĠØ¨ÙĪØ±ÙĨÙĬÙĦ": 46123,
  "peal": 56283,
  "ĠØ§ÙĨÙĤØ±Ø¶": 48867,
  "Ø¬ÙħØ§ÙĦ": 8804,
  "ĠÙĪØ§ÙĦÙĩÙĨØ¯Ø³ÙĬØ©": 52661,
  "ĠViolating": 73966,
  "Ġflares": 58377,
  "ÙĥØ§Ø©": 16256,
  "ĠØ§ÙĦØªÙĪÙĦÙĬØ¯ÙĬØ©": 53245,
  "ĠBent": 36939,
  "Ġindivisible": 67888,
  "Cascading": 75993,
  "Ø¹Ø§Ø´": 77390,
  "Ġbehaviors": 5994,
  "ĠÙĬÙĨØªØ´Ø±": 13824,
  "dec": 48105,
  "iences": 23484,
  "ĠÙĪØ§ÙĦØ¨ÙĨÙĬ": 69281,
  "vid": 76842,
  "ĠØªØ·ÙĪØ±ÙĩÙħ": 87198,
  "ĠØ§ÙĦÙĪØªÙĬØ±Ø©": 47405,
  "Ġcitation": 65129,
  "ĠÙĪØ¨ÙĬØ¶ÙħÙĨ": 50087,
  "ĠØ§ÙĦÙĥÙĦÙĪØ±ÙĪÙģÙĦÙĪØ±ÙĪÙĥØ±Ø¨ÙĪÙĨ": 30884,
  "ĠÙĪÙĦØ§ØŃÙĤØ§": 83987,
  "ĠØ§ÙĦÙĨØ¨": 18740,
  "Ø§Ø¹Ø¨ÙĬÙĨ": 5687,
  "ĠØºØ±Ø²Ø©": 53077,
  "Ø¨Ùĥ": 23978,
  "ĠHead": 28670,
  "ĠÙĪØ§ÙĤÙĦ": 13375,
  "Ġconquer": 62113,
  "ĠÙĬÙĨÙĪÙĬ": 84882,
  "Ammonia": 92382,
  "ĠÙĥÙĪØ¯Ø§Ùĥ": 16616,
  "ĠØ§ÙĦÙĨÙĪØ¨Ø©": 65697,
  "ĠÙĬØ¶ÙĬÙģÙĪØ§": 73162,
  "ĠØ³Ø¬Ø§ÙĬØ±": 98146,
  "reflectivity": 96204,
  "ĠØ¶ØŃÙī": 97751,
  "istentialism": 13518,
  "ĠØ§ÙĦÙħØºØ±Ø¨": 20277,
  "ĠLiege": 82731,
  "ĠØ¬ÙħØ¬ÙħØ©": 59524,
  "ĠØ¨Ø§ÙĦÙĪØ§ÙĨÙĩØ§": 93743,
  "Ġsoftball": 91396,
  "Ø§ÙĦÙĩÙĨØ¯ÙĪØ³ÙĬØ©": 73465,
  "ristica": 75396,
  "Ġcommunic": 21650,
  "Ġhigher": 4078,
  "ĠØ§ÙĦÙĨÙĩØ¶Ø©": 11355,
  "ÙĨÙĬØ²ÙĪÙĨ": 81225,
  "Ø§ÙĦØ¬Ø²Ø¡": 17875,
  "ĠØ±ÙĤÙħÙĬ": 16117,
  "Ø²Ø¬Ø§Ø¬ÙĬ": 97603,
  "ĠØ§Ø±Øª": 14970,
  "ĠØªØŃØ¯ÙĬØ«Ø§Øª": 38711,
  "ĠÙħØªÙĪØ§Ø²ÙĬÙĬÙĨ": 63117,
  "Ġmeaninglessness": 45571,
  "ĠØ§ÙĦØ¹Ø·Ø§Ø¡Ø§Øª": 63450,
  "Develop": 4570,
  "ĠDifficulties": 95854,
  "Super": 13430,
  "ĠStellaris": 98896,
  "Ġcleavage": 41471,
  "Ġseen": 9029,
  "ĠØ§ÙĦÙħØ§Ø³Ø§Ø©": 26083,
  "Ø±ÙĬØ¹ÙĬØ©": 48825,
  "120": 63737,
  "feedback": 76590,
  "ĠÙĩÙĪØ³Ø±ÙĦ": 99601,
  "Ġindexed": 61314,
  "Operant": 74286,
  "ÙĩÙħØ§": 4914,
  "ĠØ§ÙĦÙħØ§ÙĬÙĦ": 14221,
  "ĠRwandan": 98263,
  "ĠÙĬØ³ÙĬØ±": 50913,
  "dish": 29464,
  "mosses": 64381,
  "ĠØ§ÙĦÙĨØ¨Ø§ØªØ§Øª": 1340,
  "ĠÙħØ«Ø¨Øª": 77461,
  "ĠØ§ÙĦØ¨Ø§Ø°ÙĨ": 79785,
  "ĠÙģÙĬØ¯Ø§Øª": 78246,
  "ĠØ§ÙĦØ§ÙĬØ§Ùħ": 20887,
  "Ġtow": 19316,
  "ĠÙĪØ¯Ø®ÙĦØª": 62684,
  "ĠÙĪØ§ÙĦØ¬ÙħÙĩÙĪØ±": 18705,
  "ĠØ¨ÙĬØ¨ÙĨÙĪØ§": 36407,
  "ĠTaxi": 42292,
  "ĠRevol": 69615,
  "ÙĬØ¬ÙĬ": 6103,
  "Ġcombine": 17412,
  "ĠØ¹Ø¸": 20559,
  "ÙħÙĬØ³": 28157,
  "Ġ200000": 38029,
  "ĠÙĬØ±Ø¶ÙĬ": 54887,
  "ĠÙĪÙĬÙĪÙĩØ§ÙĨ": 100183,
  "Ġreaches": 17674,
  "Ġcareers": 60007,
  "Ø§ÙĦÙĥÙĪØ§Ø±ÙĥØ§Øª": 42966,
  "ĠØ±ØŃÙĦØ©": 8239,
  "ĠÙĬØ¬Ø±ÙĪØ§": 86270,
  "Ġindividually": 68621,
  "ĠØ¨Ø±ÙĪØ§Ø¨Ø·": 87926,
  "ĠImageNet": 72970,
  "msman": 85850,
  "ĠØ§ÙĦØ´Ø¹ÙĬØ±": 59364,
  "ĠØ¨ÙĬØªÙĪØµÙĦÙĪØ§": 98119,
  "ĠØ³Ø±Ø¹ØªÙĩØ§": 23773,
  "ĠØ§ÙĦØ®Ø§ÙģØªØ©": 66681,
  "Ø¶ÙĪØ¹": 1876,
  "ĠÙĪØªØ®Ø²ÙĬÙĨÙĩØ§": 46505,
  "ĠÙĦØ·ÙĩÙĬ": 92878,
  "ĠÙħÙĪØ±ÙĬØ³ÙĬØª": 46171,
  "ĠNations": 16417,
  "ĠØ§ÙĦØ§Ø³Ø¨Ø³ØªÙĪØ³": 46537,
  "ÙģØ¬Ø§Ø±": 4352,
  "olis": 65654,
  "Ġninth": 36619,
  "medical": 89074,
  "ĠÙĪØ²ÙĪØ§ÙĬØ§ÙĩØ§": 97447,
  "ĠÙĪØ§ÙĦØ¬Ø±Ø§ÙĬÙħ": 73674,
  "pletion": 50141,
  "ĠØªÙħÙĦÙĥÙĩØ§": 75448,
  "ĠÙħØ¹Ø§ØµØ±": 43765,
  "ÙĦØ³ÙģÙĬØ©": 83147,
  "Ġtaxi": 90877,
  "Dialetheism": 100588,
  "ĠÙĬØªØ¬ÙĪØ²ÙĪØ§": 99094,
  "ØºÙĪØ·": 9197,
  "ĠÙħØªÙħØ±": 64769,
  "ÙħØ§ØªÙĪØ³": 40646,
  "ĠÙĤØ§ÙħØª": 15742,
  "ĠØ§ÙĦØ§Ø³ØªØŃÙĤØ§ÙĤ": 42290,
  "ĠÙĬØ¹Ø§Ø¯ÙĦ": 26738,
  "aleph": 84870,
  "rouds": 78917,
  "Ġnegotiating": 62019,
  "Ġreg": 1356,
  "Ġbiotic": 59158,
  "joln": 42849,
  "Ø²ÙĬØ¨ÙĤ": 24281,
  "ĠØ³ØªÙĬÙģÙĬØ§": 28977,
  "ĠTy": 49489,
  "ĠØ¯Ø³ØªÙĪØ±ÙĬ": 36391,
  "ĠØ¨Ø±Ø§Ø¡ØªÙĩ": 67810,
  "ĠØ¨ÙħÙĬØ¯Ø¬Ø§Ø±Ø¯": 95769,
  "ĠÙĪØ³ÙĬÙĦÙĬÙĨØ§": 89898,
  "Ø§ÙĦØ¨Ø±Ø¬": 77028,
  "Ġtoget": 5158,
  "ĠÙĪØ¨ÙĬØ´Ø§Ø±ÙĥÙĪØ§": 61230,
  "ĠØ·Ø±ØŃØª": 91862,
  "tzmann": 38532,
  "ĠÙĦÙĪØ±ÙĨØ²": 38213,
  "ĠÙĪÙĨÙĬÙĪØªØ±ÙĬÙĨÙĪ": 33566,
  "ĠØ§ÙĦØŃØ´ÙĪØ¯": 95193,
  "ĠÙĨØ§ÙĤÙĪØ³": 98113,
  "Dom": 39143,
  "Ġbanning": 79043,
  "Ġerotica": 88002,
  "Ġvide": 29904,
  "ĠÙĪÙħØŃØ¯ÙĪØ¯Ø©": 46793,
  "Ø·Ø¨ÙĬØ¹Ø©": 54631,
  "ĠÙĥØ²Ø¨Ø±Ø©": 78870,
  "ØªÙĤØ¯Ùħ": 8254,
  "Ġreflexive": 62128,
  "Ġfundamental": 3515,
  "Ġdispersed": 42035,
  "ĠØ§ÙĦÙħØ§ÙĨÙĬØ§": 7010,
  "ÙħØºØ§ÙĦØ·Ø©": 77124,
  "atherback": 85145,
  "determined": 64275,
  "Ø§ÙĦØ¨ÙĦÙĬØ²": 81387,
  "Ġdisease": 5312,
  "Ġrond": 40305,
  "ĠØ¹ÙħÙĦÙĬ": 16110,
  "ĠØµØ¨ÙĬ": 66570,
  "ØªØ¹ØªÙħØ¯": 30002,
  "Ø°ÙĬØ±Ø§Øª": 39800,
  "ĠØ³ÙĪÙģÙĬ": 49022,
  "Ġdirected": 7424,
  "ĠØªØ«ÙĤ": 52370,
  "ĠÙĦØªØµØ±ÙģØ§Øª": 54726,
  "ĠØ§ÙĦØªØ±Ø§ÙĨÙĬÙħ": 24469,
  "ĠØ¨ÙĨÙĤØ³Ùħ": 29116,
  "ÙĦØ¹ÙĨØ©": 87940,
  "ĠØ§ÙĦÙĥÙĪÙĥØ¨ÙĬÙĨ": 70159,
  "iot": 5742,
  "ĠØ§ÙĦÙħØ±Ø¬Ø§ÙĨÙĬØ©": 7770,
  "elesc": 13005,
  "opheles": 36772,
  "ĠØ§ÙĦØ±ÙĪÙĪØ³": 23378,
  "Ġmadness": 39694,
  "ĠAesthetic": 74691,
  "ĠØ§ÙĦØ±ÙĬÙĬØ³ÙĬ": 1374,
  "ĠÙħÙĨØ§ÙģØ³ÙĬÙĩØ§": 78790,
  "ĠÙĪØ¸ÙĬÙģØ©": 2496,
  "Ø§Ø¨ÙĤ": 5356,
  "ĠFoxes": 62058,
  "ĠÙĪÙĪØ¸Ø§ÙĬÙģ": 19103,
  "Ġexclusion": 29912,
  "Ġhabitat": 3960,
  "ĠØªØ³Ø§Ø±Ø¹": 17852,
  "ĠØ§ÙĦØ¹Ø§Ø·ÙģØ©": 12455,
  "ĠÙĪÙĨØ§Ø³": 23387,
  "§¦å": 76896,
  "ĠÙĪØ§ÙĦØ§ÙĨØ³Ø¬Ø§Ùħ": 61571,
  "ĠÙĪØ§ÙĦÙĤØ¨Ø±Ø¯ÙĬÙĨÙĬØ©": 100399,
  "ems": 4755,
  "Ġjoint": 11320,
  "Ø¶ØŃÙĥ": 23678,
  "perity": 23267,
  "Ø§ÙĨØ¬ÙĦÙĬØ²ÙĬ": 43123,
  "ĠØ§ÙĦØ´ÙĥÙĦÙĬ": 80394,
  "ĠÙĦÙĪØ±ÙĬÙĨØ²ÙĪ": 46983,
  "ĠØ§ÙĦØ¹ÙĤÙĬØ¯Ø§Øª": 79398,
  "Ġdepended": 91491,
  "ĠØ§ÙĦÙĦÙĩØ¬ÙĬØ©": 25463,
  "tters": 11354,
  "Tax": 23927,
  "Ø§ØºÙĪØ±": 44776,
  "Ġrighteousness": 63109,
  "lberg": 76684,
  "ĠØ§ÙĦØªÙĪÙĤÙĬØ¹": 43447,
  "Ġshowc": 26064,
  "utations": 80187,
  "ĠØ§ÙĦØ±ÙĤØµØ§Øª": 28743,
  "trad": 48199,
  "ØªÙħØ±": 6268,
  "ĠØ³ØªÙĬÙĥÙĨØ¬": 89614,
  "ĠÙģÙĦÙĬÙĥØ³ÙĨØ±": 92788,
  "Ġcholesterol": 39085,
  "ÙĨÙĪÙĬØ§Øª": 64665,
  "ĠÙĪØ§ÙĦØ§Ø³ØªÙĩÙĦØ§ÙĥÙĬØ©": 96958,
  "ĠØ§Ø³ÙħÙĩÙħ": 34080,
  "ĠØ§Ø¯ÙĬ": 34379,
  "Ġnapalm": 98738,
  "Push": 64065,
  "Ġgenerally": 3654,
  "ĠØ§ÙĦÙħØŃØ§Ø³Ø¨ÙĬØ©": 82501,
  "utral": 29823,
  "ÙĪØ¶ÙĪØŃ": 28808,
  "ĠÙĪØ§Ø¯Ø§Ø±ÙĬØ§": 89681,
  "ĠÙĦØªÙĤØ·ÙĬØ¹": 59512,
  "Ġintelligibility": 61372,
  "Ġprima": 68567,
  "ĠØ§Ø¨Ø³Ø·": 17323,
  "Collectivist": 97884,
  "Fluid": 47943,
  "ĠÙĪØ§ÙĦØ¬Ø°Ø¨": 40960,
  "ĠØ§ÙĨØ®ÙģØ§Ø¶": 5123,
  "ĠÙĪØ·Ø±ÙĬÙĤØ©": 13648,
  "ĠØªÙĥÙĪÙĬÙĨÙĬØ©": 69774,
  "Ġstating": 39951,
  "Ġgenetics": 32024,
  "ĠØ§ÙĦØ§ÙħØ¨ÙĬØ±": 82968,
  "ĠØ§ÙĦØ¹Ø¸ÙħØ©": 29738,
  "ØªÙĬÙĥÙĬØ©": 40257,
  "ĠØ§ÙĬØ¬ÙĬØ¨ØªÙĪØµÙĪØ±ÙĪØ³": 100691,
  "Ġ1986": 37967,
  "Ġenigmatic": 82434,
  "ĠÙĪØ§ÙĦØ§ÙĬÙħÙĬÙĦ": 92615,
  "ĠØ§ÙĦØªØ§Ø±": 31497,
  "Ġcave": 33641,
  "ĠØ¯ÙĪÙĨ": 3319,
  "ĠMigrant": 44192,
  "ĠØ§Ø¶ÙĦØ§Ø¹": 15023,
  "ĠDong": 56751,
  "ĠØŃØµÙĪÙĦÙĩØ§": 94549,
  "Ø¹ÙĪØ¨": 33529,
  "Fores": 63877,
  "ĠØªØ¬Ø¨Ø±": 32135,
  "ĠÙħØ®ØªÙĦÙģØªÙĬÙĨ": 16535,
  "QR": 64090,
  "Ġcradle": 78310,
  "Ø§ÙĦÙħØ´Ø¨Ùĥ": 99875,
  "Ġregulated": 45761,
  "ĠUk": 50210,
  "Ø§ÙĥØ±ÙĪÙĨÙĬÙħ": 99919,
  "Ġhims": 23124,
  "iating": 48143,
  "ĠØ§ÙĦÙħÙģØªØ±Ø¶": 32287,
  "Ġcity": 4007,
  "rection": 26412,
  "ĠÙĦÙĦØ§Ø·": 11418,
  "ocial": 35970,
  "Stanford": 63269,
  "ĠØ§ÙĦØ§ÙĥÙĪØ§Ø¯ÙĪØ±": 44862,
  "Ġrubella": 92579,
  "ĠHypot": 22349,
  "Permineralization": 95955,
  "ĠÙĪØ§ÙĦØ¯ÙħØ§Ø±": 35753,
  "Ø¯ÙħØªÙĩ": 80047,
  "ĠØ§ÙĦÙħØµØ§Ø±ÙĬÙģ": 17320,
  "Ø¶Ø¨": 8670,
  "ĠØ¨ÙĨØŃÙģØ±": 46128,
  "ĠÙħØªÙĥÙħÙħ": 92689,
  "istory": 1124,
  "ĠÙĪØ§ÙĦØ³Ø®Ø±ÙĬØ©": 24534,
  "ĠØ¨ÙĤØ·Ø¹Ø©": 85485,
  "Ø§ÙĦØ¯": 5090,
  "ĠØ§ÙĦÙĥØ±Ø©": 5786,
  "ecutive": 70151,
  "aac": 29457,
  "ĠØ§Ø³ØªØ¶Ø§ÙģÙĩ": 93255,
  "ÙĪØ§ÙĥØ³": 43953,
  "Ġorientation": 23891,
  "ĠØ§ÙĦÙĨÙĬØ§Ø³ÙĬÙĨ": 45613,
  "ĠÙģÙĬÙĨÙĪØ§ÙĬ": 59663,
  "Ø³Ø§Ø¹": 54374,
  "ĠPoincare": 75782,
  "ĠLas": 82704,
  "ĠØ§ØªØ¹ÙĦÙħØª": 73827,
  "itu": 18694,
  "ĠØ§ÙĦØ§ØŃÙĬ": 10422,
  "ĠØ¨Ø§ÙĦÙħØªÙĪØŃØ´": 87628,
  "ĠTIFF": 66750,
  "Ø§ÙĪÙĥÙĪØ¨ÙĪ": 96444,
  "ĠRij": 82453,
  "Brahman": 73025,
  "ĠWhite": 21900,
  "inators": 22070,
  "Ġpirates": 54832,
  "Ġpolymerase": 73863,
  "Ġcuneiform": 36236,
  "ĠØ³ÙĬØ§Øª": 29794,
  "ĠØ¨ÙĪØ§Ø±": 39406,
  "ĠØ¨ÙĤØµØªÙĩ": 68688,
  "ĠÙĪØªØ´ÙģÙĬØ±": 49302,
  "ĠØ§ÙĦØ§Ø¬ÙĩØ²Ø©": 5738,
  "Ġtactile": 94950,
  "iterranean": 27047,
  "ĠÙħØ®Ø§Ø·Ø±": 12238,
  "Ø¶Ø¹ÙĬØ©": 26498,
  "ĠÙģØ±ÙĤØ©": 8169,
  "ĠÙĥØ§Ø²ÙĬÙħÙĬØ±": 47371,
  "Ġsitting": 34948,
  "ĠØ§ÙĦÙħÙĨÙĪÙĬ": 82102,
  "ĠØ¨ÙĨÙĥ": 15265,
  "ĠÙĦÙĦÙħØ´Ø§Ø¹Ø±": 27431,
  "ĠØ¹ÙĤÙĪÙĦ": 31366,
  "ĠÙĦÙĦØ§Ø®ÙĪØ©": 46419,
  "ØªØ±Ø§Ø±": 15534,
  "Ġexistentialist": 47355,
  "ĠØ¨Ø§ÙĦØ¹Ø´Ùī": 88464,
  "legory": 52019,
  "ĠØ§ÙĨØ§Ø«": 65678,
  "ĠÙĬÙĨØ§Ø³Ø¨": 57758,
  "Ġamusement": 85820,
  "ĠØ¨Ø§ÙĦØ«ÙĤØ©": 94321,
  "ĠØ¨ÙħØŃØ±ÙĥØ§Øª": 61045,
  "ĠÙĨØ¹ÙħÙĦ": 4453,
  "ĠØ§ÙĦØ§ÙĬØ±ÙĦ": 10785,
  "ĠÙĦÙĬÙģÙĬÙĨØ§Ø³": 96911,
  "ĠÙĬÙĥÙħÙĦ": 17978,
  "Ġwarping": 70259,
  "ĠØ¨ØªÙħÙĬØ²ÙĩØ§": 38845,
  "Population": 20493,
  "Ġplanting": 40979,
  "ĠIvan": 80825,
  "es": 236,
  "Ø§Ø·ÙĬÙĦ": 20706,
  "ÙĪØ§ÙĤÙĬØ§Øª": 86919,
  "planes": 82349,
  "wolf": 42902,
  "ĠØ¨Ø§ÙĦØ§Ø¯ÙĪØ§Øª": 62046,
  "Ġglimp": 86413,
  "bisoft": 29385,
  "ĠÙĨØ¹ÙħÙĦÙĩØ§": 32593,
  "Ġcompleting": 35229,
  "ĠÙĦÙĦØ³ÙĬØ§Ø±Ø©": 71686,
  "ĠÙħÙĪØ¶Ø©": 12197,
  "ĠExcalibur": 100415,
  "Ġannihil": 71827,
  "ØªÙĤØµÙĬØ±": 82360,
  "itas": 33669,
  "ration": 2716,
  "ĠØ¨ÙĬØ§Ø¬ÙĬÙĩ": 39068,
  "ĠOgun": 63248,
  "ĠØ§ÙĦØ±Ø³Ø§ÙĦØ©": 27151,
  "ĠØ§ÙĦÙħÙĬØ§ÙĦÙĬÙĨ": 57729,
  "ĠØ¨ÙĨÙħØ³Ùĥ": 82320,
  "ĠÙħÙĬÙĨ": 3439,
  "ĠÙĪØªØ§Ø±ÙĬØ®ÙĩØ§": 24240,
  "Ø§ÙĤØªÙĩØ§": 13250,
  "ĠÙģØ§Ø¨ÙĬ": 54572,
  "Ġongoing": 13030,
  "ĠØªØ´ØºÙĬÙĦÙĩØ§": 46204,
  "ĠØ²ÙĬÙĩÙħ": 81575,
  "?**": 63756,
  "ĠAdapt": 51371,
  "laughterhouse": 62668,
  "ĠØ§Ø³ÙħØ§Ø¹ÙĬÙĦ": 31805,
  "ĠØ¹ÙħÙĦÙĨØ§Ùĩ": 56863,
  "ĠRudolf": 98833,
  "ĠØ¬Ø°Ø±": 20653,
  "Ø§ÙĦÙĥØ¨Ø±": 87488,
  "ĠØ§ÙĦØ¯Ø¹Ø§ÙħØ©": 21104,
  "ĠÙĪØ§ÙĦÙģØ¶Ø©": 50794,
  "ĠKeeling": 71943,
  "ĠÙĬØ¬Ø³Ø¯": 69079,
  "Ġfulfilling": 52759,
  "ĠØ§ÙĦØ¹Ø§ÙħÙĦØ§Øª": 65671,
  "ØºÙĦÙĬÙģÙĩ": 90854,
  "ioration": 54030,
  "ĠÙħÙĪØ·ÙĨØ§": 37119,
  "ĠÙĪÙĬØ¹ØªÙĤØ¯ÙĪÙĨ": 95704,
  "avi": 1526,
  "ĠØ§ÙĦØ§ÙħÙĬØ©": 56885,
  "Ø§ÙĦØ¶Ø±Ø¹": 93090,
  "Annual": 52648,
  "ĠØ¬ÙĪÙĨØ§Ø³": 37915,
  "ĠØ§ÙĦÙĨØ§Ø²ÙĬØ©": 25292,
  "Ø®ÙģØ§Ø¶": 3753,
  "Ġcircular": 25919,
  "ĠØ®ÙĦÙĬÙĦ": 80866,
  "ĠØ§Ø¯Ø§ÙħØ©": 50018,
  "ĠÙĪØ§ÙĦÙħØ¬ØªÙħØ¹": 7156,
  "lean": 23057,
  "Ø§ÙĨØªÙĬ": 43117,
  "Ġpromin": 20219,
  "ĠØ¨Ø±ÙĥÙĦ": 83750,
  "ĠÙĪÙĬØ·ÙĬØ±": 82910,
  "ĠØ§ÙĦÙģØ±Ø¯ÙĬØ©": 6338,
  "ilova": 80045,
  "Ġdistances": 8514,
  "ĠØ§ÙĦØ¯Ø±Ø§ÙħÙĬ": 17902,
  "ĠÙĦØ§Ø±Ø³Ø§ÙĦ": 54720,
  "Ġkills": 66937,
  "ĠMoving": 89376,
  "Ġdepict": 5337,
  "ĠÙĪØŃØ±": 26968,
  "olightly": 79374,
  "ÙĦÙĪØ³": 2256,
  "Ġperception": 12212,
  "eding": 21329,
  "ĠØ§ÙĦÙħÙĬØªØ§ÙģÙĬØ²ÙĬ": 27493,
  "ÙĬØªØ¹Ø§ÙħÙĦ": 64574,
  "ĠOsborn": 61768,
  "ĠØ§ÙĦØ³Ø¹ÙĪÙĬØ©": 72289,
  "ç²": 54149,
  "ĠFinc": 67277,
  "ĠÙĬØ³ÙħÙī": 4158,
  "Ġabuses": 83853,
  "ĠÙĪØ¨ÙĦ": 22376,
  "ĠØ§ÙĦÙĥÙĪÙĨÙĬ": 12222,
  "ĠÙĪØµÙĪÙĦ": 12959,
  "Onomat": 61280,
  "ĠÙĪÙĬØµØ¹Ø¨": 74368,
  "ÙħÙĪÙĦ": 3767,
  "Ġprovider": 50639,
  "ction": 777,
  "ĠAutom": 60269,
  "Ġchees": 60364,
  "ĠØ¨ØµÙĪØ±ØªÙĩ": 30696,
  "ĠÙĪÙĪÙĬØª": 77650,
  "ĠGardner": 47178,
  "Ġape": 43104,
  "ĠØªØªØ³ÙħÙī": 67987,
  "ottes": 89217,
  "ĠØ§ÙĦÙħØ³ØªØ¹Ø§Ø±": 28530,
  "ĠÙĦÙĦØ³ÙĨØ©": 86580,
  "ĠCBT": 49333,
  "Ġpackages": 61102,
  "Ġnasoph": 97659,
  "ĠSky": 43941,
  "ÙĥØ³ÙĪÙĨ": 19491,
  "Ġbearded": 56295,
  "ĠØ§ÙĦÙĤØ·Ø¹": 9100,
  "Ġfluorescent": 97431,
  "kinetic": 64342,
  "Ø¨Ø±ÙĬÙĪÙĨØ§Øª": 70166,
  "ĠØ§ÙĦØ«Ø¨Ø§Øª": 31930,
  "ĠSuccession": 98180,
  "ÙĤØ¨ÙĪÙĦ": 69748,
  "Ġsurrounding": 8201,
  "ĠÙĪØ§ÙĦØ§ÙĨØ¯ÙħØ§Ø¬Ø§Øª": 86499,
  "itlan": 54823,
  "Ġtraditions": 8178,
  "ĠÙĪØªØ§Ø«ÙĬØ±Ø§Øª": 21849,
  "Wang": 76449,
  "ĠØªÙģØ§ØŃØ©": 85390,
  "Ġisomorphism": 33720,
  "ĠÙĪØ§ÙĦØªØ·ÙĪØ±Ø§Øª": 72232,
  "ĠØ§ÙĦØ´Ø±Ø·ÙĬ": 88218,
  "ĠÙĪØ¹ÙĤÙĪØ¨Ø§Øª": 85282,
  "ET": 9172,
  "gillus": 48133,
  "ĠØ§ÙĦØªÙĥØªÙĪÙĨÙĬ": 99597,
  "ĠÙĦÙĥÙħØ¨ÙĬÙĪØªØ±Ø§Øª": 97155,
  "entment": 79288,
  "Ġcarnivores": 62225,
  "ĠØ´Ø¨ÙĥØ©": 4897,
  "ĠÙģØ±ÙĪØ¯ÙĪ": 92200,
  "ĠØŃÙĪØ§ÙĬØ·": 68549,
  "ĠÙĦÙĦØ·ÙĪØ¨": 89582,
  "Darling": 97040,
  "ĠØ§ÙĦØ°Ø§ØªÙĬ": 7154,
  "ĠÙħØ¨Ø§Ø´Ø±Ø§": 24699,
  "Cost": 42675,
  "Ø§Ø³ÙĦÙĥÙĬØ©": 48577,
  "ĠØ§ÙĨØªÙģØ§Ø®ÙĩØ§": 73680,
  "ĠWes": 82741,
  "Ø¬ÙĬÙĨØ§Øª": 20900,
  "Vs": 14792,
  "ĠÙĦÙĦØ´Ø¨Ø§Ø¨": 69417,
  "Ġsettlement": 27673,
  "Physical": 52090,
  "Ġpalaces": 94973,
  "ĠØ¨ÙĬØ±ØªÙĪÙĨ": 44950,
  "ĠØ§ÙĦÙģØ§Ø¶ÙĬØ©": 80280,
  "ĠØ§ÙĦÙĤØ§Ø¹": 31663,
  "umber": 22309,
  "Ġobserver": 17432,
  "ĠØ³ÙģØ±Ø§Ø¡": 94046,
  "ĠWhole": 72787,
  "udsman": 74912,
  "ĠØ¨ÙĬØµØ·Ø§Ø¯": 93111,
  ">).": 75886,
  "ocarbon": 25489,
  "Ø§ÙĦØ·ÙĦÙĬØ¹Ø©": 89846,
  "fore": 2942,
  "Ġconfigurations": 96978,
  "ĠÙħØ§Ø±ÙĬÙĪØ³": 92523,
  "ioni": 65262,
  "ĠÙĬØ´ØªØ±ÙĪØ§": 19161,
  "ĠØ·Ø¨ÙĬØ¹Ø©": 6437,
  "Her": 39164,
  "ĠÙĦÙĦÙĪØ³Ø·ÙĬÙĨ": 97638,
  "ture": 11215,
  "Ġtraced": 50651,
  "ĠÙĪÙħÙĬØ«ÙĪØ¯ÙĬÙĪØ³": 92872,
  "ĠÙĬÙĦØªÙĤÙĬ": 60099,
  "Azhar": 98538,
  "ĠØ§ÙĦÙĨÙĪÙĬØ²": 65706,
  "leboard": 79100,
  "Ġreflectivity": 70431,
  "Ø§ÙĦÙĦÙĬÙħÙĪØ±": 97986,
  "ĠØ¨Ø±ÙģØ¶": 64824,
  "ĠØ¨Ø§ÙĦØªØ¯ÙģÙĤ": 46263,
  "Ġnorthropi": 94841,
  "Ø§Ø¨Ùĥ": 79467,
  "ĠProgramming": 15024,
  "isation": 65008,
  "ĠØ¯ÙĬØ§ØªÙĪÙĨÙĬØ©": 66553,
  "ĠØ§ÙĦÙħØŃØ¯": 11464,
  "Romans": 92677,
  "Mario": 47998,
  "Ġreviving": 90723,
  "engineering": 41042,
  "ĠØ§ÙĦØ¯Ø§Ø¬ÙĬØ±": 31792,
  "ÙĨÙģÙĪØ±": 59607,
  "Myst": 47993,
  "ĠÙĪÙħØªØºÙĬØ±Ø©": 71695,
  "trade": 54110,
  "ĠÙĪØ§ØŃØªÙĦØ§ÙĦÙĩØ§": 83459,
  "ĠØ§ÙĦÙĪØ±ÙħÙĬØ©": 87446,
  "Ġtundra": 23989,
  "ĠÙĪØ§ÙĦØ®ÙĦØ§ÙĬØ§": 65334,
  "pective": 32521,
  "imental": 17688,
  "ĠÙĦØ§Ø«": 18680,
  "ĠØ§ÙĦÙħØªÙĥØ±Ø±Ø©": 11942,
  "Ġdances": 43471,
  "ĠØ§ÙĦØ®ÙħÙĬØ±Ø©": 19704,
  "Ġtire": 77528,
  "ĠÙĩØ±ÙĬ": 78331,
  "ĠÙĦÙĦÙĨ": 1800,
  "ĠØ§ÙĦÙĪØ§Ø´ÙĬ": 56806,
  "oston": 19578,
  "ĠØ¨ÙĪØªØ´ÙĬÙĨÙĬ": 47764,
  "Ġneander": 83542,
  "ĠVera": 50368,
  "ĠÙĪØ³Ø±Ø·Ø§ÙĨ": 68562,
  "ÙĪÙĨÙĬØªØ±ÙĬ": 85973,
  "Ġhagfish": 80181,
  "mauv": 70377,
  "ĠØ§ÙħÙĥØ§ÙĨÙĬØ©": 12414,
  "ĠØ¨ÙħØªØ§Ø¨Ø¹Ø©": 84754,
  "Ġflaxseeds": 73841,
  "ures": 970,
  "ĠÙĨÙĬØ²ÙĥÙĬØ©": 62580,
  "ĠÙĦÙĦØ´Ø¹ÙĪØ¨": 86966,
  "ÙģØ§Ø¡Ø©": 2804,
  "ĠNetbooks": 52617,
  "ĠÙĬÙĥØ´ÙģÙĪØ§": 94410,
  "ĠEating": 66822,
  "ÙĪØ§ÙĩØ±": 8238,
  "ĠØ§ÙĦÙħØ³Ø¨": 31350,
  "HP": 29424,
  "ĠÙĦØ§ÙĥØªØ´Ø§ÙģÙĩ": 22774,
  "Ø§ÙĦØ§Ø³ØªÙħØ·Ø§Ø±": 70040,
  "amins": 43708,
  "ĠVolunteers": 52814,
  "ĠÙĦØŃØ±ÙĥØ©": 17348,
  "Ġsm": 1827,
  "ĠØ§ÙĦØ¨Ø§ÙĦÙĬØ©": 20658,
  "ĠÙĪÙĤØ§Ø¹Ø¯Ø©": 57542,
  "ĠÙħØªØ¬ÙĪØ²": 70885,
  "ĠÙĪØªØªØ¬ÙħØ¯": 51777,
  "ĠÙĪØ¨ØªØ§Ø®Ø¯": 58355,
  "ĠÙĪÙĬÙĪÙģØ±": 16835,
  "obotan": 29282,
  "ĠØªØ¨ÙĬØ¹Ùĩ": 73090,
  "ĠØ¨ÙĪÙĬÙĨØ¯ÙĬØ§": 42053,
  "Ġtours": 65649,
  "ĠÙĪØ§ØµØ¯Ø±": 90933,
  "ĠØ§ÙĦÙĨØ§Ø®": 7330,
  "chy": 33948,
  "Arkane": 68012,
  "ĠØªØ¯ÙĪÙĬÙĨ": 58388,
  "Ġalong": 5190,
  "ifolds": 80952,
  "bbiano": 74143,
  "Ġdifferentiates": 85612,
  "ĠÙĪØ§ÙĦØ§Ø³ØªØ·Ø§ÙĦØ©": 91069,
  "Ġnamed": 6969,
  "ĠÙĦÙĦØ¨": 5214,
  "ĠÙĪØ¨Ø¹Ø¯Ùĩ": 50951,
  "Ø§ÙĦØ®Ø¯ÙħØ§Øª": 77019,
  "ÙĥÙĦÙĪØ±ÙĪØ¨ÙĬÙĨØ²": 90117,
  "aylor": 20743,
  "ĠÙĨÙĪÙģÙĪØ³ÙĬÙĦÙĪÙģ": 94028,
  "ĠØ§ÙĦÙģØ§Ø¹ÙĦ": 11604,
  "ĠØ¨ÙĬØªØ¹ÙħÙĤ": 61740,
  "ĠØ§ÙĦÙħÙĪØ§Ø´ÙĬ": 82803,
  "ostics": 86418,
  "ĠØ¨Ø´Ø±ÙĪØ·ÙĩØ§": 96365,
  "TCP": 64158,
  "ĠØ§ÙĦÙħØ¯ÙĨ": 7050,
  "Ġshake": 50062,
  "ĠEpic": 35481,
  "ĠØ§ÙĦØ«ÙĦØ§Ø«Ø©": 8274,
  "ĠØ§ÙĦÙĬÙĥÙħ": 83238,
  "ĠØ¹Ø¯Øª": 77990,
  "ĠØ¨ÙĪØŃØ¯Ø§Øª": 45287,
  "ØªØµØ±": 28376,
  "ĠØ§ÙĦØ§Ø±ÙĩØ§ÙĤ": 44506,
  "Ø§ÙĦØ¸": 48244,
  "Ø§ÙĩØ±Ø§ÙħØ§Øª": 26148,
  "ĠØ§ÙĦÙĨÙĬØ¬ÙĬØ±ÙĬ": 69797,
  "ĠØ§ÙĦÙħØ¹ÙĤÙĪÙĦØ©": 56460,
  "ĠÙĦØ§Ø¨Ø±Ø§ÙĩØ§Ùħ": 92605,
  "evil": 22739,
  "ĠØ¨ÙģØªØ±Ø§Øª": 32640,
  "ĠÙĬØªØŃØ¯": 51615,
  "ĠRodriguez": 47877,
  "ĠØ§ÙĦØºÙĪØ±ÙĬÙĦØ§": 49627,
  "ĠØ§ÙĦØªØµ": 1285,
  "ĠÙĪÙĬÙĨ": 6221,
  "ĠØ¨ÙħÙĨØ§Ø¸Ø±": 38251,
  "ĠÙĪØ§ÙĦØ§ÙĦØªØµØ§ÙĤ": 78717,
  "Ġuncovering": 62664,
  "ĠØ§ÙĦØ¹ÙĨÙĬ": 79380,
  "ĠÙĪØ¯ÙĤÙĬÙĤØ©": 90596,
  "Ġfortified": 33058,
  "Mir": 63994,
  "Ġpro": 408,
  "Ġignoring": 60868,
  "Ġtearing": 69114,
  "ĠØªÙĨØ§Ø¸Ø±ÙĬØ©": 74722,
  "Ø¯Ø¬Ø§Ø±Ø¯": 96458,
  "ĠØ¨ØªØŃØ³ÙĨ": 30264,
  "Ġstiffness": 31023,
  "Ġsoledad": 86059,
  "Ġparliament": 10300,
  "ĠØ§ÙĦÙĦÙĥÙĨØ©": 24298,
  "ĠØ¨ÙĬØ¯Ø±Ø¨": 79261,
  "Ġrelocating": 67722,
  "ĠØ¨ÙĨØŃ": 6277,
  "Ġdominant": 10040,
  "Ġbrickwork": 96022,
  "ĠØ¨ÙĬØ¹ØªØ¨Ø±ÙĪÙĩ": 12929,
  "ĠØ¨ÙĪØ±Ø©": 54398,
  "metropolitan": 60837,
  "Ġvalve": 45137,
  "ĠØ®ÙĪØ®": 80874,
  "ĠØ³ÙĦÙħÙĬØ§": 86762,
  "ĠÙĪØ¬Ø§ÙģØ©": 50218,
  "ØªÙģØ³ÙĬØ±Ø§Øª": 61831,
  "ĠØ¨Ø§ÙĦØ¹Ø§ÙĦÙħ": 32560,
  "ĠØ§ÙĦØ³ÙĥØ±ÙĪØ²": 55662,
  "ĠØ¨Ø§ÙĦØªØµÙĪÙĬØ±": 52837,
  "Ġquarters": 57982,
  "ĠØ§ÙĦØªØ±ÙħÙĪÙħØªØ±Ø§Øª": 96936,
  "ĠØ¨ÙħÙĨØŃÙĪØªØ§ØªÙĩØ§": 39010,
  "Ġturb": 19853,
  "ÎĳÎ¼ÏĨ": 75413,
  "ĠÙĥÙĪÙĬÙĨØ²ÙĦØ§ÙĨØ¯": 72073,
  "ĠØªÙģÙĥÙĬØ±ÙĨØ§": 24851,
  "Ġhonors": 52182,
  "Ø§ÙĦÙĬØªÙĩ": 56538,
  "ĠØ¨ÙĬØ±ÙĨØ²": 57720,
  "Ø¯ÙĬÙĨØ§ÙħÙĬÙĥØ§": 10645,
  "ĠØ¹Ø§ÙĬØ¯Ø§Øª": 58748,
  "ĠReferee": 72018,
  "broccoli": 99275,
  "ĠÙĪÙĬØ¶Ø±": 56852,
  "ĠØªØ¨Ø§ÙĬÙĨ": 28740,
  "ĠÙĥØ§ØªÙĨÙĬØ³": 60852,
  "Ġunhelpful": 100221,
  "ĠÙĦÙħ": 1169,
  "ĠÙĪØ§ÙĦÙĤÙĪÙī": 16087,
  "Ġirrit": 41685,
  "ĠÙĪØ§ÙĦØ§Ø®ÙĬØ±Ø©": 59490,
  "ĠØ§ÙĨØ¯ÙĪØ±Ø§": 79419,
  "ĠØ§ÙĦØ§ÙĬØ±Ø§ÙĨÙĬØ©": 47487,
  "Ø§ÙĤØ¯Øª": 79817,
  "ĠÙĪÙħÙĬØ±ÙĥÙĪØ±ÙĬ": 81874,
  "ĠÙĦÙĦØ§ÙĦÙĥØªØ±ÙĪÙĨ": 48918,
  "Ġgeographic": 12247,
  "ĠÙħØ³ØªØ¹Ø§Ø±Ø©": 95429,
  "asser": 28468,
  "elp": 55409,
  "ĠØ¹ÙĨØ§ÙĨ": 80340,
  "ĠÙģÙĦÙĪØ³": 4156,
  "Dram": 47921,
  "ÙĪÙĨØ¯ÙĪØ§ÙĨØ§": 41856,
  "Ġdragon": 36356,
  "hotograp": 1273,
  "ĠÙĪØ§ÙĦØ¨ÙĨÙĬØ©": 13111,
  "ĠPav": 40118,
  "ĠÙĬØ§ØªØ²ÙĬ": 78611,
  "ĠØ¨ÙĬØ±Ø¬Ø¹ÙĦ": 84796,
  "Ġjew": 24483,
  "Ġcook": 14944,
  "ØºØ±Ø§ÙģÙĬØ©": 4634,
  "ĠØ¨Ø§ÙĦØªØ³Ø§ÙĪÙĬ": 15808,
  "ĠÙĪØªÙĥØ±Ø§Ø±Ø§": 63510,
  "Ġcerv": 78297,
  "ĠÙĩØ§ÙĨÙĬ": 27949,
  "Ġacute": 34412,
  "ĠØ¨Ø§ÙĦØ§Ø¯Ø§Ø¡": 95016,
  "Ġsubmissions": 95671,
  "ĠÙħÙĦÙħÙĪØ³ÙĬØªÙĩØ§": 86248,
  "ĠØ¬Ø±Ø§Ùħ": 24715,
  "Ġlexical": 56765,
  "ĠÙĨØ¬ÙħÙĬ": 24691,
  "Ġl": 331,
  "ĠØ§ÙĦØ²ÙĨØ¨Ø±Ùĥ": 37136,
  "Ġalta": 81881,
  "ĠØ§ÙĦÙĤØ±Ø§Ø¡Ø©": 13596,
  "ĠØ§Ø¨ØªØ¹Ø¯Øª": 84284,
  "Ġpellagra": 65252,
  "less": 4127,
  "ĠØ§ÙĦÙħØŃØ§Ùħ": 34236,
  "ĠØ§ÙĦØ±Ø¹Ø¯ÙĬØ©": 9384,
  "ĠÙĪØ§ÙĦØ§ÙĨÙĩÙĬØ§Ø±Ø§Øª": 78708,
  "ĠInstruments": 71098,
  "ĠÙħÙĥÙģÙĬ": 58819,
  "gets": 10197,
  "ĠÙĩØªÙĦ": 54759,
  "ØªÙĥØª": 56972,
  "ĠÙĪÙĬØªØ¹ÙĦÙħÙĪØ§": 74575,
  "ĠÙĦÙĦØ§ÙĪØ±Ø§ÙĤ": 39788,
  "Ø§ÙĦØ¹Øµ": 58084,
  "ĠWin": 34272,
  "ĠÙĬØ´Ø§Ø±": 7824,
  "ĠØªØ±ÙĥØª": 92467,
  "Ø§Ø°ÙĬØ©": 28505,
  "ĠÙĪØ³ÙĬØ§Ø³Ø§ØªÙĩØ§": 42468,
  "ĠÙħÙĤØ±": 11559,
  "Ø¯Ø±Ø§ÙħØ§": 11450,
  "Ø§ÙĦÙĥØ§Ø±ÙĬØ§ØªÙĬØ¯": 87502,
  "Ġimpuls": 68339,
  "ĠØªØªÙĨÙĤÙĦ": 48507,
  "idging": 80257,
  "Ø§Ø³ÙĬØ§ÙĨ": 82963,
  "Windows": 95746,
  "ĠPadua": 97694,
  "ediation": 48672,
  "Ġter": 7600,
  "umns": 90239,
  "Ø§ÙĨØ¯ÙģØ§Ø¹": 48428,
  "Ġenshrined": 75755,
  "ÙĬÙĪØŃÙĨØ§": 99321,
  "ĠChang": 68626,
  "ÙĩÙĪØ±": 927,
  "ĠÙĪÙĬØªØ¬Ø³Ø¯": 82922,
  "ĠØ¯ÙĪÙĥÙĬÙĨØ²": 97196,
  "my": 8373,
  "am": 334,
  "ĠÙĩØ§ÙĦÙĪ": 54765,
  "ÙĨØ§ÙĥØ¨": 77189,
  "ĠØ³ØªÙĨØ®ÙģØ¶": 74881,
  "Ġpopulations": 6722,
  "ĠÙħÙĥØ§ÙĬ": 87372,
  "ĠØ¨Ø§ÙĦØªÙģ": 12804,
  "Ġassemblage": 41079,
  "Ġreflectors": 35025,
  "Ø¯Ø¹ÙĬ": 27857,
  "Ġattempting": 35418,
  "ĠØ§ÙĦÙħÙĪÙĬ": 31349,
  "Ø³Ø§ØŃØ±": 74460,
  "ĠÙħØµØ§Ø¯Ùħ": 84317,
  "ĠØ§ÙĦØ¨ÙĬØ±ÙĬØ³ØªØ±ÙĪÙĬÙĥØ§": 99743,
  "¯": 111,
  "ĠØ§ÙĦÙĥÙĬØªØ²Ø§ÙĦÙĥÙĪØ§ØªÙĦÙĪØ³": 63688,
  "ĠÙĪØ¯ÙĤÙĬÙĤ": 51796,
  "Ø§ÙĪÙĤØ§Øª": 76938,
  "ĠØ§ÙĦØªØ³ÙħÙĬØ©": 19921,
  "Ø±ÙĪØ¬Ø§Øª": 80072,
  "ĠGaldik": 91685,
  "ĠØ§ÙĦØ¬ÙĨÙĪØ¨ÙĬØ©": 6483,
  "ĠØ§ÙĦÙĥØ±ÙĪÙĨØ©": 46520,
  "Ø§ÙĦØ¹ÙħØ§Ø±Ø©": 29512,
  "Ġpersona": 58429,
  "ĠÙĪØ§ÙĦÙħÙĪØ§ÙĨÙĬ": 87606,
  "ĠØ§ÙĦÙĨØ§ÙĤØµ": 48878,
  "ĠÙĪØ±Ø§Ø¡": 8038,
  "ĠÙĪÙħØªÙĬÙĨØ©": 41823,
  "ØªÙĤÙĦØ¨": 70861,
  "ĠØ¨ÙĬØ®Øµ": 65577,
  "ĠCDCD": 29290,
  "ĠÙĩØ¯ÙĪØ¡Ø§": 63167,
  "ĠØ®Ø²ÙģÙĬØ©": 95833,
  "ĠØ¨Ø³ÙĪÙĨØ§ØªØ©": 83006,
  "ĠØ¨ÙĬØªØ¨Ø¹": 28049,
  "ĠÙĪØ§ÙĦØ§ÙĦÙĥØªØ±ÙĪÙĨÙĬØ©": 74477,
  "Ġreviews": 38462,
  "ĠÙĬÙĪØ§Ø¬ÙĩÙĪÙĨ": 92844,
  "ĠØ¨ÙĪÙĨØªÙĬÙĥ": 93513,
  "Ġcyberattacks": 53534,
  "ĠIsla": 70139,
  "ĠØºØ¶Ø¨Ø§": 95379,
  "Ġstation": 21413,
  "ĠÙĦÙĦÙĤØ¶Ø§Ø¡": 50964,
  "ĠØ¹ÙĦØ¨Ø©": 33776,
  "ateuch": 81368,
  "ĠØ§ÙĦØ§ÙĬØ¬Ø§Ø±": 45037,
  "Ġthirteen": 100105,
  "ĠØªÙĤØ¯Ùħ": 5372,
  "ĠØªÙĤÙģ": 37091,
  "Hal": 22894,
  "Ġscience": 6317,
  "Ø§ÙĦØªØµ": 8650,
  "ĠÙħØ¬ØªÙħØ¹Ø©": 37206,
  "ÙħØ§Ø¬": 48271,
  "cop": 64245,
  "ÙħØ³ÙĬØ©": 18321,
  "ØŃØ§Ø¨Ø©": 11742,
  "ØªÙĤØ¨Ø§ÙĦ": 18299,
  "ĠØ§ÙĦÙĩØ©": 4291,
  "Ġ120": 27415,
  "ĠØ§ÙĪØ³ØªØ±ÙĪÙħ": 35844,
  "Ø§ÙĦØºØ¨Ø§Ø±": 86287,
  "Ø§ÙĦØ±ÙĪØ¨ÙĪØªØ§Øª": 64625,
  "eyton": 85126,
  "Cyanea": 72183,
  "Ġinsider": 58734,
  "ÙĨÙĬÙĨØ§": 25783,
  "Ø§ÙĦØ¯ÙĪÙĦØ©": 41465,
  "ĠAcidification": 62485,
  "ĠÙħØ²ÙĬ": 25115,
  "Ġobligated": 47500,
  "Ġblouse": 68530,
  "ĠØ§ÙĦÙģÙĦÙĪØ±Ø³ÙĨØª": 70481,
  "Ġadded": 15035,
  "isection": 78030,
  "ĠFO": 37021,
  "ĠTundra": 81634,
  "ĠØ§ÙĦÙģØ³ÙĬÙģØ³Ø§ÙĬÙĬØ©": 92066,
  "Ġinhibitor": 73476,
  "Ġprimary": 2417,
  "ĠØ§ÙĦÙħÙĥØªØ¨Ø©": 29254,
  "ĠSutton": 55916,
  "ĠÙĪØ§ÙĦÙħØ³ØŃ": 88220,
  "ĠMocking": 28320,
  "ĠØ§ØªØ±ÙħÙī": 100246,
  "ĠÙĦÙĦØ´ØªÙĦØ©": 75508,
  "ĠØ§ÙĦØ´Ø±ÙĪØ®": 55775,
  "Ġoutlets": 40889,
  "ĠÙĬØ±Ø§ÙĤØ¨ÙĪØ§": 96122,
  "ĠÙĤÙĪØªÙĩÙħ": 38930,
  "ĠØµØ§Ø¯Ø±": 81312,
  "ĠÙģØ§Ø±ÙĨØ²ÙĪØ±Ø«": 92341,
  "ĠØ¯ÙĬÙĥØ³ÙĬØª": 63524,
  "ĠÙĪØ§ÙĤÙħØ´Ø©": 88192,
  "ÙĩØ±ÙĨÙĩØ§ÙĬØª": 16634,
  "ĠÙĦÙĦØ®ÙĬÙĪÙĦ": 75511,
  "load": 21909,
  "ĠØ§ÙĦØ¬Ø§ÙħØ§ÙĬÙĥÙĬØ©": 89588,
  "ĠÙĪÙģÙĬÙģÙĬØ§ÙĨ": 87117,
  "aus": 1262,
  "ĠÙĪÙħØ¹ÙĦÙĪÙħØ§Øª": 21486,
  "ĠØ§ÙĦÙħØªÙģØ§Ø¹": 33592,
  "Ġkings": 81985,
  "Ø¨ÙħØ§Ø°Ø§": 18116,
  "ĠØ³ÙĬÙĦØªÙĨ": 93734,
  "ĠØ§ÙĦØ§ØªØ³Ø§ÙĤ": 19546,
  "Ġwheel": 34392,
  "Ġmelan": 32788,
  "Ø§ÙħÙĪÙĬÙĦ": 48681,
  "ĠØ§ÙĦÙħØ¶": 4180,
  "ĠØ§ÙĦÙģÙĤØ±ÙĬ": 17463,
  "Ġward": 28015,
  "Ġ540": 69141,
  "Ġsubsurface": 52198,
  "ĠØ§ÙĦØ§Ø³ØªØºÙħØ§ÙĬØ©": 75246,
  "ĠLyell": 73942,
  "Ġfour": 6142,
  "ĠØ·Ø§ÙĤØªÙĩ": 36704,
  "Ø±ÙĬØ²": 17152,
  "Customer": 62824,
  "Ġmoved": 28676,
  "Ġlobe": 39829,
  "ĠExec": 45297,
  "018": 75872,
  "ĠØ§ÙĦØ·Ø±ÙĪØ¯": 66453,
  "Ġtheoretical": 14178,
  "Ġgerrymandering": 66046,
  "Ġnests": 49127,
  "ĠÙģØ¹ÙĦÙĬØ©": 70267,
  "ĠÙĬØŃÙĦÙĪØ§": 33098,
  "Ø§Ø³ØªÙĪÙĬØ¯": 90710,
  "ĠØ¹ÙĦØ§ÙĤØ§ØªÙĨØ§": 60130,
  "ĠØ¨ÙĬØ¹Ø¨Ø±ÙĪØ§": 79269,
  "Ġvis": 3457,
  "Ġdecimal": 37445,
  "Ġincid": 20604,
  "ĠÙĪØ§ÙĦØ§ØµÙĦØ§ØŃ": 78667,
  "ĠÙĪØ§ÙĦÙĥØ§Ø±ÙĨØ§ØªÙĬÙĥÙĬØ©": 99552,
  "Ġrockets": 59045,
  "quarks": 81800,
  "Ø§ÙĦÙĪØŃØ´": 42968,
  "Ø¯Ø§Ø±ÙĦÙĬÙĨØ¬": 87397,
  "ĠØ³Ø¹Ø±": 7028,
  "Ġhydraulics": 73644,
  "Ø®Ø±ÙģØ©": 8732,
  "Ġdisput": 13066,
  "Ġjudges": 32606,
  "Ø§ØªÙĬÙĥÙĬØ©": 58330,
  "ĠØ§Ø°Ø§Ø¹Ø©": 86788,
  "ÙħØ¬ÙħÙĪØ¹Ø§Øª": 64638,
  "arks": 12625,
  "Ø§ÙĦØ´Ø±Ø¹ÙĬØ©": 53302,
  "ĠÙĩØ§ÙĥÙĨ": 78346,
  "roid": 7018,
  "ĠØ§ÙĦØ®ÙĬØ§ÙĦÙĬ": 18517,
  "Ø§ÙĦØ¬ÙħØ¹": 64594,
  "ĠØ§ÙĦÙĤØ¯ÙħØ§Ø¡": 16133,
  "ĠØ¨ÙĦÙĪÙħÙĨÙģÙĬÙĦØ¯": 63603,
  "ĠØ¨ÙĬÙĨØ³Ø¨ÙĪØ§": 33140,
  "ĠØ¨ÙĬØªØŃØ·": 38258,
  "Ø¹ÙħÙħ": 50421,
  "Ġappearance": 12685,
  "Ġdigestive": 27543,
  "Ġstrokes": 49168,
  "Ġresemb": 24423,
  "Ġhammer": 29822,
  "ĠÙĦÙĩØ§ÙĦÙĥ": 58336,
  "social": 21519,
  "ĠÙĦÙĦØ¨Ø±ÙĪØªÙĬÙĨ": 30959,
  "ĠCups": 91639,
  "ĠØ¬Ø§ØªØ§ÙħÙĬÙĦ": 55433,
  "Ecole": 93880,
  "Ø²ÙħÙĩ": 87844,
  "zilla": 36006,
  "ĠØ¨ÙĬØºØ°ÙĬ": 36406,
  "Ø§ÙĦØªÙĥÙĬÙĬÙģ": 57781,
  "ĠØ§ÙĦÙĥÙĨØ²": 31643,
  "Ġrealized": 45693,
  "Ġscript": 7295,
  "ĠØ§ÙĦØ§ØµØ¯Ø§Ø¡": 83673,
  "ÙĥÙĦÙħÙĪØ§": 19610,
  "ÙĪÙĥØ¯Ø©": 23232,
  "ĠÙĦÙĪØ¨ÙĪØªØ§ÙĨ": 99485,
  "Blue": 46455,
  "ÙĤØ·Ø§Ø¹": 16526,
  "ĠØ§ÙĦØªØ±ÙħÙĪÙħØªØ±": 96935,
  "imer": 55665,
  "Ġpiercing": 63406,
  "Vip": 64180,
  "ÙĦÙĬÙĩ": 10925,
  "ĠÙĪØ§ÙĦØ§ÙĨØ³Ø§ÙĨÙĬØ©": 27646,
  "Ø§ÙĤÙĩ": 48990,
  "ĠØ§ÙĦØ³ÙĪØ§ÙĬÙĦ": 8191,
  "ĠØŃØ¯Ø¯": 25295,
  "Ġcome": 11614,
  "ĠØ¨Ø§ÙĦØ§Ø¯ÙĦØ§Ø¡": 80541,
  "Ġunwritten": 57082,
  "itutions": 2602,
  "ĠStef": 37263,
  "Ġserved": 9488,
  "ĠTs": 26746,
  "Ġconquered": 73598,
  "åĲ´è¯Ń": 97972,
  "Ġfarm": 11577,
  "Ġbulb": 21127,
  "ĠÙĦØµÙĪØª": 59173,
  "ĠØªØ·Ø¨ÙĤ": 44999,
  "Ø§Ø¨Ø§ÙĨ": 18196,
  "Ġmetaphysics": 85531,
  "Ġimprovisational": 61773,
  "ØºÙħØ§ÙĨ": 79005,
  "ĠØ³ØªØ§ÙĦÙħØ§ÙĨ": 87215,
  "ĠÙĪØ§ÙĦÙĥØ§Ø«ÙĪÙĦÙĬÙĥ": 87983,
  "ys": 5062,
  "Ġgrotes": 57652,
  "ÙģØ³Ø±ÙĪÙĩØ§": 82550,
  "ĠØ§ÙĦØªØ§Ø¨Ø¹Ø©": 20611,
  "Turing": 76390,
  "ĠØ§ÙĦØ§ÙħØ«ÙĦ": 31966,
  "ĠÙĥÙĪØ¨ÙĨ": 72190,
  "ft": 1151,
  "itics": 3041,
  "ĠÙĪØªÙĨØµÙĬØ¨": 69629,
  "Biomedical": 47276,
  "Ġsubst": 4309,
  "Ġmagma": 20356,
  "Ġhull": 66060,
  "Ġplasma": 33256,
  "ĠÙħØ³ÙĬØ·Ø±ÙĬÙĨ": 42339,
  "Iodine": 39169,
  "ĠÎĶ": 46636,
  "ĠÙĪØ§Ø®ØªØ¨Ø§Ø±ÙĩØ§": 52743,
  "ĠØ§ÙĦØ³ÙħØ§Ø¹Ø©": 59436,
  "ĠÙĬØªØ¨ÙĨÙī": 52760,
  "ĠÙĪØ§ÙĦØªØ¬Ø§ÙĨØ³": 51561,
  "ĠÙĦÙĦÙĨÙĪÙī": 68894,
  "ĠØ¨ÙĬØªÙĤØ§Ø¨ÙĦ": 93630,
  "ØºØ±ÙĬØ³ÙĦØ§ÙĨØ¯": 96235,
  "Ø§ÙĦØ§ÙĦÙĬØ§Ø°Ø©": 97564,
  "ivirus": 80094,
  "Malware": 52786,
  "ÙĦÙĥ": 631,
  "ĠØ«ÙĪØ±": 9343,
  "ĠÙĪØ§Ø±ÙĤØ§Ùħ": 89247,
  "ĠØ¹ÙĦØ§ÙĤ": 29716,
  "Ġpathway": 29093,
  "Ġallocation": 27057,
  "Ġimprison": 17834,
  "ĠÙĪÙĨØ±Ø¬Ø¹": 68183,
  "ĠÙĦÙĬØ¯Ø¬Ø±": 97309,
  "Ø´ÙħÙĦ": 43187,
  "ÙĩÙĬØ³ØªÙĬØ§": 81059,
  "Alliteration": 61157,
  "Ø¯ÙĪØ§ÙĨÙĬØ©": 45548,
  "Ġselects": 52082,
  "ĠÙĦÙĦÙĬØ¨ÙĬØ±ÙĬØ§": 60690,
  "ĠØ§ÙĦÙĤØ§ÙĨÙĪÙĨÙĬØ©": 3502,
  "ĠØ§ÙĦØŃØ±ÙĥÙĬ": 21378,
  "ĠØ§ÙĦØ¬ÙĬÙĪØ´": 32406,
  "Ġmanifestations": 72897,
  "Ġmagnify": 88806,
  "ÙĨÙĬØª": 56123,
  "ĠØ§ÙħÙĨÙĬÙĪÙĨÙĬØ§": 97855,
  "Ø¨ÙĬÙĦÙĬ": 55716,
  "ĠØªØ°Ø§ÙĥØ±": 38584,
  "Indo": 19100,
  "Ġsweat": 52199,
  "ĠXML": 70453,
  "ĠÙĩÙĪØ§ÙĬÙĬØªÙĬÙĨ": 62182,
  "Ġhib": 80171,
  "ĠÙĨØªØ§Ø¨Ø¹": 51444,
  "ĠKenya": 38901,
  "Ø²Ø¨Ø±Ø©": 65261,
  "ĠÙĪØ§ÙĦÙĪØ±ÙĤ": 97174,
  "Ġhumidity": 10789,
  "racy": 7479,
  "ĠÙģÙĬØ±ÙĦ": 78254,
  "ĠØ§ÙĦÙĥÙĪØ¯Ø§ÙħØ§": 88716,
  "ĠØ§ÙĦÙģØ¹Ø§ÙĦØ©": 15090,
  "Ġhorizontal": 18578,
  "ĠÙĦÙĦØ¨Ø·ÙĦØ©": 79565,
  "Biography": 38498,
  "ĠÙĪØ³ÙĦÙĪÙĥÙĩ": 90783,
  "ĠSirica": 73113,
  "Ġanacondas": 99989,
  "GPS": 13923,
  "oriented": 20466,
  "Ø§ÙĦÙħÙĩÙĨØ¯Ø³": 23156,
  "Synt": 53890,
  "ĠÙĦÙĩÙĪÙģØ³ØªÙĬØ¯": 86233,
  "ĠØ¨ÙĪÙĥÙĬØªØ±": 63365,
  "Ø¬Ø§Ø²Ø§Øª": 17104,
  "ĠØ¨Ø§ÙĦØ¹ÙħÙĤ": 49198,
  "Ġnude": 80218,
  "Ġhyperparameter": 99109,
  "Ġreplica": 91674,
  "Ġmicrol": 92805,
  "ĠConservative": 92902,
  "ĠØºÙĪØºÙĨÙĩØ§ÙĬÙħ": 38866,
  "Ġ65": 69733,
  "Ġdesigning": 14371,
  "ĠHybridization": 73934,
  "ĠØ§ÙĦØ§ÙĨØ«": 14914,
  "ĠØ§ÙĦØªÙĨØ§ÙĤØµ": 67990,
  "ĠØ¨ÙĬØªØŃÙĥÙħ": 17657,
  "ĠØ§ÙĦØŃØ±Ø³": 83522,
  "ĠØ§ÙĦØ®ÙĦÙģ": 23205,
  "Ġcourtroom": 32626,
  "Ø§ÙĨØªÙĩØª": 95531,
  "ĠØ³ÙħÙĬØª": 32801,
  "ĠØ§Ø¶Ø§Ø¡Ø©": 13116,
  "ĠØ°ÙĨØ¨": 82774,
  "idence": 3862,
  "ĠØ¨Ø±Ø§ÙĩÙħÙĬ": 57260,
  "ĠÙĪØ§ÙĦØ³ÙĬØ§ÙĤÙĬØ©": 59704,
  "Ġworn": 7408,
  "ĠØ¬ÙĬØ±Ø¨ÙĪÙĥØ³": 91911,
  "ĠØ§ÙĦØªØ±Ø§Ø¨Ø·": 15322,
  "Ø§Ø¨ÙĦÙĥ": 79472,
  "ĠSeries": 19749,
  "Ø§ØªÙĬØ©": 31340,
  "Ġsocio": 69449,
  "hous": 76620,
  "ĠÙĨØ§ÙĤØ´": 43532,
  "ĠÙĩÙĪØ³Ùĩ": 97619,
  "ĠØ§Ø±ØªÙĥØ¨": 27547,
  "ÙĨÙĬÙĪØªØ±ÙĪÙĨ": 46410,
  "biogeography": 94102,
  "rid": 18093,
  "Ni": 48001,
  "Aryan": 75042,
  "Ġplea": 41790,
  "Ġaxial": 46782,
  "ĠDevelop": 10452,
  "Accessory": 74434,
  "Ø¬Ø²": 6590,
  "Ġswashbuckling": 59699,
  "ĠØ§ÙĦØ³ÙĪØ·": 66005,
  "Ġinterdiscipl": 57944,
  "ĠØ¨Ø§ÙĦØ±ÙĪÙĬØ©": 55833,
  "å®¢å®": 62163,
  "Ġren": 10727,
  "ĠBocc": 67024,
  "Ġpouch": 50262,
  "ĠMiguel": 81737,
  "ĠVedas": 35820,
  "ÙĦÙĬØº": 78441,
  "Ġmistakenly": 95722,
  "Ġsieges": 98662,
  "ĠØ§ÙĦØ±ÙĩØ¨Ø§ÙĨÙĬØ©": 94179,
  "ĠCaptivity": 99924,
  "ĠÙĪØ§ÙĦØ§Ø¹ØªÙħØ§Ø¯": 27375,
  "Ġghaz": 66047,
  "emed": 29859,
  "encrusted": 96217,
  "ĠØ§ÙĦØ¬Ø°Ø±": 15542,
  "Ġdu": 18716,
  "ĠÙĦØ¨Ø±Ùĩ": 33155,
  "ĠÙĪØ§ÙĦÙħØ¹ÙĦÙħØ§Øª": 100044,
  "ĠÙĬØªØ±Ø¯Ø¯": 72407,
  "ĠÙĪØ§ÙĦÙĨØ¹ÙĨØ§Ø¹": 57936,
  "ĠØ§ÙĦÙħÙĦÙĬÙĨØ§Øª": 77906,
  "ĠØ¨Ø±ÙĪØªÙĪÙĨ": 34901,
  "Ø¬Ø±Øª": 58022,
  "ĠÙħØªÙĤØ¨ÙĦ": 90132,
  "hetic": 7453,
  "DMZ": 95724,
  "ĠÙĪÙĨØŃØ¯Ø¯": 46350,
  "ĠÙĦÙħØ³ØŃ": 71199,
  "ĠØªÙĨØ¸ÙĬÙħÙĩ": 88257,
  "ĠØ§Ø³Ø¹Ø§Ùģ": 79971,
  "ÙĬØªØ·ÙĦØ¨": 89708,
  "ÙĨØ¯Ø±Ø§ÙĨØ§Øª": 61243,
  "ĠØ¬Ø°Ø§Ø¨Ø§": 61210,
  "ĠØ±Ø§ÙĬØ¯Ø±Ø²": 95462,
  "ĠÙĦØ«ÙĤØ§ÙģØªÙĩÙħ": 99475,
  "Ġcelebrity": 71325,
  "ÙģØ³Ø·": 34245,
  "Ġcleans": 45951,
  "ĠØŃÙģ": 9201,
  "ĠÙĪØ±Ø³ÙħÙĩØ§": 61818,
  "Ġsurvive": 12908,
  "ĠAnswer": 96635,
  "ĠRegulations": 46677,
  "Ġmechanic": 59378,
  "ĠØ§ÙĦÙħÙĪÙĤØ¹Ø©": 77889,
  "Ġearly": 3462,
  "Ġfacies": 71185,
  "Ġtrip": 41560,
  "Ġstrictus": 72703,
  "Ġ1758": 70511,
  "ĠBoth": 18290,
  "Ġho": 55685,
  "ĠÙħØ§ÙĬØªÙĨØ±": 51540,
  "ĠØªÙĤ": 746,
  "ĠØ§ÙĦØ§ÙĦØºØ§Ùħ": 47605,
  "Ġparades": 69968,
  "ĠÙħØ¬Ø³ÙħØ§Øª": 83905,
  "ĠGellner": 100118,
  "ÙĪØ§ÙĦØªØ±": 28866,
  "ĠÙĪØ§ÙĤØ¯Ø§Ùħ": 88189,
  "ÙĪÙħØ¨Ø§": 36684,
  "Ø«ÙĨÙĬØ©": 65508,
  "ĠFEA": 82686,
  "ĠØ§ÙĦØ¬Ø±": 6193,
  "ĠØ¨Ø¹ÙħÙĤÙĩØ§": 95225,
  "ĠÙĪØ±Ø·Ø¨": 34740,
  "Ø²Ø§ÙĨ": 18696,
  "Ġseparating": 32715,
  "ØªØŃØ§ÙĨØ§Øª": 36842,
  "Ġprominent": 5260,
  "ĠÙĪÙģÙĦØ³": 41121,
  "ĠØ¨ÙĬØ¯ÙĪØ§": 55195,
  "ĠØªÙĥÙĬÙģÙĬ": 65042,
  "Ġcables": 22105,
  "ĠØ§ÙĦØ¹ÙĤÙĪÙĦ": 43582,
  "ĠShank": 88163,
  "ĠÙĬÙģØ³Ø±": 13725,
  "Ġcoastline": 60370,
  "ĠØ¨ØªØªÙĨÙĤÙĦ": 18191,
  "Ġisolated": 18553,
  "ĠEthiopia": 62741,
  "ac": 642,
  "ucatan": 84566,
  "ĠØ¨Ø¹Ø¶ÙĩÙħØ§": 22432,
  "ĠÙĪØ¬Ø³Ùħ": 26937,
  "ĠElias": 90322,
  "ĠÙĪØ®Ø§Ø±Ø¬": 34745,
  "ĠHawaiian": 30926,
  "important": 74683,
  "ĠÙĪÙħØ´ÙģØ±Ø©": 100034,
  "Ġshows": 13316,
  "Ġbarrier": 20405,
  "def": 18629,
  "Ġanswers": 74427,
  "ËĨ": 64537,
  "Ġcovers": 16011,
  "ĠØ§ÙĦÙĦÙĪØºÙĪØºØ±Ø§ÙģÙĬ": 59665,
  "Ġsustainability": 21789,
  "ÙĪÙĬÙĦ": 1389,
  "ĠØ§ÙĦØ¨Ø¯ÙĦØ©": 21087,
  "Ø²ÙħÙĪÙĦÙĪØ¬ÙĬØ§": 87846,
  "Ø¶ÙĬØŃ": 32547,
  "ĠØ§ÙĦÙĩÙĪÙĦÙĨØ¯ÙĬØ©": 41942,
  "ĠØ§ÙĪÙĦØ§": 7103,
  "sec": 9024,
  "ĠØ§ÙĦØ§ÙĨØªØ±ÙĪØ¨ÙĬØ§": 15970,
  "Ø§ÙĦØªØŃÙĥÙħ": 18104,
  "ĠÙĪØ§ÙĦÙħØµØ¨Ø§Øª": 93313,
  "ĠØ¨Ø±ÙĬØ¡": 28842,
  "ĠâĤª.": 73303,
  "outs": 84393,
  "ØºØ§Ø±ÙĬØªÙħ": 15813,
  "ĠØ´ÙĬ": 2634,
  "Ġshort": 4385,
  "itutes": 33672,
  "Ø±Ø©": 412,
  "ĠÙĪØ¹Ø·Ø§Ø±Ø¯": 57923,
  "anding": 49558,
  "Ġorderly": 70499,
  "ĠCeremony": 74903,
  "ĠØ§ÙĦØ¹ÙĪØ¯ÙĬØ©": 79391,
  "ĠØ¨ÙĬØ®ÙģÙģ": 48815,
  "ĠRoeb": 67164,
  "ĠØ§ÙĦÙĥØ§Ø¨ÙĬØªÙĪÙĦ": 75522,
  "Ø§ÙĦÙĨØ¸Ø±ÙĬ": 83971,
  "ĠØ§ÙĦØµÙģ": 4357,
  "Ġairport": 34725,
  "ĠÙĪØ§ØŃØ¯Ø§": 17785,
  "ĠØ§Ø±ØµØ¯Ø©": 57289,
  "ĠCritics": 94323,
  "ĠTyl": 40168,
  "Wordless": 99269,
  "Ø¨ÙĬØ±ÙĬØ©": 34147,
  "Ijma": 76142,
  "ĠAyod": 81105,
  "ĠØ¨Ø§ÙĨÙĤØ³Ø§ÙħÙĩØ§": 85805,
  "ĠÙĪÙĥØ§ÙĦØ§Øª": 57989,
  "ĠØ¨ØµÙĪØªÙĩ": 27246,
  "ĠØ¨ÙĬÙĦØ¨Ø³ÙĪÙĩ": 47317,
  "oph": 7487,
  "ĠÙĪØ´ØºÙĦÙĩ": 35777,
  "ĠBerlin": 22859,
  "Ġautotrophs": 58422,
  "ĠÙĪØ§ÙĦØªÙĤØ§Ø¶ÙĬ": 89064,
  "ĠØ¨ØªÙĨØ´ÙĬØ·": 86206,
  "ĠØ§ÙĦØŃÙĥÙħ": 6906,
  "ĠØ§ÙĦÙĥØ§ÙĦÙĬÙĨØ¯ÙĪÙĦØ§": 99752,
  "ĠØ§ÙĦØ¬ÙĩØ©": 43833,
  "ĠÙĦØ´ÙĪÙĪÙĨ": 88132,
  "phore": 35979,
  "ĠØ§ÙĦÙĪÙĦÙĬØ¯Ø©": 67342,
  "ĠØ§ÙĦØ§ÙĪÙĤØ§Øª": 23261,
  "ØªØ¯": 2529,
  "Ġcopies": 19076,
  "ĠÙĪØªØ§Ø«Ø±": 34027,
  "phia": 73773,
  "ĠØ¹Ø±Ø§ÙĬØ³": 77998,
  "ĠÙĤØ±Ø§Ø±Ø§ØªÙĩØ§": 70423,
  "ĠØªØŃØ³ÙĬÙĨØ§Øª": 45903,
  "ĠØ§ÙģØ·Ø§Ø±": 84700,
  "Skills": 96716,
  "ĠØ¨ÙĬØ¶Ø·Ø±ÙĪØ§": 92810,
  "ĠÙģÙĪØ±ØªØ±Ø§ÙĨ": 92463,
  "ĠØ«ÙĪØ±Ø§ÙĨ": 22771,
  "ĠØ¨Ø§ÙĦØ·ÙĬÙĪØ±": 66204,
  "ĠÙĨÙĩØ±ÙĬ": 35310,
  "ĠÙĪØªÙģØ§Ø¹ÙĦÙĩ": 72309,
  "ĠØ¯ÙĬÙĥØ³ÙĬ": 56159,
  "Ø§Ø¨Ø¹Ø§Ø¯": 27192,
  "Ø¯Ø©": 365,
  "ĠÙĪØ§ÙĦØ®ÙĦÙĬØ·": 78719,
  "Ġsplitting": 72989,
  "Ø¯ÙħÙĬØ±": 7738,
  "ÙĦÙĬÙĦÙĬ": 15496,
  "ĠØ±Ø§Ø¯ÙĬÙĪÙĩÙĬØ¯": 95602,
  "Ġmanuscripts": 97798,
  "Ø§ÙĦØ¯ÙĬÙħÙĤØ±Ø§Ø·ÙĬØ©": 23958,
  "wolves": 31237,
  "km": 64332,
  "carnivores": 96184,
  "ØºØ·ÙĬØ©": 11134,
  "ĠØ¨Ø§ÙĦÙħÙĨØªØ¬": 46789,
  "Ġobtained": 26157,
  "egrees": 10276,
  "ĠÙĪØ§ÙĦÙĤØ±Ùī": 86016,
  "Ġchanges": 3496,
  "Ġprogressed": 87118,
  "ĠØ§ÙĪÙĦØ§Ø¯Ùĩ": 94595,
  "ĠSaudi": 25397,
  "Hon": 63909,
  "Ġsample": 20453,
  "ĠÙĪØªØµØ§ÙħÙĬÙħ": 88594,
  "ĠØ¨ÙĨØŃØ³Ø¨": 24749,
  "ĠModulation": 92170,
  "ĠMedications": 59722,
  "ĠØ¯Ø±ÙĬØ¯Ø§": 47580,
  "ĠÙĦÙĩÙĬØ§ÙĥÙĦ": 95538,
  "Ġporcelain": 95546,
  "Ayers": 47897,
  "ĠØ²Ø§Ø¯Øª": 13674,
  "ĠAthena": 35094,
  "Astronomers": 97917,
  "uler": 22223,
  "ĠÙħØŃØ§Ø·Ø©": 40439,
  "Ġreceding": 42509,
  "bour": 53963,
  "Ġour": 2933,
  "ÙĨØ§Ø¯ÙĬØ§": 72805,
  "ÙĪÙĨØ§Ø±": 65477,
  "ĠØ³Ø¨Ø§ÙĬØ¯Ø±": 58895,
  "ĠOtis": 84105,
  "asons": 9939,
  "ĠØ§ÙĦÙħØµØ§ÙĦØŃØ©": 84044,
  "ÙħØªØ¹ÙĦÙĤ": 88433,
  "Ø¨Ø§ÙĦØº": 25751,
  "ĠØ¨ØªØªÙĪØµÙĦ": 65634,
  "America": 72801,
  "ĠØ§ÙĦÙħØ«ÙĤØ¨": 89168,
  "ĠÙĪØ§ÙĦÙħÙĬÙĪÙĨØ§Øª": 93611,
  "ĠØ§ÙĦØ·ÙĪØ¨ÙĪØºØ±Ø§ÙģÙĬØ§": 72590,
  "ĠØ§ÙĦØ§Ø³Ø§ÙĨØ³ÙĬØ±Ø§Øª": 98766,
  "RI": 33403,
  "Multiplication": 73763,
  "ĠFerguson": 39086,
  "ĠÙĩÙĬÙĤÙĦ": 55438,
  "Ġoval": 65013,
  "ĠØ±Ø§ÙĬØ¯": 10394,
  "ĠØ§ÙĦØ¨Ø§ÙĦÙĪØ¹Ø§Øª": 72621,
  "erCo": 64986,
  "ĠØ§ÙĦØ¬ÙĩÙĪØ¯": 33945,
  "obular": 49972,
  "ĠMallowan": 100019,
  "ĠØ§Ø¹ØªØ¨Ø±ÙĪØ§": 84723,
  "ĠÙĩÙĬØ¹ÙĪÙħ": 79716,
  "ĠÙĨÙĨØ²ÙĦ": 91670,
  "ĠØ¨ØªØ¯ÙĬ": 4808,
  "Ġmindfulness": 38269,
  "Ø¬ÙĬÙĬÙĦØ§": 57518,
  "Flying": 76057,
  "ĠØ§ÙĦÙħØ±Ø§ØªÙĬØ©": 61657,
  "ĠØ§ÙĦÙĨØ³Ø§Ø¡": 11876,
  "ĠProcessing": 20241,
  "ĠØ§ÙĦØŃÙĪØ§ÙħØ©": 96825,
  "ĠØªØªØµÙĦØ¨": 78085,
  "ĠÙĬÙĪØ¯ÙĬ": 1424,
  "ÙħÙĩØ¯Ø¯": 27560,
  "ĠØ³ÙĬØ±Ø©": 25334,
  "Herbert": 96704,
  "rolog": 58217,
  "ĠÙĪØµÙĪÙĦÙĩÙħ": 92604,
  "Ø¸ÙħØªÙĩØ§": 57946,
  "ĠØ§Ø°": 2309,
  "ØªØ±Ø¶": 5504,
  "Ġidentifying": 16161,
  "ĠØ¬Ø°Ø±ÙĬ": 46836,
  "ĠÙĪØ§ÙĦØ¨Ø±ØªØºØ§ÙĦ": 96797,
  "ÙĨØªØ²": 32211,
  "etus": 28144,
  "ĠÙĪØ§ÙĦØ§ØªØµØ§ÙĦ": 21825,
  "ØªØ±ÙĬØ§Ø±Ùĥ": 87744,
  "Bresson": 35827,
  "ĠÙĪØ§ÙĦØ¨ÙĬÙĪØªÙĬØª": 90670,
  "ĠØ¯ÙħØ±ÙĩØ§": 94991,
  "Ġprocessing": 8260,
  "ĠØ§ÙĪÙĦØ¨Ø±Ø²": 57199,
  "ĠDamping": 82635,
  "ruiting": 82541,
  "amboo": 21791,
  "Ġlinen": 22201,
  "ĠNirvana": 40428,
  "ĠÙĦÙĪØ³Ø§ÙĥØ§": 46638,
  "Ġfel": 18158,
  "!)": 31133,
  "ĠØ³ÙĬÙĦÙģÙĬØ§": 46998,
  "ĠØ¨ÙĪØ±Ø¬ÙĪØ§": 47329,
  "ĠØ§ÙĦÙĦÙĤØ§ØŃ": 9167,
  "ÙĨÙĪØ±ÙħØ§ÙĨ": 29517,
  "igmund": 52878,
  "ĠØ§ÙĦÙħØªØ¨Ø§ÙĩÙĬ": 91902,
  "ĠØ§ÙĦØ¨ÙĤØ¯ÙĪÙĨØ³": 63468,
  "ĠØ§Ø²Ø±ÙĤ": 19542,
  "Ġsoybean": 95627,
  "ĠØ¨ÙĬÙĬØªÙĨØ§": 45821,
  "ĠØ§ÙĦØ§Ø±ÙĬØ§Ùģ": 64659,
  "Wars": 10340,
  "ĠOc": 37239,
  "Ġmaintained": 45723,
  "ĠÙĪÙĪØ³Ø§ÙĬÙĦ": 14821,
  "Ø§ÙĦØŃÙĤÙĨ": 85046,
  "ĠØ§ÙĦØ´Ø§ÙĬ": 14283,
  "ledy": 58588,
  "ĠØ°ÙĩØ§Ø¨Ø§": 61270,
  "inality": 64894,
  "Ġsaline": 88721,
  "Ġequ": 2029,
  "ĠÙĦØ§Ø³ØªØ±Ø¯Ø§Ø¯": 59257,
  "ÙħÙĤÙĦÙĪØ¨": 64647,
  "Ġmuscul": 70227,
  "iasis": 35466,
  "Ø§Ùī": 76934,
  "ĠFramework": 82690,
  "ampires": 69621,
  "Ġreed": 48963,
  "ĠÙħÙĥØ¨Ø±Ø§Øª": 87377,
  "ĠÙĦØ§ØŃÙħØ§ÙĦ": 88606,
  "ĠØªØ¶Ø±": 13951,
  "ĠØ§ÙĦØ®Ø²ÙĨØ©": 81484,
  "Facilitating": 53764,
  "âĪ«_": 74114,
  "ÙĪÙĥØ§": 34190,
  "ĠEqual": 52439,
  "ĠÙħØªØ¹": 2422,
  "Ø§ÙĦÙħÙĬØ§Ùĩ": 59046,
  "ĠØ§ÙĦØ§ÙĤØ§ÙħØ©": 9355,
  "ĠØ¨Ø§ÙĦÙħÙĤØ§Ø±ÙĨØ©": 98415,
  "ĠÙĦÙĦÙĥØ«ÙĬØ±ÙĬÙĨ": 99000,
  "ĠÙĪØ¬ÙħØ§ÙĦÙĬØªÙĩ": 61835,
  "aux": 59549,
  "Ġiterative": 49482,
  "Piccolo": 76305,
  "ĠÙĪØ§ÙĦØŃÙĬØ§Ø©": 16706,
  "ĠÙĦØªÙĨØ¸ÙĬÙħ": 14164,
  "ĠØ¨ÙħÙģÙĩÙĪÙħ": 5520,
  "ĠÙĦÙĦÙħÙĨØ´Ø§": 70592,
  "ĠØ§ÙĦØ®Ø·Ø§Ø¨Ø©": 41130,
  "ĠÙĪØ§ÙĦØªØµØ±ÙģØ§Øª": 47466,
  "ĠDepletion": 58877,
  "ĠÙĪÙĨØºÙĬØ±": 84468,
  "ĠØ¨Ø§ÙĦØŃØ¬Ùħ": 45833,
  "Ġflurry": 86340,
  "Ġnext": 15300,
  "Ġbeer": 26743,
  "Ġpositivism": 35676,
  "ÙĩÙĬÙħÙĨ": 21451,
  "Ġrecorded": 20332,
  "ĠÙħØºÙĨÙĬÙĩØ§": 60029,
  "Ġlubric": 99735,
  "Ġgranitic": 94432,
  "Ø«Ùģ": 5542,
  "ĠØ¨Øµ": 3893,
  "ĠÙħØ±Ø¨": 14206,
  "ĠØ§ÙĦØ§ÙħÙĪÙħÙĬ": 22380,
  "ĠØ¨ÙĬØ³ØªØ®Ø¯ÙħÙĩØ§": 20875,
  "ĠØ¯Ø±Ø§Ø³": 49924,
  "ĠØªØ±ÙĬØ¯": 65035,
  "Ġsecurely": 46739,
  "BH": 42661,
  "ĠØ§ÙĨÙģØ³ÙĩÙħ": 19943,
  "Ġpositivity": 51041,
  "ontal": 13829,
  "Stealth": 60310,
  "ĠØªØ±Ø§ÙĬÙĦ": 85538,
  "ĠØ·Ø§ÙĦØ¨Ø©": 60942,
  "Lup": 63972,
  "Ø®Ø§Ø±": 3800,
  "ĠØ§ÙĦÙħØ¸": 25152,
  "Captain": 23912,
  "ĠØ¨ØªØªÙĥØªØ¨": 24126,
  "ĠØ§ÙĦÙĩÙĪÙĦÙĨØ¯ÙĬØ²": 72138,
  "anship": 49773,
  "ĠØ§ÙĦÙħØ§ÙĬØ¹": 39476,
  "ĠØªØ±ØªØ¯ÙĬÙĩ": 47232,
  "ĠÙĥÙĪÙĬØ³Ø©": 6579,
  "ĠØ§ÙĦÙĨØ´Ø±": 10937,
  "Ġviral": 32682,
  "ĠÙĦØªÙĥØ§ÙħÙĦ": 94119,
  "ĠØ¨Ø§ÙĦØ¹Ø¨Ø§Ø±Ø©": 80517,
  "Ġappreciating": 97913,
  "ĠÙħØ¬Ø±Ø§Øª": 17315,
  "ĠLevel": 37810,
  "ĠÙĬØ±Ø¬Ø¹ÙĪØ§": 38538,
  "62": 75875,
  "ĠØªØ³ØªØ¬ÙĪØ¨": 87578,
  "ĠVulgate": 98366,
  "Ġwon": 3973,
  "ĠÙĦÙĦÙħØ¬Ø§ÙĦ": 50107,
  "ĠÙħØ®ÙģÙģØ©": 99367,
  "ĠØ§Ø¹Ø¯Ø§Ø¯ÙĩØ§": 51947,
  "ĠÙĬØ³ØªØ·Ø¹": 69758,
  "ĠØ³ØªØ±Ø©": 79912,
  "Ø¨ÙħØ§": 22941,
  "Ġdomestically": 75018,
  "Ġsest": 39569,
  "Ø§ÙĦÙħÙĥØ§ÙĨØ©": 96046,
  "Ġpalynology": 78500,
  "63": 63747,
  "ĠÙĪØ³Ø§ÙĩÙħØª": 35630,
  "Ø§ÙĦÙĪØ³Ø§ÙĬØ·": 97563,
  "ĠÙĪØ¹Ø§ÙĦÙĬØ©": 50465,
  "ĠØ§Ø³ÙĦØ§ÙħÙĬ": 79976,
  "Ø«ÙĥØ³": 28031,
  "Ġnavigation": 15418,
  "ÙĬÙħÙĨØ¹": 76976,
  "ĠÙĤØ·ÙĨ": 55504,
  "ildren": 40806,
  "ĠÙĪØ¨ÙĬØ¹ÙħÙĦ": 17313,
  "ĠØ§ÙĦÙħÙħÙĨ": 26415,
  "ĠØªÙĪÙĬØªØ±": 42340,
  "ĠÙĦØ¯ÙĪÙĨØ§": 78219,
  "ĠÏĥT": 53374,
  "ĠØ§ÙĦØ´Ùħ": 2110,
  "Hara": 71626,
  "ĠÙĪØªÙĦØ²ÙĤ": 80931,
  "ĠØªØªÙĤØ·Ø¹ÙĩØ§": 92704,
  "Ġox": 3895,
  "ĠÙħØ¹ÙĨØ¯ÙĪØ´": 74679,
  "ĠÙĪØªÙĥÙĪÙĬÙĨÙĩÙħ": 71722,
  "Ø§ÙĦØ§ÙĥØ±Ø§Ùĩ": 91776,
  "Ø§ÙĦØŃØ±ÙĪØ¨": 85037,
  "Ġdispersal": 21936,
  "Ø¯ÙĨÙĬØ©": 7316,
  "Values": 73146,
  "ĠÙģØ±ÙĬØ¯ÙĬ": 38069,
  "Ġirony": 19101,
  "ÙĦØ§ÙĪØ¬": 59696,
  "orate": 54787,
  "ĠØ¨Ø§ÙĦØ³Ø¹Ø§Ø¯Ø©": 35167,
  "ĠØ§ÙĦØ§Ø®ØªØ±Ø§ÙĤ": 28414,
  "Ø§ÙĦÙģØ¶ÙĦ": 50587,
  "ctu": 10085,
  "éĹ½è¯Ń": 99314,
  "ĠØ§ÙĦØ·Ø§ÙĦØ¨": 10950,
  "Ġmedic": 30363,
  "Ġslippery": 95702,
  "Ġskirt": 25858,
  "Ġanten": 81450,
  "ĠÙĬØ´ÙĥÙĦ": 11061,
  "ĠÙĥØ§ÙĨØªÙĪØ±": 34393,
  "ĠØ¹Ø§Ø±Ùģ": 13157,
  "ĠØ¨ØºÙĬØ¶Ø©": 97577,
  "ĠØ§ÙĦÙĥÙĦØ§Ø³ÙĬÙĥÙĬØ©": 7929,
  "Ġgluons": 74497,
  "ĠÙĬÙģÙĥØ±": 21004,
  "ĠÙĪØ§ÙĦØ§Ø±Ø²": 89847,
  "ĠÙħØŃØªØ§Ø¬ÙĬÙĨ": 14743,
  "ĠÙĪØ§ÙĦØ®ÙĦ": 23020,
  "ĠØ¨ÙħÙģÙĩÙĪÙħÙĩ": 23641,
  "ifs": 49306,
  "ĠØ¨Ø§ÙĦØ·ÙĤØ³": 36676,
  "Ġskateboarding": 98985,
  "ĠPole": 66598,
  "ĠØ¨ÙĨØ§Ø©": 44337,
  "ĠÙĨØŃÙħÙĬÙĩØ§": 86517,
  "ĠØ·Ø§ÙĬØ±Ø§Øª": 49264,
  "ØªØ¨Ø³": 24270,
  "ĠØ§ÙĦØ±Ø§Ø¹ÙĬ": 44169,
  "Ø§Ø·Ø¹": 4417,
  "ĠØ¨ÙĬØ¯ÙģØ¹": 24114,
  "ĠØ§ÙĦØŃÙĬÙĦ": 43645,
  "ĠPerforming": 91196,
  "ĠÙĪØ§ÙĦØ±ÙĪ": 6685,
  "ĠØ§ÙĦÙħØ³Ø§ÙĩÙħØ§Øª": 27494,
  "ĠØ¨ØªØ®ÙĦÙĬÙĩØ§": 28848,
  "WALL": 95283,
  "ĠØ§ÙĦØ´ÙĦØ§ÙĦØ§Øª": 55770,
  "Ġbeaver": 56294,
  "Ø±Ø§ÙĥÙĪ": 60117,
  "ĠÙħÙģÙĥØ±ÙĪÙĨ": 58625,
  "Ø§ÙĦØ¹Ø§ÙĤØ¨Ø©": 58090,
  "ĠÙĪØ§ÙĦØ§ÙĤØªØµØ§Ø¯ÙĬ": 15064,
  "Ø¹ÙĬÙĩ": 83913,
  "Ø¯Ø±ÙĪ": 2651,
  "pezoidal": 75161,
  "ĠÙĪØ±ÙĬ": 39415,
  "Acid": 39124,
  "ĠÙħØ±ØµØ¯": 57107,
  "ÙĦ": 186,
  "Ø§ÙĪØ¯ÙĬ": 22400,
  "Ø³ØŃØ¨": 29551,
  "ĠÙĩØªÙĤØ¯Ø±": 53241,
  "Overt": 76257,
  "ĠÙĪØ«ÙĦØ§Ø«ÙĬØ©": 95986,
  "Academic": 89985,
  "itamin": 7868,
  "ĠÙĪØ§ÙĦÙĤÙħØµØ§ÙĨ": 50664,
  "Ø§ÙĦØ§ÙĨØªØ´Ø§Ø±": 30442,
  "ĠOri": 37241,
  "Ø§ÙĦÙħØ³ÙĪÙĪÙĦØ©": 94565,
  "ĠØ§ÙĦØ¬ÙĪÙĬØ©": 5646,
  "Ġgables": 66044,
  "ĠÙĦÙħØ´ÙĥÙĦØ©": 40690,
  "ĠÙĪØ¨ÙĨØª": 82824,
  "ĠØ§ÙĦØ§Ø¨Ø§ØªÙĬØª": 99344,
  "ĠØ§ÙĦÙħØ²Ø¯ØŃÙħØ©": 69688,
  "ĠÙĥØ§ÙĨÙĬÙĪÙĨ": 18836,
  "ĠÙĪÙĨØ±Ø¯": 84473,
  "ĠØ§ÙĦÙĬØ§Ø¨Ø³Ø©": 27216,
  "ĠØ§ÙĦØ§ØŃÙģÙĪØ±ÙĬØ©": 13382,
  "ĠOxbridge": 96595,
  "Ø§ÙĦØ§ÙĨÙĩÙĬØ§Ø±": 54203,
  "ĠÙĪÙħÙĨÙĬØ±": 58802,
  "ĠÙĦØ¶ÙĪØ¡": 78158,
  "ÙģÙĩ": 1139,
  "ĠØ§ÙĦÙĨÙģÙĪØ°": 51029,
  "ĠPiag": 56206,
  "ĠZork": 88417,
  "ĠÙĦÙĦØ§ØµÙĪØ§Øª": 42201,
  "ĠEukarya": 81761,
  "Ġharmonization": 73286,
  "ÙĤÙĬÙĪØ¯": 16795,
  "ĠÙĦØªØµØ±ÙĬÙģ": 90293,
  "ĠVers": 17343,
  "Odin": 96712,
  "tebrates": 17051,
  "Ø§Ø³ÙħÙĩØ§": 6515,
  "Ġ1908": 27413,
  "ĠØ¨ÙĬØ¬Ø±ÙĬ": 41858,
  "Ġmetamorphism": 68700,
  "ĠØ§ÙĦØ§Ø¯Ø§ØªÙĬ": 84161,
  "itories": 65229,
  "ĠProtocol": 14468,
  "Ġconsumption": 9147,
  "ĠØ¨ÙĦÙĪÙħ": 22455,
  "ĠØŃØ§Ø¯Ø§": 92004,
  "ĠDel": 16828,
  "ĠPredict": 66608,
  "ĠØ¨ØªÙĪØµ": 36414,
  "ĠÙĦÙĦØŃÙħÙĦØ§Øª": 45255,
  "ĠÙĪØ§ÙĦØŃØ±ÙĬØ§Øª": 18939,
  "Ġconstipation": 86889,
  "ĠØ³Ø§Ø¹Ø§Øª": 10545,
  "Ġparents": 21154,
  "ĠØ§ÙĦÙĥÙĬÙħÙĬ": 1634,
  "information": 27896,
  "Ġphi": 78487,
  "Ġcrocod": 47369,
  "eralogy": 87761,
  "ĠÙĦØ§ÙħØªØ¯Ø§Ø¯": 90390,
  "ĠSSDs": 74687,
  "Ø§ÙĦØ¯Ø¨ÙĦÙĪÙħØ§Ø³ÙĬØ©": 59606,
  "ØªØ´ØªØª": 34237,
  "ĠÙĪØ¨Ø§ÙĨ": 82818,
  "Ø¨ØªÙĬÙĨ": 48329,
  "ĠØ§ÙĦØ¬ÙħØ¹ÙĬ": 41015,
  "Ø¯ÙĪØ¬": 7531,
  "fler": 64290,
  "Ø§ÙĦØªØ§Ø³ÙĬØ³": 84929,
  "ĠØ§ÙĦÙħÙĨØªÙĤÙĦØ©": 96302,
  "ÙĤØ§Ø¯": 36079,
  "ĠÙĪØ§ÙĦØ§Ø³Øª": 8521,
  "ĠØ§ÙĦØ¹ÙĦØ§ÙĤØ§Øª": 3714,
  "ĠØ§ØŃØªÙħØ§ÙĦØ§Øª": 71700,
  "ĠØ§Ø´ØªØ±ÙĪØ§": 94203,
  "ĠÙĦÙĦØ¯Ø¹Ùħ": 36472,
  "ĠÙĦÙĦÙħØ¹ÙĦÙĪÙħ": 34424,
  "ĠØ§ÙĦÙħØ¯ÙĬÙĨØ©": 5488,
  "ĠÙĥÙĪØ¨Ø±ÙĬÙĥ": 52298,
  "Deconstructivism": 69533,
  "Ø²ÙĪÙĨ": 17125,
  "Ġman": 1771,
  "ĠÙĪØ¨ÙĪÙĬÙĬ": 82838,
  "Ġinterchangeable": 42491,
  "If": 53798,
  "Ø´ØŃÙĨ": 88442,
  "ÙģØ³Ø±ÙĪØ§": 31919,
  "ĠÙĨÙĬØºØ§Ø±Ø¯": 86605,
  "Ø§ÙģØ±ÙĪØ¯ÙĬØª": 55400,
  "ĠØ§ÙĦØªØ¹Ø±ÙĬØ©": 15299,
  "ĠØ§ÙĦÙħØ¯ÙĨÙĬØ©": 6431,
  "ĠÙĨØ§Ø¬ØŃ": 15782,
  "ĠÙĥØ±ÙĪØ¬ÙħØ§ÙĨ": 60407,
  "ĠÙĦØ§Ø³ÙĬØªÙĬØ±": 75449,
  "Ø¸Ø±ÙĬØ§Øª": 22188,
  "ĠØ§ÙĦØªØ·Ø¹ÙĬÙħØ§Øª": 62363,
  "ĠØ§ÙĦÙħØ®ÙģÙĬØ©": 45172,
  "Ġmasala": 73389,
  "ĠØ§ÙĦØ³ÙĦÙĤ": 85385,
  "ĠÙĪØ§Ø®Ø°": 59561,
  "ĠGreg": 44362,
  "ĠØ¨ÙĪÙħ": 48373,
  "ĠØ¨Ø±ÙĪØ³Ùĥ": 59057,
  "ĠØ§ÙĦÙħÙĥØ³Ø±": 43158,
  "ĠØªØ´ÙĪÙĨØºØ¬ÙĬØ§ÙĨ": 100208,
  "bow": 53958,
  "ĠÙĪØ¬ÙĪØ±Ø¯": 84256,
  "ĠÙĪØ§ÙĨØ§Ø³Øª": 85507,
  "ĠÙĤØ±ÙĪÙĨ": 25862,
  "ĠØ§ÙĦÙĦØ§ØªÙĬÙĨØ³ÙĬ": 70854,
  "fox": 33435,
  "ĠÙħØ±ÙĪØ±": 5799,
  "ĠBo": 11112,
  "umonia": 44123,
  "Ġfollow": 4533,
  "ĠØ¬ÙĬÙĪÙģÙĬÙĨØ§Ø²ÙĬ": 100451,
  "Ø¬ÙĩÙĪØ¬": 90704,
  "ĠKardashev": 63079,
  "ĠÙĪØªØ±ÙĥÙĬØ²Ùĩ": 62231,
  "zzle": 92599,
  "ĠÙħØ±ØªØ¯ÙĬÙĩØ§": 67670,
  "ĠOSI": 44780,
  "ĠLocation": 82725,
  "Ġoverflow": 45032,
  "ĠØ§ÙĦÙħÙħØ³": 64957,
  "ĠÙĪØ°Ø§ÙĥØ±Ø©": 94646,
  "ĠØ§ÙĦØ®Ø¨Ø²": 11101,
  "ÙĪØŃØ¯Ø©": 6928,
  "ĠPPC": 81363,
  "ĠÙĬØŃÙģØ¸": 84570,
  "Samuel": 19179,
  "ĠØ¨ØµÙģØ§Øª": 33134,
  "Ø±Ø§ÙģØ¹Ø©": 44820,
  "ĠØ§ÙĦØŃÙĦØ§ÙĤØ©": 46348,
  "ĠØ¨ØªØ³ÙĦÙģ": 70056,
  "ĠÙĦÙĦÙĤØ¨": 87232,
  "govern": 31205,
  "ĠÙħØ¯ÙĬÙĪÙĨØ©": 53175,
  "Ġscenes": 38567,
  "igmatization": 62881,
  "ĠÙģØ±Ø¯ÙĬØ§": 68027,
  "ĠÙģØ§ÙĩÙħ": 48469,
  "ĠØ§ÙĦØ§ÙħÙĦØ§Ùĥ": 56888,
  "âģ»": 35505,
  "Ġshutter": 16038,
  "ÙĪØ«ÙĤ": 37633,
  "ØªÙĪØŃØ´": 60476,
  "Ġbasslines": 62576,
  "ĠØ§ÙĦØŃØ§Ø³Ø¨": 39804,
  "ĠÙĪØ§ÙĦÙħØ³Ø§Ø¹Ø¯": 81913,
  "ĠØ§ÙĦØ±Ø§ÙģØ¹Ø©": 18276,
  "ĠØ§ÙĦØºØ±Ø¨ÙĬØ©": 9020,
  "ĠØ§ÙĦØ§ÙĬÙĤØ§Ø¹ÙĬ": 35366,
  "richment": 46451,
  "exical": 68616,
  "ĠÙĨØ§ÙĤÙĦØ§Øª": 65570,
  "ĠØ§ÙĦØ¶Ø¯": 83091,
  "ĠØ§ÙĦÙħØ±Ø§ÙĤØ¨ÙĬÙĨ": 37165,
  "ervoir": 44659,
  "ĠÙĬØ³ØªØ·ÙĬØ¹ÙĪÙĨ": 47234,
  "Ġtrickster": 62166,
  "ĠÙĪØ§ÙĬØ·Ø§ÙĦÙĬØ§": 35067,
  "ĠÙħØ¬Ø±Ùī": 16451,
  "Ġwhimsical": 100525,
  "ĠØºÙĬØ±ÙĩØ§": 13311,
  "ĠÙĦØ§Ø´": 12973,
  "Ø§Ø¬ÙĩØ§Ø¯": 16105,
  "ĠÙĪØ§ÙĦØ§ØºØ±Ø§Ø¡": 93800,
  "ĠCanadian": 32767,
  "ĠDef": 11466,
  "ĠØ§ÙĦØ¶ÙĦØ¹": 18318,
  "ĠÙĪÙĬØªÙģØ§Ø¹ÙĦÙĪØ§": 53083,
  "ĠØ¨Ø¹Ø¶": 989,
  "ĠÙĦØªÙħØ«ÙĬÙĦ": 12708,
  "ĠØ§ÙĦØ§Ø³Ø§Ø·ÙĬØ±": 3525,
  "exts": 8832,
  "GN": 11545,
  "ĠÙĦØ§ÙĬØ±ÙĦÙĨØ¯Ø§": 54718,
  "ĠØ§ÙĪÙĩØ§ÙĬÙĪ": 47791,
  "sounding": 82580,
  "Ø§Ø¹Ø¯ÙĬØ§": 78999,
  "ĠYeats": 75244,
  "ĠØ§ÙĦØ§Ø¬ÙĦ": 10415,
  "Ġprecip": 44864,
  "ĠGamel": 82414,
  "ĠØ§ÙĨØª": 5246,
  "ĠÙĪØ¨Ø±Ø§Ø¡Ø§Øª": 30688,
  "ĠÙĪØ§ÙĦØ³Ø±ÙĤØ©": 58204,
  "Psychology": 3209,
  "ĠØ¨Ø§ÙĦÙħØ«ÙĦ": 22255,
  "ĠØ§ÙĦÙĥØ±Ø¨ÙĪÙĨÙĬ": 45150,
  "Mulholland": 47749,
  "ĠÙĪØ§ÙĩÙħÙĩÙħ": 71923,
  "Ġtrad": 1509,
  "Ġcapt": 5892,
  "ĠØ§ÙĦÙĦØ§Ø²Ùħ": 17987,
  "ĠPoets": 90146,
  "Behavior": 10316,
  "ĠØ§ÙĨÙģØ§Ø°": 27529,
  "Pleistocene": 62248,
  "Ø³ÙĦÙĬØ¬ÙĩÙħ": 94109,
  "ĠØ§ÙĦÙĦØ§ÙĩÙĪØª": 97271,
  "ĠÙĬØ´ÙĬØ±": 3888,
  "Ġresignation": 98320,
  "Ø²ÙĬØªØ§": 56227,
  "ĠÙĦÙħØ¨Ø±ÙħØ¬ÙĬ": 68218,
  "cuneus": 75383,
  "ĠØ§ÙĦÙħÙĪØ§ØµÙģØ§Øª": 82804,
  "ĠÙĪØ·ÙĨÙĬ": 28886,
  "ĠSy": 22263,
  "ĠØ§ÙĦÙĨØ³Ø§ÙĬÙĬ": 69801,
  "ĠÙĬÙħØªÙĦÙĥÙĩ": 93684,
  "ĠØ¨ØªÙĬØ¬Ø§ÙĨ": 48847,
  "ĠÙĪØ§ÙĦØ¨ÙĬØ¹": 54903,
  "ĠØ§ÙĦØ§ÙħÙĪ": 56884,
  "Ø¶Ø±ÙĪÙģ": 22128,
  "ĠØ§ÙĦØ¬Ø±Ø§ÙģÙĬ": 72818,
  "ĠOutback": 96924,
  "ÙĬØ¨ÙĪØ¨Ø©": 45326,
  "ĠØ§Ø¯ÙħÙĪÙĨ": 44650,
  "Ġ1994": 15379,
  "terior": 49464,
  "Ġcommittees": 93473,
  "Ġhighlighted": 72962,
  "ĠØªØŃØ¬Ø²": 56511,
  "Ġdemon": 6930,
  "Af": 21982,
  "Photolysis": 93266,
  "ÙĩØ±ÙĬØ©": 17575,
  "ĠØ¬Ø±Ø§ÙĬÙħ": 19956,
  "TEK": 64159,
  "ĠÙĪÙĬØŃÙģØ²": 59494,
  "ĠØ¹ÙħÙĦÙĩ": 6518,
  "ĠÙĬØ·Ø±Ø¯": 43367,
  "ĠØ§ÙĦÙĨÙģØ§Ø°Ø©": 51030,
  "ĠÙĬØªÙĨÙģØ³": 61140,
  "Ø§Ø¨ØªÙĥØ±": 26563,
  "ĠÙĪØ§ÙĦØ¬ÙĩØ§Øª": 45260,
  "ĠAbd": 72935,
  "ĠÙĪØ¹Ø±Ø¶Ø©": 37433,
  "ĠÙĦÙĦØŃÙģÙĦØ§Øª": 86075,
  "Ø§Ø¶ÙĬÙĬÙĨ": 85177,
  "Ø§ÙĦØ¨ØŃØ±": 49426,
  "ĠØ¨ØªØ³ØªÙĤØ¨ÙĦ": 35144,
  "Ø¯Ø§Ø¯Ø§Øª": 20531,
  "ĠVis": 30257,
  "ĠAustin": 73175,
  "Wolverine": 76459,
  "ĠDennis": 82627,
  "ĠÙĪØ§ÙĨØ¹Ùħ": 85502,
  "ĠØ§ÙĦØ§ÙĪØ±Ø§ÙĦ": 45569,
  "Ġweddings": 53068,
  "ĠÙĬØ®ØªØ±Ø¹": 35056,
  "ĠØ§ÙĦØ§Ø¬ØªÙħØ§Ø¹": 814,
  "ĠÙĩÙĬÙĤÙĦÙĦÙĪØ§": 98719,
  "Ø§Ø·ÙĦØ§ÙĦ": 80959,
  "Ø¯ÙĬÙĬØ©": 48946,
  "ĠØ§ÙĦØ§ÙĤØ±Ø§Øµ": 37256,
  "ĠØ§Ø±ÙĪÙĬÙĨ": 67844,
  "inal": 4498,
  "Ġhome": 5272,
  "Ø¨Ø±ØªÙĪ": 31735,
  "ĠÙĦÙħÙĥØ§ÙĨØ©": 92184,
  "Ġlearn": 7121,
  "Ø³ÙĪØ«Ø±ÙħØ§Øª": 89265,
  "Ġpronouns": 93776,
  "ĠØ¯Ø¹Ø§ÙħØ§Øª": 38541,
  "Ġconcealing": 94849,
  "ĠØ¨Ø§ÙĦÙģØ³ØªØ§ÙĨ": 51720,
  "ĠØ§ÙĦØ§ØŃØ³Ø§Ø³": 12025,
  "ĠØŃØ§Ùħ": 65711,
  "from": 21221,
  "ĠØ±Ø²ÙĬ": 80770,
  "ĠØ§ÙĦØªÙħÙĬÙĬØ²ÙĬØ©": 41687,
  "glodytes": 71855,
  "Ġcitizen": 38248,
  "ĠØªØ±Ø¹Ø§Ùĩ": 85549,
  "Ġ7000": 45690,
  "Ġ1781": 42211,
  "MMO": 64007,
  "Ġdisclose": 96362,
  "ĠØ®ØµÙĬØµØ§": 20475,
  "Ġcontent": 5369,
  "ĠÙĨØµÙĨÙģ": 51131,
  "Ø§ÙĦÙģÙĨÙĪÙĨ": 68824,
  "ĠÙĦÙĦØ§ØªØ¬Ø§ÙĩØ§Øª": 92008,
  "ĠÙĪØ§ÙĦØªØ¬Ø§Ø±": 89682,
  "ĠPublications": 42371,
  "ĠØ§ÙĦØ¬Ø¨ÙĩØ©": 30812,
  "leone": 79095,
  "tresses": 64463,
  "riors": 36937,
  "Ġfibrous": 46215,
  "ĠØ§ÙĦÙħÙĨØ®ÙģØ¶Ø©": 10113,
  "ĠÙĩØ±": 11054,
  "ĠØ¯Ø¹ÙĪÙī": 26156,
  "Ġdiscovers": 85647,
  "nect": 3046,
  "ĠØ¨ÙĬÙĦØ¹Ø¨ÙĪØ§": 29059,
  "ĠÙĪÙĪØ§Ø¬Ø¨Ø§Øª": 26402,
  "ĠØµØ§ÙħÙĪÙĬÙĦ": 52733,
  "Ġsaltwater": 38359,
  "Drought": 76006,
  "Ġsubs": 11325,
  "ukuyomi": 47622,
  "ØªØ§ØªÙĪÙħ": 91287,
  "ĠÙĬØ§ÙĦÙĪ": 43364,
  "ĠÙĦØ§ØŃØ¸ÙĪØ§": 94362,
  "ĠÙĦÙĦÙħÙĤØ§Ø¶Ø§Ø©": 95427,
  "ĠÙĪØ§ÙĦÙģØ§ÙĦÙĥ": 86616,
  "ountains": 85623,
  "Ġsinensis": 52942,
[...]
